{"<pad>":0,"<unk>":1,"<s>":2,"</s>":3,"<mask>":4,"!":5,"\"":6,"#":7,"$":8,"%":9,"&":10,"'":11,"(":12,")":13,"*":14,"+":15,",":16,"-":17,".":18,"/":19,"0":20,"1":21,"2":22,"3":23,"4":24,"5":25,"6":26,"7":27,"8":28,"9":29,":":30,";":31,"<":32,"=":33,">":34,"?":35,"@":36,"A":37,"B":38,"C":39,"D":40,"E":41,"F":42,"G":43,"H":44,"I":45,"J":46,"K":47,"L":48,"M":49,"N":50,"O":51,"P":52,"Q":53,"R":54,"S":55,"T":56,"U":57,"V":58,"W":59,"X":60,"Y":61,"Z":62,"[":63,"\\":64,"]":65,"^":66,"_":67,"`":68,"a":69,"b":70,"c":71,"d":72,"e":73,"f":74,"g":75,"h":76,"i":77,"j":78,"k":79,"l":80,"m":81,"n":82,"o":83,"p":84,"q":85,"r":86,"s":87,"t":88,"u":89,"v":90,"w":91,"x":92,"y":93,"z":94,"{":95,"|":96,"}":97,"~":98,"¡":99,"¢":100,"£":101,"¤":102,"¥":103,"¦":104,"§":105,"¨":106,"©":107,"ª":108,"«":109,"¬":110,"®":111,"¯":112,"°":113,"±":114,"²":115,"³":116,"´":117,"µ":118,"¶":119,"·":120,"¸":121,"¹":122,"º":123,"»":124,"¼":125,"½":126,"¾":127,"¿":128,"À":129,"Á":130,"Â":131,"Ã":132,"Ä":133,"Å":134,"Æ":135,"Ç":136,"È":137,"É":138,"Ê":139,"Ë":140,"Ì":141,"Í":142,"Î":143,"Ï":144,"Ð":145,"Ñ":146,"Ò":147,"Ó":148,"Ô":149,"Õ":150,"Ö":151,"×":152,"Ø":153,"Ù":154,"Ú":155,"Û":156,"Ü":157,"Ý":158,"Þ":159,"ß":160,"à":161,"á":162,"â":163,"ã":164,"ä":165,"å":166,"æ":167,"ç":168,"è":169,"é":170,"ê":171,"ë":172,"ì":173,"í":174,"î":175,"ï":176,"ð":177,"ñ":178,"ò":179,"ó":180,"ô":181,"õ":182,"ö":183,"÷":184,"ø":185,"ù":186,"ú":187,"û":188,"ü":189,"ý":190,"þ":191,"ÿ":192,"Ā":193,"ā":194,"Ă":195,"ă":196,"Ą":197,"ą":198,"Ć":199,"ć":200,"Ĉ":201,"ĉ":202,"Ċ":203,"ċ":204,"Č":205,"č":206,"Ď":207,"ď":208,"Đ":209,"đ":210,"Ē":211,"ē":212,"Ĕ":213,"ĕ":214,"Ė":215,"ė":216,"Ę":217,"ę":218,"Ě":219,"ě":220,"Ĝ":221,"ĝ":222,"Ğ":223,"ğ":224,"Ġ":225,"ġ":226,"Ģ":227,"ģ":228,"Ĥ":229,"ĥ":230,"Ħ":231,"ħ":232,"Ĩ":233,"ĩ":234,"Ī":235,"ī":236,"Ĭ":237,"ĭ":238,"Į":239,"į":240,"İ":241,"ı":242,"Ĳ":243,"ĳ":244,"Ĵ":245,"ĵ":246,"Ķ":247,"ķ":248,"ĸ":249,"Ĺ":250,"ĺ":251,"Ļ":252,"ļ":253,"Ľ":254,"ľ":255,"Ŀ":256,"ŀ":257,"Ł":258,"ł":259,"Ń":260,"áĪ":261,"áĬ":262,"áī":263,"áĭ":264,"ĠáĬ":265,"áĮ":266,"áį":267,"ĠáĪ":268,"Ġáĭ":269,"áĬķ":270,"áī¥":271,"áīµ":272,"áĪĿ":273,"áĭŃ":274,"ĠáĬ£":275,"áĪŃ":276,"áĪį":277,"áī°":278,"Ġáį":279,"áĪµ":280,"ĠáĬ¥":281,"ĠáĮ":282,"áĪĪ":283,"ĠáĭĿ":284,"áī³":285,"áīł":286,"áī²":287,"áĬĵ":288,"Ġáī¥":289,"áĪ¨":290,"áī£":291,"áĬ¥":292,"áĬĲ":293,"áĬ£":294,"áĭµ":295,"ĠáĪĿ":296,"ĠáĪĺ":297,"áĪĺ":298,"áĪ«":299,"áį¢":300,"ĠáĬ£áī¥":301,"ĠáĬķ":302,"áį¡":303,"ĠáĬ¨":304,"ĠáĬŃ":305,"áĪķ":306,"áĪĭ":307,"áĪĽ":308,"áĭķ":309,"Ġáī°":310,"Ġáī":311,"Ġáį¢":312,"áĮĪ":313,"áĭį":314,"áĭ°":315,"áĭĿ":316,"Ġáĭĺ":317,"áĮį":318,"áĭ«":319,"áįį":320,"áĪ°":321,"áĪī":322,"áĪª":323,"áĪĵ":324,"ĠáĬ¥áĭ":325,"ĠáĬĵ":326,"áĬ«":327,"áĮ½":328,"áĭĪ":329,"Ġáį¡":330,"ĠáĪĵ":331,"áĭĵ":332,"áĪİ":333,"ĠáĪµ":334,"áĭ³":335,"áĪ³":336,"áī³áīµ":337,"ĠáĬĲ":338,"áĬ½":339,"áĭĬ":340,"áīķ":341,"ĠáĭŃ":342,"ĠáĬ«":343,"ĠáĭĪ":344,"ĠáĬ¨áĪĿ":345,"áĪĬ":346,"áī¶":347,"Ġáĭĵ":348,"ĠáĪ°":349,"áįĪ":350,"áĬŃ":351,"áĬ¨":352,"Ġáĭµ":353,"áĪħ":354,"áĭĺ":355,"áĮĭ":356,"áĮ¥":357,"áĭļ":358,"ĠáĮį":359,"áĭ¨":360,"ĠáĬĵáĭŃ":361,"ĠáĬ¥áĬķ":362,"áĭĭ":363,"áĪ©":364,"áĭ²":365,"áĪĥ":366,"áĬ¡":367,"áĪ®":368,"ĠáĮĪ":369,"áī¢":370,"ĠáĬ«áī¥":371,"Ġáīµ":372,"áĮ»":373,"Ġáĭ°":374,"áĭ©":375,"áĭİ":376,"áĭįáĬķ":377,"áĬĴ":378,"áĮ¸":379,"ĠáĪĿáĪµ":380,"ĠáĬ¥áĭ©":381,"áĭ®":382,"áĬ¸":383,"áĭĽ":384,"áĬ»":385,"ĠáĬ¢":386,"áĬĳ":387,"áĪļ":388,"áī¡":389,"ĠáĭĿáī°":390,"ĠáĪĽ":391,"Ġáīł":392,"ĠáĪķ":393,"áīµáĬķ":394,"áī±":395,"áĪ½":396,"ĠáĭµáĪĽ":397,"áīĲ":398,"áĪ²":399,"áĮł":400,"ĠáĬ£áĭŃ":401,"Ġáĭį":402,"ĠáĪĥ":403,"áĬĲáīµ":404,"ĠáĬ¥áī²":405,"ĠáĪµáĪĪ":406,"áī¶áĪĿ":407,"áįĭ":408,"Ġ1":409,"Ġáįį":410,"áį£":411,"Ġáī¥áĪĿ":412,"ĠáĭĺáĭŃ":413,"ĠáĮ¸":414,"áĬ£áī¥":415,"Ġ2":416,"ĠáĬ¥áĬķáī°":417,"ĠáĬĵáī¥":418,"áĬ©":419,"áĬ¦":420,"Ġáĭķ":421,"Ġ\"":422,"áī¦":423,"áĪŀ":424,"áīĥ":425,"áĬ¢":426,"Ġáī£":427,"ĠáīĢ":428,"áīĢ":429,"áīłáĪŃ":430,"áīłáĪ¨":431,"ĠáĮ¥":432,"ĠáĪį":433,"áĪĻ":434,"ĠáĪħ":435,"áĬª":436,"Ġáĭ¨":437,"áĭ±":438,"áĬ¹":439,"ĠáĪĺáĬķ":440,"áĪ±":441,"Ġáī¤":442,"Ġáīħ":443,"ĠáĮ½":444,"áĮ£":445,"ĠáĬ¤":446,"ĠáĬ®":447,"ĠáĬ¥áĭļ":448,"áĭĥ":449,"áĮº":450,"ĠáĭĿáĬĲ":451,"áĭī":452,"ĠáĬķáĪĿ":453,"áī¥áĪį":454,"ĠáĬŃáīµ":455,"ĠáĭĺáĪĪ":456,"áīħ":457,"áĬ®":458,"ĭáĬķ":459,"áĪİáĪĿ":460,"áĮĪáĪŃ":461,"áĪĴ":462,"áĬ¾":463,"Ġ.":464,"ĠáĬ¥áĬĵ":465,"ĠáĪĵáĭ°":466,"áĮĬ":467,"áĭľ":468,"áĭĳ":469,"áĬĸ":470,"áĬ¤":471,"áĬ½áĬ¥":472,"áĪ«áīµ":473,"ĠáĪŃ":474,"áĪĳ":475,"áīĤ":476,"áĭ¶":477,"áī£áīµ":478,"áĪŃáīµ":479,"ĠáįĪ":480,"Ġ(":481,"ĠáĭĵáĪĺ":482,"ĠáĪ°áī¥":483,"ĠáĬ¨áĬ£":484,"áīĵ":485,"áĭĻ":486,"áī¥áĪ¨":487,"ĠáĭĪáĭŃ":488,"áĪķáĪª":489,"ĠáĮįáĬķ":490,"ĠáĪĿáĭĥ":491,"áĭĵáĪį":492,"áĭĺáĭŃ":493,"Ġ-":494,"áī¥áĪŃ":495,"áĭ«áĬķ":496,"ĠáĬ©":497,"áī³áĭŃ":498,"áĮī":499,"ĠáĭĺáĪİ":500,"áĬº":501,"áĭĴ":502,"áĪĪáīµ":503,"áĬł":504,"ĠáĬ£áĪĪ":505,"ĠáĬ«áĪį":506,"áįĬ":507,"áĪĿáĬķ":508,"áĪ«áĭĬ":509,"áĮ¹":510,"ĠáĬĲáī²":511,"ĠáĬ¥áĭįáĬķ":512,"áĭĪáīµ":513,"áĪµáī²":514,"áĪŃáī²":515,"áĪµáī°":516,"Ġ20":517,"ĠáĬŃáĬķ":518,"ĠáĬ¸":519,"áĪĿáĪħ":520,"áĮ¢":521,"áĪŃáĬ¨":522,"áĭŃáĬĳ":523,"ĠáĮįáĭľ":524,"ĠáĪµáĪĪáĭĿ":525,"áĭ«áīµ":526,"áĪ³áī¥":527,"áĬ½áĬ¥áĪį":528,"Ġ'":529,"ĠáĭĿáīł":530,"áĪĭáīµ":531,"áĪ«áĪķ":532,"áī³áĭĬ":533,"áĬ¦áĪĿ":534,"áĪ«áĭŃ":535,"ĠáĪ½":536,"ĠáĬ¨áĪĿáĭĿ":537,"Ġáĭļ":538,"áĪ»":539,"áĪ¶":540,"áįī":541,"ĠáĪ³":542,"áĬ¥áĬķ":543,"áī°áĬķ":544,"áĮİ":545,"áĬ¥áī²":546,"ĠáĪļ":547,"áĪ¬":548,"áĪŃáīµáĪ«":549,"áĪĲ":550,"ĠáĬĲáĭŃ":551,"áĪĪáĭŃ":552,"áī£áĪŃ":553,"ŀáī£":554,"áĭĵáīµ":555,"áĮĪáĪį":556,"áĪ¨áī¥":557,"Ġáī¤áīµ":558,"áĬĵáĭŃ":559,"ĠáĬ£áĪİ":560,"ĠáĮī":561,"ĠáĬ¤áĪŃáīµáĪ«":562,"Ġáī°áĪĺ":563,"ĠáĬ¨áĭŃ":564,"áĪµáīµ":565,"ĠáĭĵáĪĺáīµ":566,"ĠáĬª":567,"áĭĢ":568,"áĬĽ":569,"áĬĵáĬķ":570,"áĭķáĪĬ":571,"áĪ¸":572,"ĠáĭĿáĪĵ":573,"Ġáī¥áĭĿ":574,"áīłáĪį":575,"áĪĤ":576,"áĪŃáĭ«":577,"áĬ¸áĭįáĬķ":578,"áĪĪáĬķ":579,"Ġáĭŀáī£":580,"áĬ¾áĬĲ":581,"ĠáĭĿáĬĲáīłáĪ¨":582,"áĪĺáĬķ":583,"ĠáĬ¨áī°":584,"áĪ¨áīµ":585,"áĪ®áĪĿ":586,"áĪĭáĭŃ":587,"ĠáĬ£áĪµ":588,"ĠáĪĥáĮĪ":589,"áĭŃáī²":590,"Ġ3":591,"áĬ©áĪĿ":592,"ĠáĪ¨":593,"00":594,"áĭķáī£":595,"ĠáĬ¥áĭ®":596,"ĠáĪħáĭĿ":597,"Ġáīģ":598,"áĭİáĪĿ":599,"áĮĥ":600,"áįĪáĪį":601,"áĭ®áĪĿ":602,"áĭįáĭ«áĬķ":603,"áĪįáĬķ":604,"Ġáī¦":605,"áĪĪáĪĿ":606,"áĮħ":607,"ĠáĬ¥áīµ":608,"ĠáĬ¥áĭ®áĪĿ":609,"ĠáĪĿáĭĥáĬĳ":610,"ĠáĬ¥áĪĿ":611,"áĬķáī²":612,"áĪĺáĪŃ":613,"áĮĢ":614,"áĭŃáĬķ":615,"ĠáĮĢ":616,"áĮĤ":617,"áĪ°áĪŃ":618,"áĮ¡":619,"ĠáĬ£áĬķ":620,"ĠáĪĪ":621,"ĠáĬ¥áĭ¨":622,"áĪĭáĪĪ":623,"áįİ":624,"áĬ³":625,"Ġ201":626,"ĠáĬ¥áĭĭáĬķ":627,"áĬ¤áĪį":628,"áĪįáĬĵ":629,"áĬĵáīµ":630,"ĠáĪŀ":631,"Ġáĭĭ":632,"áī³áīµáĬķ":633,"áī£áī¢":634,"áĪŃáĬķ":635,"áĪĨ":636,"áĭŀ":637,"Ġáīħáĭµ":638,"áĬĲáĬķ":639,"áī°áĭŃ":640,"ĠáĭµáĪķáĪª":641,"áīĳ":642,"ĠáĬŃáĪ³áī¥":643,"áĪĵáīµ":644,"ĠáĬŃáĪį":645,"ĠáĪĿáĬķ":646,"ĠáĬ£áįį":647,"ĠáĪĺáĪµ":648,"Ġáĭįáĭµ":649,"ĠáĬ£áĪĺ":650,"áĬķáĬķ":651,"Ġáĭ³":652,"áī¤":653,"ĠáīµáĪĿáĪħ":654,"ĠáĮ¥áĪ«áĭŃ":655,"ĠáĬ£áĪĿ":656,"Ġáī¥áĭĻ":657,"ĠáĪĥáĮĪáĪŃ":658,"áĪŃáĬ¥":659,"ĠáĮł":660,"áĬ¥áī³":661,"ĠáĪŃáĬ¥":662,"ĠáĬ¨áĪĿáĭĺ":663,"áĬ£áĭŃ":664,"Ġáĭľ":665,"ĠáĬķáĭĿ":666,"ĠáĪ¸":667,"áĬ°":668,"ĠáĪĿáĪĿ":669,"áī£áĪį":670,"áĬ½áĬķ":671,"áĪĮ":672,"áĪĽáīµ":673,"áĪµáĬķ":674,"áĪŃáĬ¨áī¥":675,"áĭµáĪŃ":676,"áī¥áĪī":677,"ĠáĬ£áĬ«":678,"ĠáĭĿáĪĺ":679,"ĠáĪ°áī£áīµ":680,"ĠáĪįáĭķáĪĬ":681,"áĪĽáĭŃ":682,"áĭ®áĬķ":683,"ĠáįįáĪŃ":684,"Ġáīĥ":685,"Ġáī³":686,"ĠáĪĺáĭĵáĪį":687,"ĠáĮįáĬĵ":688,"Ġáī¥áĪĵ":689,"Ġáī£áĪħ":690,"áĬĸáĪĿ":691,"ĠáĬ¨áī£áī¢":692,"ĠáĬ¸áĬ£":693,"áĮ¸áĬķ":694,"ĠáĪĽáĬ¥":695,"áĭµáĬķ":696,"ĠáĮİ":697,"áĪľ":698,"ĠáĬ¥áī³":699,"ĠáĬ°":700,"áīłáīµ":701,"áĪ°áī¥":702,"áĬ«áī¥":703,"ĠáĬ¥áĬķáĬ¨":704,"ĠáĭŃáīķ":705,"áĭĲ":706,"ĠáĪĺáĪ°":707,"ĠáĬ¨áĪĿáĬ¡":708,"ĠáĬĲáĭŃáĪ©":709,"áī£áī¥":710,"áĪįáĬŃ":711,"ĠáĪĺáĭ°":712,"áī°áĪŃ":713,"áĪĺáĭŃ":714,"áĪ°áĬķ":715,"ĠáĬ¥áī¶áĪĿ":716,"ĠáĬ¥áĭ«":717,"áĪ¨áĬ½":718,"ĠáĬ¥áĬķáī³áĭŃ":719,"áĪįáĬ«":720,"áĪ¨áĮĭ":721,"ĠáĬŃáįį":722,"ĠáĭĿáĭĪ":723,"áįķ":724,"ĠáĭĵáĭŃ":725,"Ġáī¦áī³":726,"áĭĢáĬĲ":727,"áĮĵ":728,"áĭ°áĬķ":729,"Ġ4":730,"áĭ³áĭŃ":731,"ĠáĮĪáĭĽ":732,"áĪ¨áĮĥ":733,"ĠáīµáĪĿáĪħáĪŃáī²":734,"Ġáį£":735,"Ġáī°áĮ»":736,"ĠáĪµáĪ«áĪķ":737,"ĠáĬ¨áī°áĪĽ":738,"ĠáĭĵáĪĪáĪĿ":739,"áįĪáĪĭáĪĪ":740,"áĮįáī£":741,"ĠáĬ£áī¶":742,"ĠáĬ®áĭŃáĬĳ":743,"áīłáĪ©":744,"ĠáĪµáĪĿ":745,"áĭĽáĭķáī£":746,"ĠáĬ£áĬĲ":747,"Ġáī°áĭĪ":748,"áĪµáįĭ":749,"ĠáĮĪáĮ½":750,"áįĪáīµ":751,"áĬ£áīµ":752,"ĠáĬ¥áī°":753,"ĠáĬ£áĪŃ":754,"ĠáĬ£áĮĪ":755,"ĠáĭĿáĮĪ":756,"áĪ¨áĬķ":757,"ĠáĬ£áī¥áī²":758,"ĠáĮĭáĬķ":759,"áĪĺáĪ«":760,"Ġ)":761,"Ġáī¥áĭĺáĭŃ":762,"ĠáĬ«áĪįáĬ¥":763,"ĠáĬķáĭĵ":764,"áīĴ":765,"ĠáĪħáĭĿáī¢":766,"ĠáĬŃáĪįáī°":767,"ĠáĪĺáĮ½":768,"ĠáĬ¢áĪī":769,"Ġáī¥áĬ£":770,"áĪĺáĪµ":771,"Ġáī¥áĪŃ":772,"áĮĪáĭ²":773,"ĠáĭĿáĪĿ":774,"ĠáĪĿáĭµ":775,"áĮ«":776,"ĠáīħáĭµáĪļ":777,"ĠáĪĽáĬ¥áĬ¨":778,"ĠáĭĺáĪĪáĭİ":779,"áĮ½áĬ¥":780,"áĬ«áĭ¨":781,"Ġ5":782,"ĠáĬĲáĮĪáĪŃ":783,"áĭĸ":784,"áĪĿáī²":785,"áĭĪáī³":786,"ĠáĪĿáĪŃ":787,"ĠáĭĪáĭ²":788,"áįĸ":789,"áĪĭáĬ½":790,"ĠáĭĿáī¥áĪį":791,"ĠáĮĭáĬķáī³":792,"áĬ¥áĭļ":793,"áī¥áĬķ":794,"ĠáĬ¢áĬĵ":795,"áĭµáĪ«":796,"áĬ¥áĪ°":797,"áĮ¾":798,"ĠáĬķáĬ£":799,"Ġáī°áīĲ":800,"áĮ¦":801,"áĪĥáĬķ":802,"áĪĥáĪį":803,"ĠáĭįáĪ½":804,"ĠáīµáĪķ":805,"ĠáĪĺáĪŃ":806,"áĪŃáĪĴ":807,"ĠáĮĭ":808,"ĠáĬ©áĪī":809,"ĠáĬĲáĭļ":810,"áī¥áĪ«":811,"ĠáĬ¥áĮį":812,"áĪ´":813,"áĭµáĪį":814,"ĠáĬ¥áĬķáī°áĪİ":815,"Ġáī°áī£":816,"áĪĵáĭ°":817,"áī¦áĪĿ":818,"ĠáĬŃáĪĪ":819,"ĠáĮĪáĪĪ":820,"ĠáĪĬ":821,"áīĥáĭĪ":822,"áĮ¥áĪĿ":823,"Ġáĭ°áīĤ":824,"áĭŃáĭµ":825,"Ġáī¥áĭĽáĭķáī£":826,"áĮĲ":827,"ĠáĬµ":828,"áīģ":829,"Ġáįķ":830,"ĠáĪľ":831,"ĠáĪĽáĭŃ":832,"áĭ³áĪŃ":833,"ĠáĬ¥áĪŀ":834,"ĠáĬ£áĭĿ":835,"áīĥáĭĪáĪĿ":836,"ĠáĪĽáĪķ":837,"ĠáĬ½":838,"áĭķáĬĵ":839,"áī°áĪĵ":840,"áī¥áĪª":841,"áĪįáĮł":842,"ĠáĪĺáĬķáĮį":843,"ĠáĭĿáĬ£":844,"áĮĪáĪįáĮį":845,"ĠáĬķáĬ½":846,"ĠáĭŃáīķáĪ¨áī¥":847,"áĪĭáĬķ":848,"Ġáī°áĪµáįĭ":849,"áĪŃáĪķ":850,"áĪĿáĪµ":851,"áĪĽáĬķ":852,"Ġáī¥áĭĻáĪķ":853,"áīĭ":854,"ĠáĪķáĪĽ":855,"áĬŃáĪį":856,"ĠáĭįáĭµáĭµáĪŃ":857,"Ġáĭ°áĪ¨áĮĥ":858,"áįįáī²":859,"Ġáĭ²":860,"áĪĸ":861,"ĠáīłáĭĵáĪį":862,"áĬ¹áĪĿ":863,"ĠáĬ£áī£":864,"ĠáĪĴ":865,"ĠáĪİ":866,"ĠáĭĪáĪ¨":867,"áĬ¹áĬķ":868,"ĠáĪķáĮĤ":869,"ĠáĪĽáĪĪáīµ":870,"Ġ19":871,"ĠáĬ£áīµ":872,"áīłáĪī":873,"ĠáĪĵáīł":874,"áĪ¬áī³":875,"áĪĪáįĪ":876,"áĪ«áĬķ":877,"ĠáĬ£áī¥áĭļ":878,"áĬ¦áīµ":879,"áĮŃ":880,"áĭĪáĭ³":881,"ĠáīĢáĭ³":882,"ĠáĮĪáī¥áĪ¨":883,"ĠáĪĺáĮį":884,"ĠáĪµáĬĲ":885,"áĭ°áĪį":886,"áĭ°áĭŃ":887,"áī£áĭĬ":888,"áĪįáĮ£":889,"ĠáįįáĪŃáĭ²":890,"ĠáĪĺáĬķáĬ¥áĪ°":891,"áĭķáī²":892,"áĬ«áĪį":893,"áĪĺáĭµ":894,"áĪįáĪ²":895,"áĮ¥áīĥ":896,"áĭķáĪį":897,"áĪĦ":898,"Ġáī°áĬ¸":899,"áī¥áĪ©":900,"áīłáĪĪ":901,"ĠáĪħáĭŃ":902,"ĠáĮĵ":903,"áīłáĭŃ":904,"ĠáĭĿáĬ¾áĬĲ":905,"áĬ¨áĪĿ":906,"áĬ¨áĬ£":907,"áĬĲáī³áīµ":908,"áīķáĪª":909,"áĬ¢áīµ":910,"ĠáĪĺáĭĵáĪįáī²":911,"áī¡áīķ":912,"áĬŃáīµ":913,"áĪĺáĪ°":914,"Ġáī°áĪ°":915,"ĠáĮ»":916,"ĠáĮ¸áĭĪáī³":917,"áī³áĬķ":918,"áī°áĭĪ":919,"ĠáĬķáĪµ":920,"áĪĽáĭķ":921,"ĠáĪĿáĪķ":922,"ĠáĮĪáĪĬ":923,"ĠáĬ£áĬ¥":924,"áĭª":925,"áĬĵáĭĬ":926,"áīĸ":927,"áĪīáĬ¥":928,"Ġáįĸ":929,"áĪĭáĭĬ":930,"ĠáĬĲáīłáĪ¨":931,"ĠáĪĿáĪħ":932,"áī£áĪħ":933,"áīĨ":934,"ĠáĬ£áĪķ":935,"áĪªáĬ«":936,"ĠáĪĺáĮ»":937,"ĠáĬŃáĪŃ":938,"Ġáī¥áįį":939,"ĠáĪĭ":940,"ĠáĬ£áĪĿáĪĭáĬ½":941,"ĠáĪ°áĪĪ":942,"áĬĲáīµáĬķ":943,"ĠáĪĵáĭŃ":944,"ĠáĪĵáīłáĪ¬áī³":945,"ĠáĭĽ":946,"áĪĿáĪŃ":947,"ĠáĬ£áĪį":948,"ĠáĬ¥áĪĿáīłáĪŃ":949,"ĠáĪ»":950,"Ġáĭ¶":951,"áĪ³áĭŃ":952,"Ġ6":953,"áĪīáĬķ":954,"áĭĺáĬķ":955,"ĠáĭĿáī°áįĪáĪĭáĪĪ":956,"áĪ«áĭĬáīµ":957,"áĪŃáĬĵ":958,"áĪİáīµ":959,"ĠáĬ£áĭŃáīµ":960,"ĠáĪĿáĬ½áĬķ":961,"áĪĵáįį":962,"ĠáĮĪáĭŃ":963,"áĭ³áĬķ":964,"áĪĽáĭĬ":965,"áĪįáĭ«":966,"áĮłáĬķ":967,"áĬĲáīłáĪ¨":968,"ĠáĪµáĪŃ":969,"ĠáĪĵáĬķáī²":970,"ĠáĬ¥áĬ³":971,"áĪĨáĭĭ":972,"áĪ¨áĮĭáĮĪ":973,"Ġáĭ°áĬ£":974,"ĠáĪĥáĮĪáĪ«áīµ":975,"áĭ°áīµ":976,"áĪŃáĮį":977,"áĮįáī£áĪŃ":978,"áĭĺáī¥":979,"áĪŃáī¥":980,"áĭµáĬĵ":981,"?\"":982,"áĮ½áĬķ":983,"áĪ¨áī£":984,"ĠáĬ£áī¦":985,"ĠáĪĽáĬ¥áĬ¨áĪį":986,"ĠáĪĺáĭµ":987,"ĠáĮ¨":988,"áĬ£áĬķ":989,"ĠáĭĿáīłáĪĪ":990,"ĠáĭĿáĭĵ":991,"áĭ³áĪµ":992,"áĬłáĬķ":993,"ĠáĭĿáīĥáĭĪáĪĿ":994,"ĠáĪ²":995,"áĪįáĬ¥":996,"ĠáĪĿáĭķ":997,"áįĪáĪįáĮ¥":998,"ĠáĭĵáĭŃáĬĲáīµ":999,"áĪįáĬ¨":1000,"áī£áĭķ":1001,"áĮ½áĪª":1002,"áĮĪáī¥áĪŃ":1003,"ĠáĪİáĪļ":1004,"Ġáī°áĪĵ":1005,"áī±áĬķ":1006,"ĠáĬķáĬ¡":1007,"áĮĪáĪĿ":1008,"ĠáĬ£áĪµáĪĺáĪ«":1009,"Ġáĭĵáĭ²":1010,"áĪĥáī¥":1011,"áĬķáĭ²":1012,"áĪĪáĮ¥":1013,"áĬŃáī¥":1014,"ĠáĭĿáĬ¸":1015,"Ġ10":1016,"ĠáĬĵáĭŃáī²":1017,"ĠáĪĵáĭµ":1018,"áĪµáĪ«":1019,"Ġáī¥áīĲ":1020,"áĭ¶áĪĿ":1021,"áĪ°áĪĿ":1022,"Ġ12":1023,"Ġáī°áĪ«":1024,"Ġáī£áĪķáĪª":1025,"Ġáī°áĭĵ":1026,"ĠáĪĤ":1027,"áĪģ":1028,"ĠáĬ«áĪįáĬ¦áīµ":1029,"ĠáĭĿáĭĢáĬĲ":1030,"ĠáĭŃáĬ½áĬ¥áĪį":1031,"ĠáĬķáĮį":1032,"áĮĪáĬķ":1033,"ĠáĭĿáĮį":1034,"ĠáĬ¢áĬ»":1035,"ĠáĪĺáĪĵ":1036,"ĠáĬŃáĬ¸áĭįáĬķ":1037,"áĭŃáĬĵ":1038,"Ġáįĵ":1039,"áĭŀáĪĿ":1040,"Ġáīłáī²":1041,"ĠáĪĽáĭķ":1042,"ĠáĬĲáįį":1043,"áĭµáĪķáĪª":1044,"áĪ¬áīµ":1045,"áĭ«áĭĬ":1046,"ĠáĭŃáĬ¹áĬķ":1047,"Ġáī°áī£áĪĤ":1048,"Ġáĭ©":1049,"ĠáĮĲ":1050,"ĠáĬ¥áĬĵáī°":1051,"áīłáĪĭ":1052,"ĠáįĬ":1053,"áī´":1054,"ĠáĬ¨áĪĿáĭļ":1055,"ĠáĬ£áĪ°":1056,"áį¢\"":1057,"áĪĭáĪį":1058,"ĠáĬķáĪ±":1059,"áīłáĪ®":1060,"áĪ¨áĬ¸":1061,"ĠáĮĢáĪļ":1062,"áĪŃáĬ«":1063,"ĠáĬĲáĮĪ":1064,"Ġáĭ®":1065,"ĠáĬķáĮ¥":1066,"ĠáĮ½áī¡áīķ":1067,"ĠáĬ£áĭ¨":1068,"ĠáĭĿáīĲ":1069,"ĠáĭĿáĪĵáĪĪáįĪ":1070,"Ġ8":1071,"ĠáĪĥáī¥":1072,"áĪŃáĭµ":1073,"ĠáĮ¥áĭķáĬĵ":1074,"áĮ»áĪŃ":1075,"ĠáĬ£áĭį":1076,"áīª":1077,"ĠáīłáĪĪ":1078,"ĠáĬ¥áĬķáĬ¨áĪİ":1079,"ĠáĬķáĪĺ":1080,"Ġ7":1081,"ĠáĬ£áĮĪáĪįáĮį":1082,"ĠáĪĺáĭĪáĭ³":1083,"ĠáĭĪáĮ»":1084,"áĮķ":1085,"áĪµáĪĪ":1086,"Ġáĭķáĭµ":1087,"ĠáĪĻ":1088,"áĪ½áĬķ":1089,"áĬ«áĭ¨áĭµ":1090,"áīµáĪķ":1091,"áĬĵáĪį":1092,"áīłáī¥":1093,"ĠáĪĿáĭį":1094,"ĠáĭĵáĪĺáī³áīµ":1095,"áĪµáĭķ":1096,"ĠáīĪ":1097,"áĬķáī³":1098,"áĬŃáĪŃ":1099,"ĠáĬķáĪĵ":1100,"ĠáĬ£áĭŃáĬ®":1101,"áĪħáĪį":1102,"ĠáĬ¢áĭ©":1103,"ĠáĬ£áĮĭ":1104,"ĠáĪĵáī¢":1105,"áĪ¨áĮĭáĮĪáĮ¸":1106,"ĠáĬ¦":1107,"áĪįáĭ°":1108,"Ġáī¥áīķ":1109,"Ġáī¥áĪµ":1110,"áīµáĬĵ":1111,"áĪĪáĭī":1112,"ĠáĬ°áĭŃáĬĳ":1113,"ĠáĪķáī¶":1114,"áĪ¶áĪĿ":1115,"ĠáĭĿáĮ¸áĬķ":1116,"ĠáĪĵáĭ«":1117,"áĮ½áĪį":1118,"ĠáĪ«":1119,"ĠáĪļáĬĴ":1120,"ĠáĪµáĭµáĪ«":1121,"áīłáĭŃáī²":1122,"ĠáĬŃáĪĪáī¥":1123,"áįĪáĪŃ":1124,"áĭĿáĮĪ":1125,"ĠáĮ»áĭķ":1126,"ĠáĬ£áĪĺáĪªáĬ«":1127,"ĠáĬ£áĭĿáĭ©":1128,"áĬķáĭ«":1129,"ĠáĬķáĬ¡áĪµ":1130,"áĪĦáĪŃ":1131,"Ġáī¥áĪĺ":1132,"áĬĲáĭŃ":1133,"ĠáĭĿáĪ°":1134,"áĪĺáĪ¨":1135,"ĠáĪĺáĭĪáĭ³áĬ¥áī³":1136,"Ġáįĭ":1137,"áĪĥáĪ®":1138,"ĠáĬķáĪķ":1139,"ĠáĭĿáĪŃáĬ¨áī¥":1140,"áĪµáī°áĪŃ":1141,"Ġáī¥áĭĪ":1142,"áĬķáīĢ":1143,"áīłáĬķ":1144,"áĪ«áī¥":1145,"áī£áĭŃ":1146,"ĠáĬ£áĪĪáĭİ":1147,"áĭ¨áĬķ":1148,"Ġáī°áįĪ":1149,"áĭ°áĬĵ":1150,"áĪķáĬķ":1151,"áī¥áĪĪ":1152,"ĠáĮīáĭ³áĭŃ":1153,"Ġáīłáĭļ":1154,"áĮ³":1155,"ĠáĬ£áī¢":1156,"áĪĭáĪĿ":1157,"áĮ¥áīĢ":1158,"áĪĺáīµ":1159,"Ġáī¥áĮį":1160,"áī¥áĪ®":1161,"ĠáĮįáĮ¥áĪĿ":1162,"ĠáĭĺáĪĪáĭī":1163,"áī¥áĮ»":1164,"ĠáĬķáĬ¥":1165,"ĠáĪħáĭŃáĭĪáīµ":1166,"Ġáĭ¨áĪĨáĭĭ":1167,"áįĴ":1168,"ĠáĪ®":1169,"áĭ«áĭ³":1170,"ĠáĪĺáĬķáĮİ":1171,"áĬĽáī³áīµ":1172,"ĠáĪµáįĸ":1173,"Ġáĭĵáī¢":1174,"ĠáĬ£áĭŃáĬ°":1175,"ĠáĭĪáĪĪ":1176,"ĠáĭĿáĪķ":1177,"ĠáĬĲáī³":1178,"áĪĪáĭĪ":1179,"Ġáī¥áĭĺ":1180,"ĠáĭĿáįĪ":1181,"áĭĬáīµ":1182,"ĠáĪ¸áī¶":1183,"ĠáĭįáĪ½áĮ¢":1184,"áĭĳáĪį":1185,"ĠáĮĪáĬķ":1186,"ĠáĭĿáĬ½áĬ¥áĪį":1187,"áĪ³áĪ²":1188,"áĭķáĬķ":1189,"áĭµáĪª":1190,"ĠáĬ»":1191,"Ġáĭĵáīķ":1192,"áĪŀáĪĿ":1193,"ĠáĪįáĪĿ":1194,"áĪĪáĭĭ":1195,"ĠáĪĿáĪĿáĪķ":1196,"ĠáĪĥáĭŃ":1197,"áīłáĪ«":1198,"áĪ³áĪµ":1199,"áĪµáīµáĪª":1200,"ĠáĭįáĮ½":1201,"ĠáĬ£áĭµ":1202,"Ġáī¥áī°":1203,"áĮįáī£áĬ¥":1204,"ĠáĬĲáī¥":1205,"20":1206,"ĠáĪĺáĬķáĮįáĪµáī²":1207,"áĪ¨áĬ£":1208,"áĮ½áĪķ":1209,"Ġáī°áī£áĪĤáĪī":1210,"áĪĻáĬķ":1211,"áĪ³áĬķ":1212,"ĠáĬº":1213,"Ġáĭĳ":1214,"áī¨":1215,"ĠáĬ«áī¥áī²":1216,"ĠáĪĿáįį":1217,"áĮ½áĬĲáīµ":1218,"áĪµáīµáĭ®":1219,"ĠáĪĿáĪīáĬ¥":1220,"ĠáįįáīķáĪª":1221,"áĭķáĪ¶":1222,"Ġáī¥áĪį":1223,"áĮ¨":1224,"ĠáĬ¨áĪİ":1225,"áĮįáĪŃ":1226,"ĠáĬķáĭĺ":1227,"Ġáī°áĪĽ":1228,"áĪĿáĬĵ":1229,"ĠáĬĲáī¶áĪĿ":1230,"ĠáĮĮ":1231,"ĠáĭľáĬĵ":1232,"ĠáĪķáī¥áĪ¨":1233,"áĭ°áĪŃ":1234,"ĠáĬŃáĬ¢":1235,"Ġáī°áĬ½":1236,"áĪŃáĭ«áĪĿ":1237,"ĠáīĥáĪį":1238,"ĠáĬ£áĮĪáĪįáĮįáĪİáīµ":1239,"Ġáīħáĭ±":1240,"áĪ«áĪŃ":1241,"ĠáĪĵáĪĭ":1242,"ĠáĬ£áĭŃáī°":1243,"ĠáĪĥáĮĪáĪ«áĭĬ":1244,"ĠáĪ°áĪĪáĪµáī°":1245,"Ġáĭ°áīĢ":1246,"Ġáĭĺáĭ¨":1247,"ĠáĭĿáĬĲáīłáĪ©":1248,"ĠáĭŃáĪķ":1249,"ĠáĪķáĪŃ":1250,"Ġáī´":1251,"Ġáī¥áĭĵ":1252,"áĬ»áĭ¨":1253,"áī°áĬ£":1254,"áĪ¨áĪµ":1255,"Ġáī¥áĪķ":1256,"áĪ±áĪµ":1257,"..":1258,"áįįáĬķ":1259,"áī¡áĬ¥":1260,"ĠáĭŃáĪ¨áĮĭáĮĪáĮ¸":1261,"Ġáī¥áĪĿáĭĥ":1262,"Ġáī¥áĬ¸":1263,"áĪįáĭ®áĬķ":1264,"Ġáī³áĪª":1265,"áĪ³áĬº":1266,"Ġáī¢":1267,"áĭŃáī³":1268,"áĭļáĬ£áī¥":1269,"áĮĪáĪĪ":1270,"áī°áīµ":1271,"áĪ³áīµ":1272,"áĪĵáĬķ":1273,"ĠáĭĺáĪĭ":1274,"áĭĿáĬķ":1275,"ĠáĪĺáĭ°áī¥":1276,"áĪ½áī°":1277,"áĪĿáĪ®":1278,"ĠáĬĲáĮ¥":1279,"áĪ³áī°":1280,"ĠáĭĿáĭ°":1281,"áĬ»áĪį":1282,"ĠáĬ¥áĬķáī°áĭĺáĭŃ":1283,"áĭ¨áīµ":1284,"ĠáĭĪáĪŃáĪĴ":1285,"ĠáīĨ":1286,"áĬ«áĭŃ":1287,"áĭµáĪĿ":1288,"Ġáī°áĮĪ":1289,"ĠáĭĪáĮ»áĬ¢":1290,"ĠáĪ©":1291,"áĪŃáĬ¨áī¡":1292,"ĠáĭĺáĪĺ":1293,"Ġ?":1294,"áĪ³áĭķ":1295,"ĠáĮ¸áĮĭ":1296,"áĪ¨áĭµ":1297,"áĪĪáĪĽ":1298,"áĬ®áĬĲ":1299,"áĭħ":1300,"ĠáĬŃáī¥áĪį":1301,"ĠáĬķáĮ¥áįĪ":1302,"ĠáīµáĪķáī²":1303,"áīµáĭ®":1304,"áĪŃáĬ¢":1305,"ĠáĬ£áĭ°":1306,"ĠáĪĺáĮĭ":1307,"áĪįáĪĿ":1308,"ĠáĬ£áĭŃáĬ®áĬĲáĬķ":1309,"áĬ«áĬķ":1310,"áĬķáĬĵ":1311,"ĠáĬ£áĪĪáĭī":1312,"Ġ9":1313,"áĪĿáįķ":1314,"Ġáī°áĭĭ":1315,"áĪĪáĪµ":1316,"ĠáĬŃáįįáĪĬ":1317,"áĬŃáĬķ":1318,"áĮįáĪĬ":1319,"áĬŃáĬ¥":1320,"Ġáī°áĮł":1321,"ĠáĪĺáĭĵ":1322,"áĮīáĪµ":1323,"ĠáĪĵáĭŃáĪĬ":1324,"Ġ11":1325,"ĠáĬł":1326,"Ġáī¥áĭĻáĪĵáīµ":1327,"ĠáĪĺáĮ½áĪĵáįį":1328,"ĠáĪĿáĪħáĪĭ":1329,"áĭĪáĬķ":1330,"áĮĪáĪįáĮ½":1331,"ĠáĪĺáĪ³":1332,"áĪªáīĥ":1333,"ĠáĬ¸áĪĿ":1334,"ĠáĬ£áĪĽ":1335,"ĠáĪ°áĭĵáīµ":1336,"Ġáĭ°áī¡":1337,"áīĲáīµ":1338,"ĠáĪĿáĬ¥áĬķ":1339,"Ġáī°áĮ»áĭĭ":1340,"áįĵ":1341,"ĠáĭĺáĭŃáī°":1342,"ĠáĬķáĪ³":1343,"ĠáĪĵáĭµáĪ½":1344,"ĠáĪĺáĪ¬áīµ":1345,"ĠáĭĿáįį":1346,"áĬĵáī¥":1347,"ĠáĬ¨áĪĺáĭŃ":1348,"ĠáĪķáĮĬ":1349,"ĠáĪĿáĭµáĪª":1350,"áĬ»áĭ¨áĭ°":1351,"áī¢áīµ":1352,"ĠáĭĪáĪ¨áĪµáī²":1353,"ĠáĪĺáĬķáĬ¥áĪ°áĭ«áīµ":1354,"ĠáĬŃáĭĪ":1355,"áĪįáĬª":1356,"15":1357,"Ġáī¥áĪĿáī£áĪį":1358,"áĮ¥áĬķ":1359,"ĠáīµáĬ«":1360,"ĠáĪĨ":1361,"áįĭáĪį":1362,"áĮĪáī¥áĪ¨":1363,"áī¸":1364,"ĠáĮ¸áĬĴ":1365,"Ġáī¥áįįáĪĭáĭŃ":1366,"ĠáĬ¨áĪĿáĭĺáĪİ":1367,"áĭĴáīµ":1368,"ĠáĭŃáĮį":1369,"!\"":1370,"ĠáĪĿáī£áĪį":1371,"ĠáĬ«áĪįáĬ£áĭŃ":1372,"áĬ£áĭ«":1373,"áĪĵáĪµ":1374,"áĪĵáĭŃ":1375,"ĠáĪĿáĮ½":1376,"ĠáĪįáĭĳáĪį":1377,"ĠáĬ¥áĮįáĪª":1378,"Ġáī°áĪ¨":1379,"áī£áĪķ":1380,"áĪħáī¥":1381,"áĭĭáīµ":1382,"ĠáĪ³áĪį":1383,"áīķáįĭ":1384,"ĠáĭµáĪĿ":1385,"ĠáĪ½áĪķ":1386,"ĠáĭĿáī°áī£áĪħ":1387,"áĪĭáĪĽ":1388,"ĠáĪ±":1389,"áĪĥáĭ°":1390,"ĠáĭĺáĪĪáĭİáĪĿ":1391,"ĠáĬ£áįįáĪªáīĥ":1392,"áī¤áīµ":1393,"áĮįáĬķ":1394,"ĠáĪĿáĬ½":1395,"ĠáĬ©áĬĲáī³áīµ":1396,"ĠáĭĿáĬ¾":1397,"ĠáĬ²":1398,"áĪĽáĪĿ":1399,"ĠáĬĵáĮ½áĬĲáīµ":1400,"áĭĺáī°":1401,"ĠáĪķáĪĽáĪĿ":1402,"áĪĪáī²":1403,"Ġáī¤áī°":1404,"áĬ½áĬ¥áĪī":1405,"áī¥áĪĭ":1406,"Ġáī°áĮĭ":1407,"ĠáīĢáĭ³áĪĽáĭŃ":1408,"ĠáĪĺáĪª":1409,"14":1410,"áī«":1411,"ĠáĬ¢áĪĪ":1412,"ĠáĬ£áīĲ":1413,"ĠáĪĿáĬ¥áĬķáī²":1414,"ĠáĬ¨áĪĿáĭĺáĭŃ":1415,"áĪĭáĬ¥":1416,"Ġáī°áīł":1417,"ĠáĪĿáĭĥáĬĸáĪĿ":1418,"ĠáĪĿáĬ½áĬķáĭ«áīµ":1419,"ĠáĭĭáĪĭ":1420,"ĠáĭĿáĭ«áĭ³":1421,"ĠáĪĽáĬķ":1422,"áĪĬáĪµ":1423,"áį¦":1424,"áĬ¨áįį":1425,"ĠáĬ£áī£áĪĭáīµ":1426,"ĠáĬĵáīķáįĭ":1427,"áīĿ":1428,"áĬ£áĪŃ":1429,"áĭĭáĬķ":1430,"áĭĿáĮĬ":1431,"áĪµáĪ³":1432,"áĬĶ":1433,"áīķáĬķ":1434,"áĭļáĬ£áī¥áĪĦáĪŃ":1435,"ĠáĭĭáĬķ":1436,"Ġáī°áĮ»áĭĪáīµ":1437,"ĠáĭĪáĪ²":1438,"Ġáī°áĬ£":1439,"áĭĬáĪķ":1440,"áĬ½áī²":1441,"áī£áĬķ":1442,"áĭ«áī±":1443,"ĠáĪĵáĪĻ":1444,"áĭŃáĪķ":1445,"ĠáĪĿáīµ":1446,"ĠáĪĺáĮłáĬķ":1447,"áĪįáī²":1448,"áĪªáīµ":1449,"áī¡áĪŃ":1450,"áĮħáĪĪ":1451,"áĪĢ":1452,"áįĪáĪ»":1453,"áĮ£áĪļ":1454,"áĪŃáĮĭ":1455,"áī¥áĬĵ":1456,"áĪļáĬ«":1457,"áĬ¡áĬķ":1458,"ĠáĪµáĪĪáĭļ":1459,"ĠáĬ¨áĪĿáī²":1460,"ĠáĬ£áĭŃáĬ°áĬĲáĬķ":1461,"áĪµáĪĿ":1462,"ĠáįĪáī°":1463,"áĪ¨áīł":1464,"ĠáĮĪáĬķáĭĺáī¥":1465,"áįİáĪĿ":1466,"12":1467,"ĠáĬ£áĭķ":1468,"ĠáĮ¸áĮĪáĪĿ":1469,"áĭĵáĪĪ":1470,"áĪ°áīµ":1471,"Ġáĭ°áĮĪ":1472,"ĠáįįáĪī":1473,"Ġáī°áĮ»áĭĭáī³áĭŃ":1474,"Ġáīħáĭ±áĪµ":1475,"áĬŃáĪµ":1476,"áĪĪáĭİ":1477,"ĠáĬĲáĮĪáĪ«áīµ":1478,"Ġáī°áĮ¸":1479,"ĠáĪĺáīłáĪį":1480,"áĭĵáĭŃ":1481,"áĭ³áĪĿ":1482,"áĭ³áīµ":1483,"áĮĭáī³áīµ":1484,"Ġáĭ°áĪŃ":1485,"áĪĺáĪĵ":1486,"Ġáī¥áĭį":1487,"ĠáĮŃ":1488,"ĠáĬ£áĪ¨":1489,"ĠáĬķáĬ¸":1490,"Ġáĭ°áĪĿ":1491,"ĠáĪµáĪĪáĭĿáĪŀ":1492,"áĬĲáī±":1493,"áĪµáĭ«":1494,"ĠáĪ°áĬķ":1495,"áīłáĭ¨":1496,"Ġáīį":1497,"ĠáĬ¥áĬķáĮįáĪĬ":1498,"Ġ200":1499,"ĠáĬ£áĮĪáī£áī¥":1500,"10":1501,"áĮĪáĭµ":1502,"áī¥áĪİ":1503,"áī£áĪ©":1504,"áīħáĪµ":1505,"ĠáĪĺáĬķáįĪ":1506,"ĠáĪķáī¥áĪ¨áī°":1507,"ĠáĪĬáĮį":1508,"áĭµáĪķ":1509,"áī¥áĪ¨áīµ":1510,"Ġ30":1511,"Ġ15":1512,"áĪµáĪŃ":1513,"áĬķáĮį":1514,"ĠáĪļáĪįáĭ®áĬķ":1515,"Ġáī°áĪª":1516,"ĠáĪĿáĪįáĬŃ":1517,"áĪįáĪµ":1518,"ĠáĬŃáĪķ":1519,"áĬķáĮ»":1520,"ĠáĪļáĬĴáĪµáīµáĪª":1521,"áĮ»áĬ¥":1522,"áīłáĪŃáī²":1523,"ĠáĬ¥áĪµáĪ«":1524,"áĭĪáĭŃ":1525,"ĠáĮ½áĪĳ":1526,"Ġáī¥áĭĿáī°":1527,"Ġáī¥áĪĿáĪĿ":1528,"áĬķáĭ°":1529,"áĮ¾áĪĿ":1530,"áī¨áĪŃ":1531,"áĬ¨áĬ£áĪį":1532,"áĭŃáī¶":1533,"áĮĪáĭĿ":1534,"áĭĺáĪ®":1535,"ĠáĬķáĭĵáĭŃ":1536,"ĠáĬ£áĭĭ":1537,"ĠáĭķáĪĪáīµ":1538,"ĠáĬ¨áĭŃáī°":1539,"ĠáĬķáĮ¥áįĪáī³áīµ":1540,"áĮĮ":1541,"áĬ¥áĭĽ":1542,"áĬķáĪµ":1543,"áĪĿáīłáĪŃ":1544,"ĠáĬķáĬĲ":1545,"ĠáĭĪáĭĺáī°":1546,"ĠáĭĿáĪĥ":1547,"19":1548,"ĠáĬ¥áĭĽ":1549,"ĠáĮĪáĪĬáĮ¹":1550,"ĠáĬ¥áĭ¨áĬķ":1551,"áĬ¨áĭįáĬķ":1552,"áī£áĭķáī°":1553,"áī³áĪį":1554,"ĠáĭĿáī°áĬ»áĭ¨áĭ°":1555,"ĠáĮ½áĪķ":1556,"ĠáĪĺáĮ½áĬĵ":1557,"áĮĭáĭĬ":1558,"áĪ®áĬķ":1559,"áī¢áĭµ":1560,"ĠáĬķáĭ°":1561,"ĠáĪµáįĸáĪŃáīµ":1562,"ĠáĪª":1563,"ĠáĭĿáĪŃ":1564,"ĠáĭĪáĪĭ":1565,"áĪįáĮ£áĬķ":1566,"áīĺ":1567,"áĭĵáī°":1568,"áĪ³áīĲ":1569,"Ġáī°áĭĽ":1570,"áĪŃáĪĥ":1571,"áĪ¨áĭļ":1572,"ĠáĭĿáĭį":1573,"áĮ½áĪŃ":1574,"Ġáī¥áĭķ":1575,"ĠáĬ¬":1576,"áĪĪáĮ½":1577,"áĪĿáīµ":1578,"ĠáĬ¨áĬĲ":1579,"áĬ¥áīµ":1580,"áīĲáĬķ":1581,"áĪŃáĬ¥áĭ®":1582,"áĭµáĪļ":1583,"ĠáīĢáĬķáĭ²":1584,"Ġáī£áĭķ":1585,"13":1586,"áĭŃáĬĸáĪĿ":1587,"áĪĭáī³áīµ":1588,"áĬ¥áī¶áĪĿ":1589,"áĪħáĪī":1590,"áĬ£áĬĲ":1591,"ĠáĭĺáĪĪáĭĭ":1592,"áĪ°áĪŃáĪķ":1593,"ĠáĭķáĭµáĪĺ":1594,"ĠáĭĺáĭŃáĬ°":1595,"ĠáĭŃáįį":1596,"ĠáĪħáĮ»":1597,"áĪ¨áĭļáĭ°áĬķ":1598,"áĭµáĪĬ":1599,"áĪįáĭĵ":1600,"ĠáĬ£áĬķáĮ»áĪŃ":1601,"ĠáĭĿáĮ¸áĬķáĪĲ":1602,"Ġáī¥áĭ°":1603,"Ġáī°áĮ»áĭĪáīµáī²":1604,"ĠáĭįáĮ½áĬ¢áīµ":1605,"ĠáĪµáĪĪáĭĿáīłáĪĭ":1606,"16":1607,"áįįáĪŃ":1608,"ĠáĬŃáĬĲ":1609,"áĬ¥áĬķáī°":1610,"ĠáĮĵáĪį":1611,"ĠáĪĺáĮįáī¢":1612,"áĪĺáīłáĪį":1613,"áĪĽáĪĬ":1614,"ĠáĬĲáĮ¥áī¢":1615,"ĠáĪ°áĪ«áĭĬáīµ":1616,"áĪįáĭĳ":1617,"ĠáĪ½áĭĳ":1618,"áĪŀáīµ":1619,"ĠáĭĢ":1620,"áĪĭáĪµ":1621,"ĠáĮĢáĪļáĪ©":1622,"áĮłáīķ":1623,"áĮĪáĭĽ":1624,"ĠáĪĵáĪ³áī¥":1625,"áī¥áĪĵ":1626,"áĪĪáĬĵ":1627,"ĠáĪ°áĬĲ":1628,"ĠáĭĿáĬ¸áĭįáĬķ":1629,"Ġáĭ«":1630,"ĠáĮĬ":1631,"ĠáĪĵáĪ³":1632,"áī¥áĭĿ":1633,"ĠáĬķáĭķ":1634,"ĠáĪĿáĪĿáĪķáĭ³áĪŃ":1635,"ĠáĪ³áĭķ":1636,"ĠáĬ£áĪĭ":1637,"áĪĿáĭ²":1638,"ĠáĬŃáī¥":1639,"ĠáĬ£áĬ¥áĪĿáĪ®":1640,"ĠáĪķáĪŃáĪ»":1641,"áĮ¥áĪŃ":1642,"áĬªáĬĵ":1643,"ĠáĭĿáī°áĪ°":1644,"áĪįáĪį":1645,"áĪĸáĪĿ":1646,"ĠáĬ£áīĲáĭ²":1647,"áĮįáĮĭ":1648,"ĠáīµáĪŃ":1649,"ĠáĭĭáĮĭ":1650,"Ġáī»":1651,"áĭ«áĪµ":1652,"áĮĴ":1653,"ĠáĪ¶":1654,"ĠáĬ£áĬ«áĪį":1655,"áĪªáī¡":1656,"Ġáĭµáĭ©":1657,"ĠáĭĺáĭŃáī¥áĪī":1658,"18":1659,"17":1660,"áĪµáĬĵ":1661,"ĠáĭĵáīłáĭŃáī²":1662,"áĪįáįį":1663,"ĠáĪĿáĮį":1664,"áĪ³áĪ³":1665,"áĪ¨áĭļáĭ°áĬķáīµ":1666,"ĠáĪ°áĭĵ":1667,"áĬķáĮ¸":1668,"ĠáĪĺáĭ°áī£áīµ":1669,"ĠáĭĵáĭĪáīµ":1670,"ĠáĬ¥áĬķáī°áĬ¾áĬĲ":1671,"ĠáĪµáĪĪáĭĺáĭŃ":1672,"ĠáīĲ":1673,"áĪĥáĭŃ":1674,"áĭįáĪ®":1675,"ĠáĬ£áĭĺ":1676,"ĠáĭĿáĬĲáīłáĪ¨áīµ":1677,"ĠáĪĺáĮĪáĭ²":1678,"ĠáĭŃáĬ¸áĭįáĬķ":1679,"ĠáĪĺáĬķáĬ¥áĪ°áĭŃ":1680,"ĠáĪµáĪĪáĭĺ":1681,"ĠáĪĵáĬķ":1682,"áĪŃáĬŃ":1683,"áĪŀáĬķ":1684,"ĠáĬŃáīķ":1685,"áĪļáĬ«áĬ¤áĪį":1686,"áĪĺáĪį":1687,"ĠáĪĿáĭĿ":1688,"ĠáĪĵáīĤ":1689,"áĬ£áī¶":1690,"ĠáĭĪáĪįáĭ°":1691,"ĠáĬ¥áī°áĬķ":1692,"Ġáĭĵáĭį":1693,"Ġáĭ°áī¡áī¥":1694,"ĠáĪĺáĮº":1695,"áĬ¥áī°":1696,"ĠáĬ£áĮĭáĮ£áĪļ":1697,"ĠáĬķáĪ°":1698,"ĠáĬ£áĭŃáĬĲáīłáĪ¨":1699,"Ġáī¥áĪ°áĬķ":1700,"áĭ³áĬ¥":1701,"áĪµáī¶":1702,"áī³áĪķ":1703,"áĭİáĬķ":1704,"Ġáī³áĪªáĬ½":1705,"áĪĪáĬ¹":1706,"áĭĭáĪħ":1707,"áĭķáĭŀ":1708,"áĭĪáĪµ":1709,"Ġ13":1710,"ĠáĭĺáĪ¨áī£":1711,"Ġ0":1712,"áĭ³áĭ«áīµ":1713,"áĭĵáĭĿ":1714,"áĬĲáī³":1715,"ĠáĭĿáī°áįĪáĪĭáĪĪáĭ¨":1716,"áĪŃáīĤ":1717,"áĬķáĬ«":1718,"ĠáĬ»áī¥":1719,"ĠáĭĺáĭŃáĬ®áĬĲ":1720,"ĠáĪĺáĬķáĮĪáĭ²":1721,"ĠáĬ£áĪħ":1722,"áĪįáĮ£áĬĴ":1723,"ĠáĬķáĪµáĬ»":1724,"áĭ´":1725,"ĠáĬ¢áĪİáĪĿ":1726,"ĠáĬ£áī°":1727,"áĪĭáĬ¢":1728,"ĠáĭĿáĬ½":1729,"ĠáĭĿáī°áįĪáĪĭáĪĪáĭ©":1730,"ĠáĭĪáī°":1731,"áĪµáī³":1732,"ĠáĭĺáĭŃáĪĿ":1733,"áĭ²áĬ¡":1734,"áĪ¨áĬŃáī¥":1735,"áĬ²":1736,"áĭĸáĪĿ":1737,"Ġáĭĵáī¥":1738,"ĠáĪĿáīķ":1739,"ĠáįįáĮ»":1740,"Ġáī¥áĪ°":1741,"ĠáĮ¸áī¥áĮ»":1742,"áĪĭáĭį":1743,"ĠáĪĵáĪŃ":1744,"ĠáĬµáĪī":1745,"ĠáĬ£áĬ½":1746,"áĪ¨áĪĿ":1747,"ĠáīģáĮ½áĪª":1748,"ĠáĪĵáĪĿ":1749,"áĬ£áī¥áī²":1750,"ĠáĬķáĪħ":1751,"áĭįáĪ®áĮ³":1752,"ĠáĭķáĭµáĪį":1753,"áĪįáĬ¨áīµ":1754,"Ġáī±":1755,"áīĽ":1756,"áĪĿáĪħáĪŃ":1757,"áīļ":1758,"ĠáĭĿáĮł":1759,"ĠáĪĺáĪµáĪŃáĪķ":1760,"ĠáĪĵáī¢áĪ©":1761,"áĬµ":1762,"áīłáĪŃáĬŃ":1763,"ĠáĪĦ":1764,"ĠáĮīáĮħáĪĪ":1765,"ĠáĪĺáĪ«":1766,"áĬĵáĭŃáīµ":1767,"áĮµ":1768,"áĬ«áĭĬ":1769,"áĬ©áĬķ":1770,"áĪ¨áī³":1771,"áĪĺáĮ½áĬ¥":1772,"ĠáĬŃáįĭáĪį":1773,"áīĪ":1774,"ŀáĪĿ":1775,"30":1776,"ĠáĬ¨áī¢áĭµ":1777,"áĪĵáĪŃ":1778,"ĠáĬ¢áĪįáĬ«":1779,"ĠáĭŃáī¥áĪį":1780,"áĭ°áĪĿ":1781,"ĠáĪĺáĪĪ":1782,"ĠáĬķáī¥":1783,"áĬĲáī²":1784,"Ġ18":1785,"ĠáĬ¥áĭŀáĪĿ":1786,"áĮįáĪĿ":1787,"ĠáĬĶ":1788,"ĠáĭĿáĬ£áĪĺáĪ°":1789,"ĠáĬ£áī¥áī³":1790,"áĪĽáĪŃáĭ«áĪĿ":1791,"ĠáĮĭáĭľ":1792,"ĠáĭķáĪĭáĪĽ":1793,"Ġ25":1794,"ĠáĪĺáĪįáĪ²":1795,"áĭ«áĪį":1796,"áĭ°áĪ¨":1797,"áīķáī²":1798,"ĠáĪĽáĪķáīłáĪŃ":1799,"ĠáĭĿáĪĪ":1800,"áĭĢáĬĳ":1801,"áĪ³áĪ³áĪĬ":1802,"ĠáĬ£áĪĪáĬ¹":1803,"Ġáī°áīĵ":1804,"ĠáĭĿáīķ":1805,"áĭĽáĪ¨áī¥":1806,"áĪįáī³áīµ":1807,"Ġáī¥áĭµ":1808,"ĠáĬ£áĪŃáī£áĭķáī°":1809,"11":1810,"áĬ£áī¥áĬĲáīµ":1811,"ĠáĬ£áĬ«áĪĭáīµ":1812,"ĠáĬ£áĪµáī°":1813,"ĠáĬ¥áĪµáĪ«áĬ¤áĪį":1814,"áĮ¥áīĥáĭķáī²":1815,"áĬŃáĪįáĬ»áĪį":1816,"ĭáĬķáīĭ":1817,"Ġáī¥áĪĿáĬķ":1818,"áĮ½áĭĭ":1819,"áĪįáĮ¥":1820,"áī¥áĭĽ":1821,"ĠáĬ¤áĭįáĪ®áĮ³":1822,"ĠáĮķ":1823,"ĠáĬ¥áĬķáĪµáĪ³":1824,"áī°áĭĪáĪ³áĬº":1825,"áĬĵáĭ®":1826,"áĪĺáĪ°áĪ¨áīµ":1827,"ĠáĮ½áĪķáįĪáīµ":1828,"ĠáĬ¢áĬķ":1829,"ĠáĭĿáīłáĭĿ":1830,"ĠáīµáĪĽáĪĬ":1831,"Ġáĭ¨áĪĪáĬķ":1832,"áĪĿáĬķáī³áĭŃ":1833,"ĠáĬ£áĮĪáĭ³":1834,"ĠáĬķáī°":1835,"áī³áī¶áĪĿ":1836,"áĪ¸áīµ":1837,"ĠáĬ¥áĬķáĮįáĪĬáĭĿ":1838,"ĠáĭĺáĭŃáīµ":1839,"ĠáĪ¨áĬº":1840,"ĠáĭįáĪ³":1841,"áĭ°áĪĬ":1842,"Ġáī¥áĬ¸áĪĺáĭŃ":1843,"ĠáĮ»áĭķáĪª":1844,"ĠáĪ°áĪĭáĪĿ":1845,"Ġ2015":1846,"ĠáĪĿáĭķáī£":1847,"áĪĭáĭķ":1848,"Ġ2014":1849,"áĬ¥áĬķáī³áĭŃ":1850,"áĬ£áī¶áĪĿ":1851,"ĠáĬĵáī¥áī²":1852,"ĠáĭĺáĪŃ":1853,"áĭ«áī°":1854,"ĠáĪľáĭ³":1855,"ĠáĭĵáīķáĪļ":1856,"áĮ½áĭķ":1857,"Ġáī£áĪŃ":1858,"áĮĪáĪ¨":1859,"ĠáĬ£áī¥áĪŃáĪĥ":1860,"ĠáĬŃáĪĿ":1861,"áĪĪáĬ»":1862,"ĠáĪĵáĭ³áĪµ":1863,"ĠáĪĵáĪĬ":1864,"áĭįáī²":1865,"ĠáīħáĪŃ":1866,"áĬ£áĪį":1867,"ĠáĮĪáĭŃáĪ©":1868,"áĮįáĪ¨":1869,"áįİáĬķ":1870,"ĠáīµáĬ«áĪĭáīµ":1871,"ĠáĭĿáĬ«áĭ¨áĭµ":1872,"Ġáī°áĭ°":1873,"ĠáĮįáĪŃ":1874,"áĪĿáįķáĭ®áĬķ":1875,"ĠáĬ£áīł":1876,"áĪ³áĭĬ":1877,"ĠáĬķáī¥áĪ¨áīµ":1878,"ĠáĬ£áĪµáī³áīµ":1879,"áī¥áĪīáĬķ":1880,"Ġáī³áĪķ":1881,"áĮįáĬ¥":1882,"áĪº":1883,"Ġáīłáī¥":1884,"áī¶áĬķ":1885,"ĠáĭĪáĭŃáĭĺáĪ®":1886,"Ġáī¤áī°áĭŃ":1887,"Ġáī¶":1888,"áīłáĪĥáĪį":1889,"ĠáīĢáĭŃáĪķ":1890,"ĠáĪ°áĪľ":1891,"ĠáĭĿáī°áī£áĪħáĪĪ":1892,"ĠáĪŃáĬ¥áĪ²":1893,"ĠáĮĥ":1894,"ĠáīµáĪĿáĪħáĪŃ":1895,"áįĭáīµ":1896,"Ġáī¥áĭĺáĭŃáĬ«":1897,"áĭīáĬķ":1898,"Ġ14":1899,"ĠáĬ«áī¥áī¶áĪĿ":1900,"áįĪáĪįáĮ¦":1901,"ĠáĬ¥áĬķáĭ³":1902,"ĠáīµáĬ«áĪį":1903,"ĠáĪĺáĬķáĮįáĪµ":1904,"Ġáī¥áĪī":1905,"áīķáĪŃ":1906,"ĠáĬĲáĭĬáĪķ":1907,"ĠáĭĺáĮĭ":1908,"áĪĥáĬķáĪµ":1909,"Ġ22":1910,"áĪĺáĭĵ":1911,"ĠáĬ£áĮĪáĭ³áĪ²":1912,"áĪĬáĮ¡":1913,"áĪµáĪĪáĭļ":1914,"ĠáĭĿáī°áĪĺ":1915,"ĠáĪĺáĪĵáĪĺáĭµ":1916,"áĪµáĭķáī¥":1917,"ĠáĭĭáĬķáĮ«":1918,"áī°áĬĽáī³áīµ":1919,"Ġáī¥áĪ°áĬķáĬª":1920,"ĠáĪŀáĭ«":1921,"ĠáĪĴáĭĻ":1922,"Ġ17":1923,"ĠáĭĪáī°áĪĥáĭ°":1924,"ĠáĬ¢áĪĭ":1925,"ĠáĪĺáĭµáĪ¨áĬ½":1926,"ĠáĬ©áĭķáĪ¶":1927,"áĬĴáīµ":1928,"áĪĶ":1929,"ĠáĬŃáĭį":1930,"ĠáĪĵáĪĪ":1931,"ĠáĪķáĬŃ":1932,"Ġáĭķáĭ³":1933,"Ġáī°áĬ½áĪĪ":1934,"áĮ»áĪĬ":1935,"ĠáĬ¢áĭµ":1936,"ĠáĭĿáĮ¸":1937,"áĬ¸áĭŃáĭµ":1938,"áĭ°áĬ£":1939,"ĠáĬŃáĬ¥":1940,"áĮĢáĪĺáĪŃ":1941,"ĠáĪ°áĪĽ":1942,"ĠáĬ¢áīµáĭ®":1943,"áĬ£áĭĬ":1944,"áĬ¬":1945,"áīłáĪ«áĭĬ":1946,"ĠáĬ£áī¥áĭ«áī°":1947,"áĮĪáī¥áĪ®":1948,"áĭĺáĪŃ":1949,"áī½":1950,"áĪĽáĬĸ":1951,"ĠáĬķáĮīáĪµ":1952,"áĬ¥áĪĿ":1953,"ĠáĪĺáĪ°áĪ¨áīµ":1954,"áįįáīħ":1955,"áĬķáĪ±":1956,"ĠáĭĿáī°áĪĵ":1957,"áĭ³áĪį":1958,"ĠáĬ¨áī¥":1959,"ĠáĭµáĪĿáĮº":1960,"ĠáĮįáĮ¥":1961,"áĪķáīµ":1962,"ĠáįįáĪįáĮł":1963,"áĪįáĬŃáĭķ":1964,"ĠáĬ£áĪķáĭĭ":1965,"ĠáįįáĮ»áĪĺ":1966,"ĠáĬ£áī°áĪĵ":1967,"ĠáĪĵáĭ°áĮĭ":1968,"Ġ16":1969,"áĮ½áīł":1970,"Ġáī¥áĪĺáĬķ":1971,"ĠáĭĺáĭŃáĬ°áĬĲ":1972,"ĠáįįáĪīáĭŃ":1973,"ĠáĪĿáĭĥáĬķáĬĵ":1974,"áĪĿáĭķ":1975,"áĭ¨áĪŃ":1976,"Ġáī¥áĪĿáĭį":1977,"ĠáĬŃáĬķáĭ°áĭŃ":1978,"áīµáĪĿáĪħ":1979,"ĠáĪµáĬ¥":1980,"áĪĥáĪŃ":1981,"ĠáĮ£":1982,"áĬŃáĪĪ":1983,"áīħáĪµáīĵ":1984,"Ġáī¥áĭĪáĮĪ":1985,"ĠáįįáĪ¨":1986,"áīµáĪª":1987,"ĠáĪĵáĭ«áĪį":1988,"áĪĪáĮº":1989,"ĠáĭĪáĬª":1990,"ĠáĭĿáĪµ":1991,"áĪ¨áĭŃ":1992,"ĠáĬ£áĭŃáĬĲáīłáĪ¨áĬķ":1993,"ĠáĬ¢áīµáĭ®áĮµ":1994,"áĪ°áĭŃ":1995,"áĪ¨áĪĺ":1996,"áĬ¨áĪŃ":1997,"ĠáĬķáĭį":1998,"Ġáĭįáĭµáĭµ":1999,"áĪ¨áįĪ":2000,"áĮ¹áĪĿ":2001,"Ġáī°áĪ³":2002,"ĠáĪĺáĮ¥áīĥáĭķáī²":2003,"áĪħáĬķ":2004,"ĠáĭĿáīłáĪĥáĪį":2005,"áĭĪáĪ°":2006,"ĠáĪħáĭĿáī£áĭĬ":2007,"áī¦áīµ":2008,"áĮįáĮ½":2009,"áīłáĬ£áĪŃ":2010,"áĬ»áĬķ":2011,"áĮłáĪŃ":2012,"ĠáīłáĪį":2013,"áī³áī°":2014,"áīµáĪĿáĪħáĪŃáī²":2015,"ĠáĪĿáĪ³":2016,"ĠáĮĭáĭľáĮ£":2017,"ĠáĭĻ":2018,"áĬ£áī¥áĭļ":2019,"áĬķáĪ³":2020,"Ġ00":2021,"áĪİáĬķ":2022,"ĠáĮ¸áĮĪ":2023,"ĠáĪµáĪįáĮł":2024,"áī¢áĪ©":2025,"ĠáĭĵáĬķ":2026,"áĭĿáī¶":2027,"ĠáįķáĪ®":2028,"ĠáĪĪáĭį":2029,"áī²áīµ":2030,"áĪķáĪį":2031,"ĠáĬķáĪĿáįį":2032,"áīłáĪĪáīµ":2033,"ĠáĭŃáĮįáī£áĬ¥":2034,"áĪĭáĭķáĪĬ":2035,"ĠáĪ»áĪĿáįķáĭ®áĬķ":2036,"áĬĳáĬķ":2037,"ĠáĪĿáī¥áĪ«":2038,"áĬ£áī±":2039,"ĠáĪĥáĭŃáĪĪ":2040,"áĪĵáĪī":2041,"ĠáīĭáĬķáīĭ":2042,"ĠáĬ£áĬ¨":2043,"áĪµáĪĭ":2044,"áĭĵáīµáĬķ":2045,"ĠáĬ£áī¥áĬ¡":2046,"ĠáĪĿáĬ½áĬķáĭ«áī±":2047,"ĠáĬĲáįįáĪ²":2048,"áĮ¥áįį":2049,"ĠáĪĺáĮ½áĬĵáĭķáī²":2050,"áĬķáĭ³":2051,"áĪĽáĪŃ":2052,"ĠáĪĺáĮįáĪĪáĮº":2053,"áĪĿáī£":2054,"áĪ«áīµáĬķ":2055,"ĠáĭĺáĪĪáĬĵ":2056,"áĪ°áĪį":2057,"ĠáĪĭáĭķ":2058,"ĠáĬ²áĬĵáīµ":2059,"áĬĲáī¶áĪĿ":2060,"ĠáĮįáĬķáī£áĪŃ":2061,"ĠáĬŃáĬķáĭ²":2062,"áĪ¨áī¡":2063,"ĠáĭµáĪķ":2064,"ĠáĪĿáĪį":2065,"ĠáĬ¥áĮįáĭļáĬ£áī¥áĪĦáĪŃ":2066,"ĠáĪĥáī¥áī°":2067,"ĠáĬŃáĮį":2068,"áīµáĪ©":2069,"áīµáĪŃ":2070,"áĬ¼":2071,"Ġáī¥áĪĿáĪķ":2072,"áĪ«áĪ²":2073,"Ġáĭ°áĭį":2074,"ĠáĪŃáĬŃáī¥":2075,"ĠáĬķáĪĿáĪĿ":2076,"Ġáī¥áĪŃáĪĥ":2077,"Ġáī°áĪªáįī":2078,"Ġáĭĺáī°":2079,"ĠáĬķáīķ":2080,"Ġáī¸":2081,"Ġáī«":2082,"ĠáĪĺáĬªáĬĵ":2083,"áĪįáīĢ":2084,"ĠáĪ°áī¥áĬ£áĭŃ":2085,"ĠáįĸáĪĪáī²":2086,"áĪįáī¦":2087,"ĠáĭĿáĪĿáĭµáĬĵ":2088,"ĠáĭĽáĬķáī³":2089,"áĬ£áĪī":2090,"áĪ°áĪŃáī°":2091,"áĪµáī¶áĪµ":2092,"áįįáĬĲáīµ":2093,"áĪĿáĭµ":2094,"Ġáĭ¨áĪ±áĪµ":2095,"ĠáĪįáī¢":2096,"ĠáĬŃáĪįáī²":2097,"ĠáĬ£áĪĪáĬĵ":2098,"ĠáĪĺáĪĿ":2099,"áĪ«áĪĿ":2100,"áĮºáĪ©":2101,"ĠáĮĢáĪŃ":2102,"ĠáĮ¸áĪĭáĬ¢":2103,"ĠáĪ°áĪ«áĪķ":2104,"ĠáĪĺáĪŃáĭĵ":2105,"ĠáĬŃáĪµ":2106,"Ġáī°áīĲáĭ³":2107,"Ġ2013":2108,"áī³áĭĬáīµ":2109,"ĠáĬ£áī¢áĪī":2110,"áĮ½áĬĵ":2111,"ĠáĬķáĬ¹":2112,"ĠáĬŃáĪ³áĭķ":2113,"Ġáī°áĪĺáĪĥáĪ®":2114,"áĪĺáĪµáĪį":2115,"ĠáĬ£áĮ¸":2116,"áĮĭáĮĭ":2117,"ĠáĬĲáĭŃáĪ®áĪĿ":2118,"áĪ«áĬ¥":2119,"áīłáĭļ":2120,"ĠáįĪáĪĪáĪĽ":2121,"ĠáĪµáĪĿáĭĴáīµ":2122,"ĠáĪŀáīµ":2123,"áĪįáĪĽáīµ":2124,"ĠáīłáĮº":2125,"ĠáĪĺáĭĽ":2126,"áĬŃáī°áĪŃ":2127,"ĠáĬĸ":2128,"ĠáĬķáĪķáĬĵ":2129,"ĠáĭĵáĪ³":2130,"ĠáĪĽáĭµáĪª":2131,"áĪĺáĪī":2132,"áĪķáī²":2133,"ĠáĬ£áĪĪáĭĭ":2134,"Ġáī¡":2135,"Ġáī¥áĪ½":2136,"áĮįáī¥":2137,"Ġáī¥áĮįáī¡áĬ¥":2138,"áĬ«áĭ®":2139,"áĮ¥áĪ®":2140,"ĠáĭĿáĪĺáĮ½áĬ¥":2141,"ĠáĮ¾":2142,"Ġáĭħ":2143,"ĠáįķáĪ¨áĭļáĭ°áĬķáīµ":2144,"áĪħáī¦":2145,"ĠáĪĽáĬ¥áĬ¨áĪĭáĭŃ":2146,"ĠáĬķáĭĪ":2147,"ĠáĪĵáĮº":2148,"áī¥áĪİáĪĿ":2149,"ĠáĬķáĪĭáĭķáĪĬ":2150,"ĠáĪµáĬķ":2151,"ĠáĪĺáĪµáĪĺáĪŃ":2152,"Ġáī¥áīķáĭĵáīµ":2153,"ĠáĬ£áĭĴ":2154,"ĠáĪĺáĭµáĪĥ":2155,"Ġáĭķáĭ®":2156,"ĠáĪĵáĪĻáĪ½áī°":2157,"ĠáĬ£áĪ°áĪįáĮ£áĬĴ":2158,"ĠáĬªáĪİ":2159,"áĬĵáĭŃáīµáĭµ":2160,"áĬĳáĭķ":2161,"ĠáĪĿáĬķáīħáĪµáīĵ":2162,"ĠáĬ£áĪĥ":2163,"ĠáĪĵáĭĺáĬķ":2164,"ĠáĬ¥áĪĿáĬĲáīµ":2165,"Ġáĭĺáĭį":2166,"áĮĢáĪĺáĪŃáī³":2167,"ĠáĭįáĪĳ":2168,"áĪįáĭĭ":2169,"ĠáĪµáĪįáĮłáĬĵ":2170,"ĠáĭĺáĬ«áĭ¨":2171,"ĠáĮİáĭ°áĬĵ":2172,"ĠáĬ¥áĬĵáīłáĪį":2173,"áĮłáīĵ":2174,"áįįáĪª":2175,"áĭĿáĮĪáīł":2176,"ĠáĮ¥áĬķ":2177,"Ġáī¥áĪĿáĭĥáĬĳ":2178,"ĠáĪĺáĪĬ":2179,"ĠáĬŃáĪħáĪį":2180,"áĮ»áīµ":2181,"ĠáĪĿáĬŃáĪįáĬ»áĪį":2182,"áĪĵáĭĿ":2183,"áįĮ":2184,"áĪ©áĬķ":2185,"áī³áī±":2186,"áīłáĬĵ":2187,"ĠáĮĪáĬĵ":2188,"ĠáįĬáĪįáĪĿ":2189,"áĪķáĬĵ":2190,"áĭŃáĬĲ":2191,"áĪ¹":2192,"áĪĭáīµáĬķ":2193,"Ġáĭ¨áī¥áĪīáĬķ":2194,"áĮª":2195,"ĠáĮĪáĭ²":2196,"ĠáĬĴ":2197,"ĠáĬŃáī¥áĪŃ":2198,"ĠáĭĿáĬķ":2199,"áĮ»áĮ¸":2200,"áĪĬáĪī":2201,"ĠáĬķáĭĿáī°":2202,"ĠáĪķáī¥áĪ¨áī°áĪ°áī¥":2203,"ĠáĭĿáĪŃáĬ¨áī¡":2204,"áĬķáīĢáĪ³áīĲ":2205,"ĠáĬ¨áĪĿáĭĿáī°":2206,"áįįáīµ":2207,"ĠáĪµáĪŃáĭĵáīµ":2208,"ĠáĬ£áĪŃáĬ¥":2209,"áĮİáĪµ":2210,"áĭ¥":2211,"Ġáī°áĬ¸áĪ³áĪ²":2212,"ĠáĭŃáĪ¨áĮĭáĮĪáĮ¸áĪįáĬĵ":2213,"ĠáĪ°áĪĻáĬķ":2214,"Ġ21":2215,"áĪįáĭµ":2216,"ĠáīłáĪŃ":2217,"ĠáĪħáĭŃáĭĪ":2218,"ĠáĮ¸áĭĪáī³áī³áīµ":2219,"ĠáĭŃáįįáĪĪáĮ¥":2220,"áĭŃáīµ":2221,"ĠáĭĪáĮº":2222,"áĪ¨áĬł":2223,"ĠáĪĺáĭĵáĪįáī³áīµ":2224,"áĪŃáī³":2225,"ĠáĪĽáĪķáīłáĪ«áĭĬ":2226,"Ġáī°áĪĺáĪ«":2227,"áĮ¥áī³":2228,"ĠáĮ½áĬķ":2229,"áīµáĪ®":2230,"ĠáĪĺáĪįáĬ¥":2231,"ĠáĪ°áĪļ":2232,"ĠáīµáĪķáĭĿáī¶":2233,"áĬŃáįį":2234,"Ġáī°áĬ»":2235,"áĪŃáĬª":2236,"ĠáĭĪáĪĭáĭ²":2237,"áĬĲáįį":2238,"ĠáĪŃáĬ¥áĭŃáī¶":2239,"ĠáĬ¨áĭ¨":2240,"áĮ½áĪĳ":2241,"ĠáĭĵáĭŃáĬĴ":2242,"ĠáĭĿáĪ¨áĬ¸":2243,"áĬ«áĭŃáĭµ":2244,"Ġáī°áĪ«áĬ¥":2245,"ĠáĬ£áĮį":2246,"ĠáīµáĮ½":2247,"ĠáĭŃáī°áĬ£":2248,"ĠáĬ£áīłáĪŃáĬŃ":2249,"ĠáĪĺáĮ»áĬ¢":2250,"ĠáĭŃáī°áĪĵ":2251,"áĬ»áīµ":2252,"ĠáĬ£áĭŃáĬ¨áĬ£":2253,"Ġáī¥áĬ¥":2254,"áĬ£áĪµ":2255,"áī°áĪĽ":2256,"ĠáĭįáĭķáĪį":2257,"áī¥áĭ³":2258,"áĮ½áĬ¡":2259,"ĠáĪĿáĬķáī£áĪ©":2260,"áĭ°áĪĪ":2261,"áĬ½áĬ¥áĪİ":2262,"ĠáĭķáĬķ":2263,"áĬŃáĭķ":2264,"áĪ©áī¥":2265,"ĠáĭįáĭµáĭµáĪ«áīµ":2266,"ĠáĮ¥áĪª":2267,"Ġáį¦":2268,"áĬķáĪµáīµáĭ®":2269,"ĠáĪ²áī²":2270,"áĬ¨áĪĭ":2271,"áĪĺáī°":2272,"ĠáĭįáĮįáĬ¥":2273,"ĠáĭĿáī°áįĪ":2274,"ĠáĭŃáĪŃáĬ¨áī¥":2275,"ĠáĬĲáīłáĪ©":2276,"ĠáĪĺáĮ»áĪĿáĭ²":2277,"ĠáĬ£áĪħáĮī":2278,"Ġ199":2279,"ĠáĬ¥áĪµ":2280,"ĠáĪĿáĪ¸áīµ":2281,"áĪĪáĪį":2282,"áįĬáĪķ":2283,"áĪĽáĪį":2284,"ĠáįĸáĪĬáĪµ":2285,"Ġáī°áĪĽáĪĥáĪ®":2286,"ĠáĭľáĮĭáī³áīµ":2287,"Ġáī°áĪĭ":2288,"ĠáĭĪáĬ¨áįį":2289,"ĠáĪĽáĭµáĪªáĭµ":2290,"áī¶áīµ":2291,"Ġáįįáīĵ":2292,"ĠáĭĴ":2293,"áĬ¾áĬĳ":2294,"Ġáī¥áĬķ":2295,"ĠáīµáĬ½áĬ¥áĪį":2296,"ĠáĭįáĬķ":2297,"Ġ24":2298,"ĠáĭĿáĬĲáīłáĪŃ":2299,"ĠáīĥáĪĭáīµ":2300,"áĬĲáī¥áĪŃ":2301,"Ġáī²":2302,"ĠáĮįáĪĿáīµ":2303,"ĠáĪĺáĬķáįĪáĪµ":2304,"ĠáĬ½áīµ":2305,"áĪ«áĬ¸":2306,"áĭĭáĬ¥":2307,"áĮĬáīµ":2308,"ĠáĬĲáĭŃáĪ¨":2309,"áĮįáĬĵ":2310,"Ġáī£áĪħáĪĬ":2311,"ĠáĭĪáīµáĪ©":2312,"áĭĭáĬ¥áī²":2313,"ĠáįĪáĮº":2314,"áĪĭáĪŃ":2315,"ĠáĮ½áĪĳáįį":2316,"áįĪáĬķ":2317,"áī¥áĬ£":2318,"áĭ°áįį":2319,"Ġáĭ©áĬĵáĭŃáīµáĭµ":2320,"ĠáĭŃáī°áĬ£áĪ¨áĪĺ":2321,"áĭĿáī¢":2322,"áĬ¼áī£":2323,"Ġáī¥áĪĵáįĪáĪ»":2324,"áĬĸáĪµ":2325,"ĠáĪļáĬ¥":2326,"áīĢáīµ":2327,"áĮ¥áĪ¨":2328,"ĠáĬŃáĭķ":2329,"áĪ¨áĬ½áī¡":2330,"áĭĿáīĥáĭĪáĪĿ":2331,"ĠáĪĵáĪĭáįĬ":2332,"áĪĭáĮ¥":2333,"ĠáĪĿáĭĥáĬĵ":2334,"áĪĮáīµ":2335,"ĠáĮĭáĬķáī³áī³áīµ":2336,"Ġáĭ°áīĴ":2337,"ĠáĬķáĪĵáĭ°":2338,"Ġáĭ°áīħ":2339,"áĭŃáĭĪáīµ":2340,"ĠáĪĺáĪ²":2341,"ĠáĪĪáĭįáĮ¢":2342,"ĠáĬĲáĭŃáĪ«":2343,"áīŃ":2344,"áī°áĪĺ":2345,"áĮįáĪŃáĬĽ":2346,"áĪµáĪį":2347,"ĠáĬ©áĪİáĪĿ":2348,"áĪµáįĴ":2349,"Ġáī£áĭŃáī³":2350,"ĠáĮ¸áĬĴáĪĳ":2351,"áīķáĪŃáī¥":2352,"áī¥áī³áīµ":2353,"ĠáĮłáĬķ":2354,"ĠáĪ¸áī¶áī³áīµ":2355,"áĪ°áĬĵáĪį":2356,"ĠáĪĥáĮĪáĪŃáĬĵ":2357,"áĬķáįĪáĪŃ":2358,"000":2359,"áĬ®áĪĽáĭĬ":2360,"ĠáĪ°áĪĿ":2361,"áĬŃáĪ®":2362,"áĬ£áĪĿ":2363,"ĠáīģáĮł":2364,"ĠáĮįáī¥":2365,"ĠáĮĨ":2366,"ĠáĬ£áĭ¨áĪŃ":2367,"áĪ°áĪī":2368,"áĬ¥áĬĵ":2369,"áĭĽáĬķ":2370,"áĬĲáĭļ":2371,"ĠáĬ¤áĪŃáīµáĪ«áĭįáĭ«áĬķ":2372,"Ġáĭī":2373,"ĠáįįáĮ¹áĪĿ":2374,"áĪįáĮ¢":2375,"áĮ¹áĪŃ":2376,"ĠáĪĺáĪį":2377,"áįĪáĪ«":2378,"ĠáĪķáĪĽáīķ":2379,"ĠáĬ£áĪĥáĭ±":2380,"ĠáĭŃáī°áĬ£áĪ¨áĪĺáĪĪáĭŃ":2381,"áĪ¨áįįáī²":2382,"ĠáĬªáĭ³":2383,"ĠáĬ®áĭŃáĬĵ":2384,"ĠáĬ¢áīµáĭ®áĮµáĭ«":2385,"áĪ°áĪŃáĪĳ":2386,"áĮ¸áĬĵ":2387,"áįĪáĪŃáī²":2388,"áĪįáĭ®":2389,"ĠáĪī":2390,"ĠáĬ¥áĪĿáīłáĬ£áĪŃ":2391,"áĬ©áĪī":2392,"áįĭáĪµ":2393,"ĠáĬ£áĪ¨áĮĭ":2394,"áī¥áĭĺáĭŃ":2395,"ĠáĪĺáĮĭáī£":2396,"ĠáĬķáĬ½áīµ":2397,"áĭ¨áĪ±áĪµ":2398,"áĮ¸áĪĿ":2399,"ĠáĬŃáĪĪáī£áīµ":2400,"áĮĪáī¥áĪ©":2401,"áĬ£áĭ¨":2402,"ĠáĪĺáĬ£":2403,"áĮ½áĪĿ":2404,"Ġáī°áĪµáįĭáĭŃ":2405,"ĠáĪįáĬŃáĭķ":2406,"ĠáĪĤáĭĪáīµ":2407,"Ġáī¥áĬ½":2408,"ĠáĬ£áĬ¼áī£":2409,"áī£áīµáĬķ":2410,"ĠáĬĵáĭŃáĭļ":2411,"Ġáĭ¨áĪĽ":2412,"ĠáĬŃáī¥áĪª":2413,"áĭ³áĭĬ":2414,"áĮ¸áīµ":2415,"ĠáĬµáĭķáĪ¶":2416,"áĮ½áĬ£":2417,"ĠáĪŃáĬ¥áĪ°":2418,"Ġáī°áĬķ":2419,"ĠáĭĿáī°áĭĪ":2420,"ĠáĭĿáī¥":2421,"Ġáī¥áĪŃáĪĥáĬĲ":2422,"ĠáįĪáĪ¨áĬķ":2423,"áįĳ":2424,"ĠáĭµáĪį":2425,"áĬ¨áĪį":2426,"ĠáĪķáĬŃáĪĿáĬĵ":2427,"áī¡áĪ«áīµ":2428,"ĠáĬ«áĪŃ":2429,"Ġáī»áĭŃáĬĵ":2430,"ĠáīĪáĪįáĭĳ":2431,"ĠáĭĺáĪĪáĬ¹":2432,"ĠáĬ£áīłáĪŃáĬŃáī¶":2433,"ĠáĮīáĭķáĭŀ":2434,"ĠáĪĺáĪ°áĪĪáĭŃ":2435,"ĠáĬķáĪĿáĭķ":2436,"áĪªáĬķ":2437,"áĮ»áĭĪ":2438,"Ġáĭ°áĬķ":2439,"ĠáĭŃáĪµ":2440,"áĬ©áĭİ":2441,"áĪĥáĮĪ":2442,"áĪĬáĪį":2443,"ĠáĬ®áĪļ":2444,"áĪįáįĬ":2445,"ĠáĪµáĪĪáĪĿáĬķáī³áĭŃ":2446,"ĠáĮįáĬķáī¦áīµ":2447,"áĪ±áĬķ":2448,"áī¥áĭĻ":2449,"ĠáĬ¥áĭļáĬ£":2450,"ĠáĭĿáĬĲáīłáĪ®":2451,"áĪĵáĪ°":2452,"áĪ³áĬ¥":2453,"ĠáĪĺáīķ":2454,"ĠáĬ«áī¥áĭļ":2455,"ĠáĪµáĪĪáĭĿáĪŀáī°":2456,"áĭŃáīķ":2457,"áī¥áī²":2458,"ĠáĪĿáīµáĪķ":2459,"áĮ»áĭĪáīµ":2460,"ĠáĬ£áīµáĪĴ":2461,"áĪĽáĪħ":2462,"áĪ¾":2463,"ĠáĪĽáĭķáĪ¨":2464,"ĠáĪ°áĪĭ":2465,"áĪħáĪĭ":2466,"ĠáīłáĪİ":2467,"áĪĭáĬķáĭµ":2468,"ĠáĪĿáĪħáĪĭáĭī":2469,"ĠáĭŃáī°áĪĵáĪĪáĭĪ":2470,"áĪŃáĪµ":2471,"ĠáĬĲáīłáĪŃáī²":2472,"ĠáĬ«áī¥áĬ¡":2473,"ĠáīĬ":2474,"ĠáĬ®áĭŃáĬĸáĪĿ":2475,"ĠáīłáĪĪáīµ":2476,"ĠáĬ®áĬĲ":2477,"ĠáĬ£áĭŃáĬĲ":2478,"áĭĿáĭ«":2479,"ĠáĭĵáĪĺáī°":2480,"áī¥áĬ«":2481,"Ġáī°áī£áĭķ":2482,"ĠáĬ£áįĪ":2483,"áĪĪáī³áīµ":2484,"ĠáĭįáĪ³áĬĲ":2485,"ĠáįįáĪŃáīĤ":2486,"áĪµáĬ»":2487,"Ġáī¥áĪĵáĭ°":2488,"ĠáĪĺáĬ«":2489,"ĠáĮ«":2490,"Ġ26":2491,"Ġ2016":2492,"Ġáī¥áĪħ":2493,"ĠáĬ¥áĬĲ":2494,"áĪĭáĮ½":2495,"áĮ£áĬķ":2496,"ĠáĭĿáī°áĭĵ":2497,"Ġáī¥áĪª":2498,"áįĲ":2499,"Ġáĭ¶áĪĭáĪŃ":2500,"áĪĪáĬĴ":2501,"ĠáĪµáĮī":2502,"ĠáĭĵáĪ°áĪŃáī°":2503,"ĠáĭĿáĪŃáĬ¨":2504,"ĠáĬŃáįįáĪĪ":2505,"áĪ¨áĬ½áī¦":2506,"ĠáĭĿáĭµ":2507,"ĠáĬķáĪĿáĭį":2508,"ĠáĬķáĪĿáĪŃ":2509,"Ġáĭŀáī£áī³áīµ":2510,"ĠáĬ£áīķ":2511,"áĮĭáĪĿ":2512,"áī¡áĬķ":2513,"áĮįáĭĿ":2514,"áĭŃáĪ©":2515,"áį¡\"":2516,"ĠáĭĺáĪµ":2517,"áĪķáĪµ":2518,"ĠáĪµáĪįáĮ£áĬķ":2519,"ĠáĪĿáĮįáī£áĪŃ":2520,"ĠáĪĺáĪĿáĪħáĪŃ":2521,"ĠáĬķáĮ½":2522,"ĠáĪĵáĮĪáĭĿ":2523,"Ġ27":2524,"ĠáĮ½áī£áĪķ":2525,"áĪĺáĪŃáī²":2526,"Ġáīķ":2527,"áĭ°áĪī":2528,"áĭ°áĮĪ":2529,"Ġáĭķáĭ³áĮĭ":2530,"ĠáĬ¥áĭĭ":2531,"áĭĺáĬĵ":2532,"Ġáīµáī¥áĪį":2533,"ĠáĪĵáĭ³áĪŃ":2534,"áįĭáĬķ":2535,"ĠáĪħáĬķáĮ»":2536,"áĪĪáĪī":2537,"Ġáī£áĪħáĪª":2538,"áīĵáīµ":2539,"áĪŃáĮįáĭ«":2540,"áī¥áĪĬ":2541,"áĭįáĪµ":2542,"áĮ£áĪįáĭ«":2543,"ĠáĭŃáī°áĪĵáĪĪáĭĪáĪĪáĭŃ":2544,"áĪįáĭİ":2545,"Ġáī¥áĪĿáĪīáĬ¥":2546,"Ġáī¥áĪµáĪĿ":2547,"ĠáīĢáĪ¨áī£":2548,"áĪ»áĭŃ":2549,"ĠáĪ°áĭĵáī³áīµ":2550,"ĠáĪĿáĪµáī²":2551,"ĠáĬŃáĪŃáĪµáīµ":2552,"áĮĪáĪįáĮ¹":2553,"Ġ23":2554,"ĠáĬŃáĪŃáĪµáī¶áĪµ":2555,"ĠáĪĵáĭį":2556,"ĠáĬ¢áĪįáĬĵ":2557,"ĠáĭĿáĬĲáīłáĪ«":2558,"ĠáĪ³áĪįáĪ³áĭŃ":2559,"ĠáĬ£áĭŃáĬŃáĬ¥":2560,"Ġáĭ°áīĢáĬķáĪµáīµáĭ®":2561,"ĠáĬŃáĪ°":2562,"áĮĪáĪµ":2563,"ĠáĮ¥áīķ":2564,"áīłáĮ½áĪķ":2565,"Ġáī¥áī°áĭĪáĪ³áĬº":2566,"áī¥áĭĽáĪķáīµ":2567,"ĠáĪĨáĪµáįĴ":2568,"áĪ½áĭĳ":2569,"ĠáĪµáĪĿáĭĴ":2570,"áĮ¥áīĥáĪµ":2571,"ĠáĮĪáĭĽáĬ¥":2572,"ĠáĪµáĮĭ":2573,"áĭĤ":2574,"áĭ³áĪĽáĭŃ":2575,"áī¶áĪĿáĬķ":2576,"ĠáĪĿáĬ¥":2577,"ĠáĬ¥áĬķáĬ¨áĪĭ":2578,"áĭĿáĪŃ":2579,"áĪ½áī¶":2580,"ĠáĪĺáĮ¸":2581,"áĭµáĭ©":2582,"Ġáĭįáĭµáī¥":2583,"áĭĭáĪµ":2584,"ĠáĮīáĭµ":2585,"Ġáī¸áĪįáĪ²":2586,"ĠáĪĺáĪ³áĪŃáĪĴ":2587,"Ġáįįáīķ":2588,"ĠáĪĺáĪµáĬ¨":2589,"ĠáĪ³áĭķáī¤":2590,"ĠáĪ°áĪª":2591,"ĠáĪ¨áī¥áĪĵ":2592,"ĠáĭĺáĪķ":2593,"ĠáĪħáĮ»áĬĵáīµ":2594,"ĠáĮīáĭ³áĭ«áīµ":2595,"ĠáĬķáĬ½áĬ¥áĪį":2596,"Ġáĭ³áĪŃáĮĭ":2597,"ĠáĭĵáĪĪ":2598,"áĪĿáĬ½áĬķ":2599,"ĠáĬ¨áĪ¨áĬķ":2600,"ĠáīµáĪĿ":2601,"Ġáīª":2602,"ĠáĬ¥áĭĪ":2603,"ĠáĪĵáĪ³áī£áīµ":2604,"áĬ¹áĪį":2605,"áĪĲáĬķ":2606,"ĠáĮ¥áĪŃ":2607,"ĠáīĥáĪįáĪ²":2608,"áĭĽáī¥":2609,"Ġáī°áĭĪáĪįáĭ°":2610,"áī³áī³":2611,"25":2612,"áĬ£áĪĪ":2613,"ĠáĮ¸áĪĵ":2614,"ĠáĪµáĪĪáĭĿáīłáĪī":2615,"áĪ°áĪĪ":2616,"ĠáĭŃáĬ¨áĬ£áĪį":2617,"Ġáįİ":2618,"Ġáį¤":2619,"áīĥáĪµ":2620,"ĠáĬķáĬ£áī¥áĬĲáīµ":2621,"áīį":2622,"ĠáĭĪáĪ°":2623,"ĠáĪµáĪĪáĭĿáī°":2624,"áĪĭáįį":2625,"áī²áĬķ":2626,"Ġáī¥áĪĿáĪµ":2627,"áĪ«áĪį":2628,"áĬķáī±":2629,"ĠáĪĺáĭĿ":2630,"áĮįáĭĴ":2631,"ĠáĪħáĭ«":2632,"áī¸áĪµáī°áĪŃ":2633,"ĠáĪµáĭĴ":2634,"áĪįáĭ©":2635,"ĠáĬ¨áī£áī¢áī³áīµ":2636,"áĪĪáĬŃáīµ":2637,"áĪĬáīµ":2638,"ĠáĭµáĬķ":2639,"ĠáĭĿáĮįáīłáĪŃ":2640,"áī¥áĪŃáĪĥáĬķ":2641,"áĬ¥áĮį":2642,"Ġáĭ³áĭĬáīµ":2643,"ĠáĪĿáĪŃáĮ«":2644,"ĠáĪĺáīĲ":2645,"ĠáĬ¥áĬķáī°áĭĢáĬĲ":2646,"áĪįáĮ¦":2647,"ĠáĭĺáĪĿ":2648,"ĠáĭĪáĪ¨áīĲáīµ":2649,"Ġáī°áĬĲ":2650,"áĮ¸áĪī":2651,"áĪĤáĭĪáīµ":2652,"Ġáī¥áĬĵáĭŃ":2653,"áĮīáĪĿ":2654,"áī°áĬĽ":2655,"áĭµáī³áīµ":2656,"Ġáī¥áĪ«":2657,"ĠáĬ£áĪ¨áĭ²áĬ¡":2658,"ĠáĪ°áīłáĭŃáī²":2659,"ĠáĬ°áĬĲ":2660,"ĠáĬĲáīłáĪŃ":2661,"ĠáĪµáĪĪáĭĿáĬ¾áĬĲ":2662,"ĠáįįáĪįáĮłáīµ":2663,"áĭ¨áĪĨáĭĭ":2664,"Ġáī¦áī³áī³áīµ":2665,"áĬŃáĬ¥áĪį":2666,"ĠáįķáĪª":2667,"áĭ²áĬķ":2668,"ĠáĬŃáĬ¢áĪĭáī³áīµ":2669,"ĠáĪŃáĬ¥áĪ±":2670,"áī¥áĪ«áĪħ":2671,"áĮįáĪµ":2672,"áĬ£áĬ½":2673,"ĠáĮ¨áĬķáįĪáĪŃ":2674,"ĠáīµáĬ¥áĭĽ":2675,"Ġáī¥áīµ":2676,"Ġ28":2677,"ĠáĬ¥áĬĵáīłáĪĪ":2678,"Ġáī°áĬ½áĬ¥áĪİ":2679,"áĭįáĭķ":2680,"ĠáĪµáĬ¥áĪĬ":2681,"áī£áĬķáĭ«":2682,"áĭįáīµ":2683,"ĠáĭŃáĪĿ":2684,"áĮ½áĬ¦":2685,"ĠáĬ£áī£áĪį":2686,"áĬĵáĭķ":2687,"áĭ©áĬķ":2688,"ĠáĮħ":2689,"áĬĵáĪįáī£áīµ":2690,"ĠáĬ£áĭĭáĪŃáĪķ":2691,"áĮħáĪĿáĪŃ":2692,"ĠáĬ¨áĪĿáĬ¥áī°":2693,"Ġáĭ°áī¥áĭ³":2694,"ĠáįįáĪµ":2695,"ĠáĪĺáĪµáĬ¨áĪ¨áĪĿ":2696,"áĪĻáĪŃ":2697,"ĠáĪķáĮĭáĭĬ":2698,"áĮłáįį":2699,"Ġáī°áĪĺáĪ³áĪ³áĪĬ":2700,"ĠáĮ½áĪŃáĮįáĭ«":2701,"áĭ³áĪĭáĭŃ":2702,"ĠáĪĺáĪµáī°":2703,"áĮįáĪµáī²":2704,"ĠáĮ¨áĪ¨áī³":2705,"Ġáī¥áĪīáĮ½":2706,"áī¥áĭĿáĪĴ":2707,"ĠáĭĿáĭķ":2708,"ĠáīµáĮįáĪŃáĬĽ":2709,"ĠáĪĿáĬķáīħáĪµáīĵáĪµ":2710,"ĠáĭĺáĪĺáĬķ":2711,"ĠáĪĺáĬķáĭ°":2712,"Ġáī¥áĪ©":2713,"ĠáĭĿáĭĢ":2714,"áīłáĭĵáĪį":2715,"ĠáĪĺáĬĲ":2716,"ĠáĪĺáĬ½":2717,"ĠáĬ¢áĬº":2718,"ĠáĪĵáĪĭáįįáĬĲáīµ":2719,"ĠáĪ¬":2720,"Ġáī¥áĭĿáĪĴ":2721,"Ġáī¥áĮ½":2722,"ĠáĬ¢áĬ¹áĪĿ":2723,"áĪĬáĬķ":2724,"áīłáĪª":2725,"ĠáĭŃáĬ½áĬ¥áĪī":2726,"ĠáĬ®áįį":2727,"ĠáĬªáĭ³áĬĲ":2728,"áįĪáĪįáĮ¡":2729,"Ġáįįáīµ":2730,"ĠáĪĺáĪ«áĪķ":2731,"ĠáĭĪáĮĪáĬķ":2732,"ĠáĪĥáĮĪáĪ«áĭĬáīµ":2733,"áĭŃáĪį":2734,"áī³áīµáĬĵ":2735,"Ġáī¥áĪĵáīĤ":2736,"áĪ¨áįį":2737,"áĪ°áĪĭ":2738,"ĠáĮįáī¡áĬ¥":2739,"ĠáĭĿáĪ¨áĬ£":2740,"áĭĪáĭ²":2741,"ĠáĬŃáĪĵ":2742,"Ġáī¥áĪŃáĪĥáĬķ":2743,"áĮ¸áĪĺ":2744,"áĮĢáĪĺ":2745,"ĠáĪļáĬ¥áī³áĭĬáīµ":2746,"ĠáĪ³áĬķ":2747,"áĬŃáĪĪáī³":2748,"ĠáĭµáĪ®":2749,"áī«áĪį":2750,"ĠáĮ¸áĮĪáĪĽáīµ":2751,"ĠáĮįáĮ¥áĪĽáīµ":2752,"ĠáĪĺáĪįáĬ¥áĬ½áī²":2753,"ĠáĬ¥áĬķáī°áĭ°áĬ£":2754,"Ġáį§":2755,"ĠáĪĪáĭŃáī²":2756,"ĠáīłáĪ¨":2757,"áīłáĮĪ":2758,"áĮĵáĭĵáĭĿ":2759,"ĠáĭŃáĪ¨áĮĭáĮĪáĮ¸áĪİáĪĿ":2760,"ĠáĮ¸áī¥áĮ»áī¥":2761,"ĠáĭŃáĬķ":2762,"áĬ¸áįį":2763,"ĠáĬ£áĪŃáĪ°áĬĵáĪį":2764,"ĠáĪĵáĭ«áĪİ":2765,"ĠáĭĺáĪŃáĬ¥":2766,"áĮĨ":2767,"áĭĭáĭŃ":2768,"áĬŃáĭ«":2769,"ĠáĪĺáĪĭáĬ¥":2770,"áĪİáĮĤ":2771,"áĬ¦áĬķ":2772,"áĪĽáĮį":2773,"Ġáī¥áĬ£áĬ«áĪį":2774,"áĪµáī³áīµ":2775,"áĭĿáī°":2776,"áĬ¥áī³áĭį":2777,"Ġáī°áĭĪáĪ³áĬº":2778,"ĠáĭĵáĪ¨áī¥":2779,"ĠáĬķáĪĿáĬķ":2780,"ĠáĮĪáĪĿ":2781,"áĮ³áĬĽ":2782,"Ġáī´áĬŃ":2783,"ĠáĪĺáĮĢáĪĺáĪŃáī³":2784,"áĪĪáĭį":2785,"Ġáī°áĮįáī£áĪŃ":2786,"áĪµáĬ«":2787,"ĠáĭįáĮ½áĬ¢":2788,"áĪĽáīµáĬķ":2789,"áĮłáĪĺ":2790,"ĠáĬ½áĬķ":2791,"áĬ»áĬº":2792,"Ġáī£áĬķ":2793,"áĪķáĮĤ":2794,"áĭįáĭ«áĬķáĬķ":2795,"áĪĥáĪĿ":2796,"áīłáĭĿ":2797,"áĪŃáĭ«áĭĬ":2798,"ĠáĬŃáĪĺ":2799,"ĠáĪĿáī¥":2800,"ĠáĮįáī¥áĪª":2801,"ĠáĪĺáĭĵáĪµ":2802,"áįįáĬĵ":2803,"áīħáĬķ":2804,"áĪĺáĭŃáī²":2805,"ĠáĪĺáĮĭáī¢áīµ":2806,"ĠáĮĢáĪĺáĪ¨":2807,"áĮ»áĪį":2808,"áĪ©áĭŃ":2809,"áĬĴáĬķ":2810,"áĮĢáĪĺáĪ¨":2811,"áĭ±áĪ½áī°":2812,"Ġáī°áĪĵáī¢áĪ©":2813,"ĠáĭĿáĪĿáĪįáĬ¨":2814,"ĠáĬ¥áĬķáī°áĬ¾":2815,"áī¥áĭİ":2816,"Ġáĭ°áīĴáīķ":2817,"ĠáĮĢáĪŃáĪĺáĬķ":2818,"áĭ³áĭµ":2819,"áĬŃáĭİ":2820,"ĠáĭĿáĬ¾áĬĳ":2821,"Ġáį¥":2822,"ĠáĪĥáĭŃáĪĽáĬĸ":2823,"ĠáĪµáįį":2824,"ĠáĪĿáĭķáī£áĪĪ":2825,"áĪĮáįİáĬķ":2826,"ĠáĪļáĬĴáĪµáī°áĪŃ":2827,"ĠáĪĿáīħ":2828,"Ġáĭĳáīķ":2829,"ĠáīĢáĪªáī¡":2830,"áį¥":2831,"áĬ£áĪĪáĪĿ":2832,"áĪİáĬĵ":2833,"ĠáĪĺáĮĭáī£áĬ£áĭ«":2834,"áĭ³áĪª":2835,"Ġáī°áĮįáī£":2836,"ĠáĬ¢áĮ£áĪįáĭ«":2837,"áĮĭáĮĪ":2838,"ĠáĮ¥áĭĳ":2839,"Ġáĭķáĭī":2840,"áĮĭáĮĭáĪļ":2841,"áīµáĬ«":2842,"ĠáĬķáĪ³áī¶áĪĿ":2843,"áįĪáī°":2844,"ĠáĮģ":2845,"áĮ¥áīł":2846,"ĠáĬķáĮī":2847,"ĠáįķáĪªáĪĺáĪŃ":2848,"áĭ¨áĪī":2849,"ĠáĪµáĮīáĪĿáī²":2850,"ĠáīħáĬķ":2851,"ĠáĭĿáĪĪáĭĵáĪĪ":2852,"áį¤":2853,"áĬ»áĪįáĬ¥":2854,"áĮĪáĭ°":2855,"áĭ¨áĪĪ":2856,"Ġáĭĵáĭįáĭ²":2857,"áī¨áĪŃáįĳ":2858,"áĪĬáĮ¹":2859,"ĠáĬŃáīµáĬ¨áĭįáĬķ":2860,"22":2861,"ĠáĪĵáĪĿáĪĪ":2862,"Ġáī¥áĭµáĪĨ":2863,"Ġáī¥áĭµáĪķáĪª":2864,"áĪļáĬķ":2865,"ĠáĪĵáī°":2866,"ĠáĪĺáĪµáĭĭáĬ¥áī²":2867,"ĠáĪĿáĪµáĬ¡":2868,"áĮ¸áĪŃ":2869,"áĭĿáĮĭ":2870,"ĠáĪĵáĭŃáĪįáī³áīµ":2871,"ĠáĬ£áĪ¨áĮĭáĮĬ":2872,"Ġáī¥áīĳ":2873,"ĠáĬ£áĬķáĪµáīµáĭ®":2874,"ĠáĪĽáĪħ":2875,"áĮĭáĬķ":2876,"ĠáĬ£áĪĪáĭİáĪĿ":2877,"áĪªáĬŃ":2878,"Ġáī£áĭķáĪī":2879,"áĮ½áĮ»áĪŃ":2880,"áĮ¸áĪį":2881,"Ġáĭ°áīħáĬĵ":2882,"áĮłáĪ«":2883,"áĪĶáĪŃ":2884,"áĭĵáĬķ":2885,"áĭ°áĪĿáī²":2886,"Ġáĭķáī¥":2887,"ĠáĭĪáĮĪ":2888,"áĪįáī°":2889,"áĪįáĮ¡":2890,"áī¥áĭ«":2891,"ĠáĬŃáĪħ":2892,"áīĥáĬķ":2893,"ĠáĬŃáĮĪáī¥áĪŃ":2894,"áĪ³áĭµ":2895,"ĠáĭĿáĭĵáīłáĭ¨":2896,"ĠáĪķáĪį":2897,"Ġáī¥áĪ½áĬŃáĪĪáī³":2898,"ĠáĪĿáĮ¥":2899,"áĪĽáĪµ":2900,"ĠáĪĵáĭ²":2901,"ĠáĬķáĪĿáĪķ":2902,"ĠáĮ½áĪĿ":2903,"ĠáīµáĮ½áī¢áīµ":2904,"áĪĿáĬ«":2905,"ĠáĪ©áĪµáĭ«":2906,"ĠáĪķáī¡áĪ«áīµ":2907,"ĠáĬ¥áĭĿ":2908,"áĪ¨áĬ½áīł":2909,"áĭįáĪŃ":2910,"ĠáĬ£áīĲáĭ²áĪĻ":2911,"áĪįáĭķ":2912,"áĮĪáĭĽáĬ¥":2913,"ĠáĪĵáĮºáĪŃ":2914,"ĠáĪ°áĪĽáĭŃ":2915,"áīłáĮ½":2916,"Ġáīµáĭķ":2917,"áĬ¤áĪŃáīµáĪ«":2918,"ĠáĬ¤áĪĪáĬŃáīµ":2919,"Ġáī³áĪķáĪ³áĪµ":2920,"ĠáĬĲáĮĭ":2921,"ĠáĮ¥áīł":2922,"áįĪáĪĪ":2923,"ĠáĪĵáĭĬ":2924,"ĠáĭĿáĪĿáĪįáĬ¨áīµ":2925,"áīłáĪ®áĪĿ":2926,"Ġáī°áĮłáīĴ":2927,"Ġáī¥áĭ°áĪ¨áĮĥ":2928,"ĠáĪĢ":2929,"ĠáĬ£áĭŃáĬķ":2930,"ĠáĪĿáĭĥáĬĲáĭŃ":2931,"ĠáĪĨáĪµáįĴáī³áĪį":2932,"ĠáĭįáĪ½áĮ£":2933,"ĠáĭĿáī°áĭĭáĪħ":2934,"ĠáĪĻáĭļ":2935,"ĠáĬĵáĭŃáī³":2936,"ĠáĮ¸áĪĵáĭŃ":2937,"ĠáīĢáĮº":2938,"áĭ°áĪ¨áĪ½áĬķ":2939,"ĠáĪķáĪĽáĪĽáīµ":2940,"ĠáĪĽáĪŃ":2941,"áĮĲáĪµ":2942,"áĪŃáĭİ":2943,"ĠáĬķáįį":2944,"áĪİáĪļ":2945,"áĪŃáĭ«áīµ":2946,"áįĪáĪįáĮ¥áĬķ":2947,"áĪĪáĪĪ":2948,"ĠáĪĿáĭĥáĬķ":2949,"áĬĵáīµáĬķ":2950,"50":2951,"ĠáīĢáĮ»áĪĬ":2952,"ĠáĬ®áĪĿ":2953,"ĠáĭĿáī°áĮłáīķ":2954,"ĠáĭĺáĭµáĪį":2955,"ĠáĭĪáįįáĪª":2956,"áĬ¨áĪĭáĬ¸":2957,"áĪķáī³":2958,"ĠáĭŃáĮįáĪĪáĮ½":2959,"áĬķáĬ£":2960,"Ġáīĵ":2961,"ĠáĬ£áīķáĪª":2962,"ĠáĭĿáĪĵáĭĺ":2963,"ĠáĭĿáĬ£áĪĺáĪ°áĪī":2964,"ĠáĪĺáĭµáĪĥáĬĴáīµ":2965,"ĠáĪ°áįĬáĪķ":2966,"Ġáĭ¨áī¥":2967,"ĠáĭĻáĪŃáĭ«":2968,"ĠáĪĿáĬķáĮª":2969,"áĬ»áĭµ":2970,"21":2971,"áĭ«áīµáĬķ":2972,"ĠáĪĺáĪ«áĪĴ":2973,"áįĪáĪĭáĪĪáĭ¨":2974,"áĪ¶áĬķ":2975,"áĪ¨áī³áĭĬ":2976,"ĠáĭĺáĪĪáĬ»":2977,"ĠáĬ¥áĬķáī°áī°":2978,"ĠáĬŃáīµáī¥áĪį":2979,"áī¥áĪĺáĪ°áĪ¨áīµ":2980,"Ġáī°áĪĺáĪ«áĪĺáĪŃáī²":2981,"ĠáĭĿáī¥áĪī":2982,"Ġáī¥áĪĿáĮįáī£áĪŃ":2983,"ĠáĭĽáĮĬáīµ":2984,"ĠáĬĲáĭĽ":2985,"áĭĿáĪĿ":2986,"áīĢáĪį":2987,"áĭįáĪĥáĬķáĪµ":2988,"áĪ³áĪµáī£":2989,"ĠáīłáĭĵáĪįáī²":2990,"ĠáĭķáĪ¨áįįáī²":2991,"áĪ°áī£":2992,"áĪ°áĭµ":2993,"ĠáĪĺáĭĪ":2994,"ĠáĪ°áĪľáĬĵáĭĬ":2995,"áĭ¨áĭŃ":2996,"ĠáĪķáĭ³áĪŃ":2997,"ĠáĪĮ":2998,"ĠáĬ£áĭŃáĬŃáĬ¥áĪįáĬķ":2999,"áī³áĪŃ":3000,"ĠáĪĺáĪ°áĪį":3001,"ĠáĪĽáĬķáī¸áĪµáī°áĪŃ":3002,"Ġ50":3003,"ĠáĪįáĪĿáĭĵáīµ":3004,"áĪļáĬĴ":3005,"ĠáīĢáĪįáĮ¢":3006,"áĭįáĭµ":3007,"áī¥áĭĽáĭķáī£":3008,"ĠáĮįáĭµáĬķ":3009,"ĠáĮĪáīł":3010,"ĠáĭĪáĪĪáĭ¶":3011,"ĠáĭķáĮ¡":3012,"ĠáĭĿáĮĪáīłáĪ¨":3013,"ĠáĭĿáĪĥáī¦":3014,"ĠáĬķáī¡áĪŃ":3015,"ĠáĪĺáīµ":3016,"ĠáĪĵáĮĭ":3017,"Ġáī°áĪ¸":3018,"ĠáĭĺáĪŃáĬ¢":3019,"áĭ°áĪįáī²":3020,"ĠáĬ£áī¥áĪŃáĪĥáĪĿ":3021,"áĪĪáĭĭáĭŃ":3022,"áīªáĭ¥":3023,"ĠáĮ¥áīħ":3024,"áĪµáī²áī«áĪį":3025,"Ġáī°áĮĭáĭ³áĪĭáĭŃ":3026,"áĪĽáĬ¥":3027,"ĠáĪĿáĭķáĪ«":3028,"ĠáĪįáĬ¡":3029,"Ġáī°áĪĪ":3030,"ĠáĪµáįĸáĪŃ":3031,"ĠáĬ£áīłáĭŃ":3032,"ĠáĭĿáĬ½áĬ¥áĪī":3033,"áĪĺáĪįáĬŃ":3034,"ĠáĬ£áĪķáĭĭáī°áĭŃ":3035,"Ġáī¥áĪĿáĭĥáĬķ":3036,"ĠáĭĺáīłáĪĪ":3037,"Ġáĭ³áĮį":3038,"ĠáĬ£áī¥áĬĲáīµ":3039,"áĭµáĭ®":3040,"áĬĳáĬ¤áĪį":3041,"áĮ»áĪķ":3042,"ĠáīµáĬķ":3043,"ĠáĭĿáįįáĪĪáĮ¥":3044,"ĠáĭŃáĭĿ":3045,"ĠáĪĵáī¢áĪ®áĪĿ":3046,"áĪĻáĭµ":3047,"ĠáĬĲáįĪáĪŃáī²":3048,"áīĸáĪĿ":3049,"ĠáĬ£áĭ³":3050,"ĠáįįáĪµáĪĥ":3051,"ĠáĪĪáĬ«":3052,"áĭįáĪ«":3053,"Ġáī¥áĮ¾":3054,"Ġáĭ¨áĪĽáĬĲ":3055,"Ġáī¥áĪĿáĮį":3056,"áĭŀáī£":3057,"áįĭáĭŃ":3058,"áĪĥáĭµ":3059,"ĠáĬķáĬ¥áĪ½áī¶":3060,"ĠáĪļáĭ«":3061,"áĬ£áĬķáĪµáīµáĭ®":3062,"ĠáĮ¥áīĵ":3063,"ĠáįĴ":3064,"ĠáĬ¨áĪĿáĭĺáĪĪáĭİ":3065,"áĬ¦áĪĿáĬķ":3066,"áīłáĬĴ":3067,"ĠáĬķáĬ¹áĪī":3068,"Ġáī¥áīĲáĪĬáĪī":3069,"áī¨áĪŃáįĳáĪį":3070,"Ġáī¥áĪĿáīķ":3071,"áĪĥáĪī":3072,"áĭµáĬ«":3073,"ĠáĮĪáĮ¹":3074,"ĠáĬ£áĪħáĮīáĪ«áĭĬ":3075,"áĪĵáĪĭ":3076,"ĠáĬ¨áĭŃáīµ":3077,"ĠáīĢáĭ³áĪĿ":3078,"ĠáĪ°áĬķáīłáīµ":3079,"áĪ³áĪĮ":3080,"áĪĪáĭŃáĬķ":3081,"áĪįáĬ©áĪĿ":3082,"ĠáĪĿáĪįáĬŃáī³":3083,"áĮ¸áĪĪ":3084,"ĠáĪĿáī¥áĪ«áīķ":3085,"áĮĭáĮĬ":3086,"ĠáĭĪáī°áĪĥáĭ°áĪ«áĭĬ":3087,"Ġáī°áī°":3088,"ĠáĪĿáĪµáĬŃáĪŃ":3089,"áĪĵáĭµ":3090,"ĠáĭĿáĮĪáĪįáĮ½":3091,"ĠáĬ©áī£áĬķáĭ«":3092,"ĠáĪĺáĪ¨":3093,"Ġ!":3094,"ĠáĬ£áĬ«áĭŃ":3095,"Ġáī°áĪĺáĪĬ":3096,"ĠáĭµáĬ£":3097,"áĭ³áĪµáĬĲáīµ":3098,"áĭµáĭ«":3099,"ĠáĪĿáĪµáĮ¢":3100,"ĠáĪĵáĪ¨áĪµ":3101,"áĪ«áĪµ":3102,"ĠáĬŃáĭµ":3103,"áĭ°áĪµ":3104,"áĪĺáĬĵ":3105,"ĠáĭĵáĪŃ":3106,"ĠáĮĲáĭŃáī³":3107,"áĭįáĬķáĭµ":3108,"ĠáĮłáīĴ":3109,"ĠáĪķáī¶áī³áīµ":3110,"ĠáĮ½áĪįáĭĭ":3111,"ĠáĪĺáī¥áĭĽáĪķáīµ":3112,"áĮįáīłáĪŃ":3113,"ĠáĭĭáĬĵ":3114,"ĠáĭĿáĪĵáĪĪ":3115,"ĠáĭŃáĭĪ":3116,"Ġáĭ°áĪ´":3117,"ĠáĭĿáīłáĪī":3118,"ĠáĪµáĪ«":3119,"ĠáĭĿáī°áĮĪáī¥áĪ¨":3120,"áĭĵáĭĬ":3121,"ĠáīĪáĪįáĭĵ":3122,"ĠáĮ¥áīħáĪĿáī²":3123,"áīĬ":3124,"ĠáĬ®áĬķ":3125,"ĠáĬ£áĪŃáĬ¥áĪµáī²":3126,"ĠáĬŃáĪ²":3127,"ĠáĬ£áĪĺáĪįáĬª":3128,"áĬłáīµ":3129,"áĬ¨áī³áī°":3130,"ĠáĬ£áįįáĪįáĮ¦":3131,"ĠáĬķáĪĺáĬķ":3132,"áī»":3133,"áĪĽáĪķ":3134,"ĠáĭħáĪī":3135,"Ġáī¥áĪĺáĪ°áĪ¨áīµ":3136,"ĠáĬ¥áĬ¹áĪį":3137,"ĠáįĸáĪĪáī²áĬ«áĭĬ":3138,"áīķáĮ¢":3139,"áĭ°áĪ«":3140,"áĪĿáĪķ":3141,"23":3142,"áĪĺáĭĿ":3143,"áĭ°áī¥":3144,"ĠáĬŃáĪĬ":3145,"ĠáĪĲ":3146,"ĠáĬķáĮįáĭ²":3147,"áĮĭáĪµ":3148,"ĠáĮįáĭĿ":3149,"ĠáĪĵáĮİáĪµ":3150,"ĠáĪĺáĪªáĪķ":3151,"ĠáĬ£áĭ°áĭŃ":3152,"ĠáĬ©áĪĪáĬķ":3153,"ĠáĮĪáĪĬáĮ¾áĪĿ":3154,"áĬķáĭĽ":3155,"áįįáĪ¨":3156,"ĠáįĪáĪĬ":3157,"ĠáĪĥáĬķáĭ°":3158,"áĪ³áī°áįį":3159,"áīħáĭµáĪļ":3160,"ĠáĪĴáĭĿ":3161,"áĪįáī¢":3162,"áĪªáĬ½":3163,"ĠáĬ®áĪĪ":3164,"áī¥áįį":3165,"ĠáĪ¸áĭį":3166,"Ġáĭ¨áĪ¨áĭµ":3167,"ĠáĪµáĪĪáĭĿáĪŀáī°áīµ":3168,"áī³áĪĿ":3169,"áī¥áĮ»áĪķ":3170,"ĠáĪĿáīģ":3171,"ĠáĬ£áĭĺáĬ»áĬº":3172,"áĪ«áĮ½":3173,"ĠáĭĵáĪĬ":3174,"áī¦áĬķ":3175,"Ġáĭ°áĮĬ":3176,"áĪĭáī¶áĪĿ":3177,"ĠáĬ¥áĬķáĬ¨áĪĪáĭī":3178,"áī£áĬ¤":3179,"ĠáĪļáĭ«áĭĿáĭ«":3180,"ĠáĭĿáī°áĬ£":3181,"Ġáī°áīłáĮĬ":3182,"ĠáĪĽáĭŃáĬķ":3183,"ĠáĬ«áĪķ":3184,"áīĨáĪĿ":3185,"Ġáī¥áĮ¸":3186,"ĠáĭĿáī°áīĲ":3187,"áĬ¥áĭ«":3188,"Ġáī¥áī¥áĭĿáĪĴ":3189,"ĠáĪ½áĪĽáĮį":3190,"ĠáĬķáĪĿáĮį":3191,"áĪĲáīµ":3192,"Ġáī¥áĪĿáĮ¥áīĥáĪµ":3193,"ĠáįĪáĪ¨áĬķáĪ³":3194,"Ġáī°áĮĪáĪĬáĮ¹":3195,"áĬ»áĬ½":3196,"Ġáī°áĭĵáĭĬ":3197,"ĠáĪĪáĬ«áī²áīµ":3198,"Ġáī¥áĬ¡":3199,"ĠáĬ¨áĪĿáĭĿáĬ¾áĬĲ":3200,"áĬ£áĪ°":3201,"ĠáĪ½áĪįáĪĽáīµ":3202,"áįĪáĪ»áĭĬ":3203,"ĠáĭĿáĪĵáĪ¸":3204,"áī¥áĭĺáĭŃáĬ«":3205,"áĭĵáĪŃ":3206,"ĠáĭĿáĮ¥áīĢ":3207,"Ġ2018":3208,"24":3209,"áĪµáī°áĭŃáī²":3210,"ĠáĪ°áĬĵáĭŃ":3211,"áĭŃáĭİ":3212,"ĠáįįáĪįáĪį":3213,"áĪ¨áĮ½":3214,"áīħáĭķ":3215,"ĠáĮ¥áīłáī¥":3216,"ĠáĮ¸áī¥áĮ»áī£áīµ":3217,"ĠáĬķáĮ¸":3218,"áĮłáĪ¨":3219,"ĠáĪĺáĮºáĬ¡":3220,"áĭįáĬĲáīµ":3221,"áĬ©áĪĿáĬķ":3222,"ĠáĬŃáīĲ":3223,"ĠáīµáĪ«":3224,"ĠáĮĪáīłáĪ¨":3225,"Ġáī°áīĲáĭ³áĭ°áĪĿáī²":3226,"ĠáĪ°áĪ«áĪķáī°áĬĽáī³áīµ":3227,"ĠáĬĳ":3228,"ĠáĪ³áĪĿ":3229,"áĬķáīĢáĪ³áīĲáĪµ":3230,"Ġ29":3231,"áĭĲáĬķ":3232,"áĭĮ":3233,"áĪ²áī²":3234,"Ġ/":3235,"áĪįáīĥ":3236,"áĭ³áĭ²":3237,"áĮ£áĬķáĭ«":3238,"28":3239,"ĠáĪĿáĪµáĮĭ":3240,"ĠáĭĢáĭŃáĬĳ":3241,"Ġáī°áīĲáī¢":3242,"ĠáĭĿáĬ¾áĬĲáīµ":3243,"áĪ°áĪĿáĭķ":3244,"ĠáĮĮáĮĭ":3245,"ĠáĬĵáĮ»":3246,"áĮ¦áĪĿ":3247,"áĪĪáĬ«":3248,"áī£áĪ«":3249,"ĠáĪĺáī¥áĪ«áĪħ":3250,"ĠáĪĴáĭĽ":3251,"ĠáĪµáĪĪáĭĿáīłáĪĪáīµ":3252,"áĬ®áĭŃáĬĳ":3253,"áĬºáī¡":3254,"ĠáįĵáĭįáĬķáĭµ":3255,"ĠáĪħáĮ»áĬķ":3256,"ĠáīµáĬ¥áĭĽáĭĿ":3257,"Ġáĭĵáī£áĭŃ":3258,"ĠáĪĺáĪªáĪŃ":3259,"ĠáĮįáī¥áĪ¨":3260,"ĠáĬĲáīłáĪ¨áīµ":3261,"ĠáĪĺáĪŃáīłáī¥":3262,"áĪµáĪĭáĪ´":3263,"ĠáĮłáĬķáīĤ":3264,"ĠáĬ«áĪįáĬ¥áĬķ":3265,"ĠáĬ£áī¥áĪª":3266,"áī¥áī¥":3267,"ĠáĭĿáĭĿ":3268,"Ġ40":3269,"ĠáĪĿáĪĿáĪķáĭ³":3270,"ĠáĬ¤áĪŃáīµ":3271,"ĠáĬ¤áĪŃáīµáĪ«áĬķ":3272,"ĠáĮįáĭ³":3273,"ĠáĮ¸áĭĵáīµ":3274,"áīĥáī¥":3275,"áĮįáĬ£áīµ":3276,"ĠáĬ¨áĪĪáĭī":3277,"áĭĲáīµ":3278,"áī±áĭķ":3279,"Ġáī¥áĪĿáĪķáī£áĪŃ":3280,"ĠáĬķáĬŃ":3281,"áĬ«áĭŃáĭ¶":3282,"ĠáĬ¥áĬĵáīłáĪįáĬĵ":3283,"ĠáĭµáĪŃ":3284,"ĠáĪĵáĪ«":3285,"áīµáĪ«":3286,"ĠáĪĵáĪĬáįī":3287,"áĬĲáĬ½":3288,"ĠáĭĺáĬķ":3289,"Ġáī°áįĪáĪĬáĮ¡":3290,"ĠáĪĿáĬŃáīµ":3291,"ĠáĭĪáĬªáĪį":3292,"Ġáī¥áĪĵáī£áĪŃ":3293,"ĠáĪµáĪĪáĭĿáīłáĪĪ":3294,"Ġáī°áĭĭáĪĤ":3295,"26":3296,"...":3297,"ĠáĪĿáĪįáĬŃáīµ":3298,"ĠáĭĿáĪħ":3299,"ĠáĪĺáĪ¸":3300,"áĪŃáĬł":3301,"áĭ±áĬķ":3302,"ĠáĪ½áĭ±áĪ½áī°":3303,"Ġ2017":3304,"ĠáĬĲáĪĵáĪ°":3305,"áį§":3306,"ĠáĪ±áĭ³áĬķ":3307,"áĮŃáī³áīµ":3308,"ĠáĭĪáĪŃ":3309,"áĮĪáĪįáĮįáĪį":3310,"áīªáĭ¥áĬķ":3311,"ĠáĬ¨áī°áĪĽáī³áīµ":3312,"ĠáĪĺáīĵ":3313,"áĪĿáĬ½áĬķáĭ«áī±":3314,"ĠáĬĲáįĭ":3315,"Ġáĭĺáīĥ":3316,"ĠáĬ£áī¦áĭŃ":3317,"ĠáĪħáĭĿáī¥áĬķ":3318,"Ġáī°áĭĺ":3319,"ĠáĭĪáĪĪáĭ²":3320,"áĪ«áĮº":3321,"Ġáī°áĮĭáĭ°áĪįáī²":3322,"ĠáĬ¨áĪĿáĭĿáĬ½áĬ¥áĪį":3323,"ĠáĭľáĮĭ":3324,"ĠáĪĺáĭĵáĪįáī³áĭĬ":3325,"áĭ°áĪįáĭ©":3326,"áĬĵáĪµ":3327,"ĠáĭĿáĭĢáĬĳ":3328,"áĪĵáĪµáī¥":3329,"Ġáī°áĪŃáĬ¥áĭ®":3330,"ĠáĬ£áĪİáĬĵ":3331,"áĪ°áĭŃáī²":3332,"áī¥áĪĥáĪį":3333,"áĮįáĪ«":3334,"Ġáĭ°áīģ":3335,"ĠáĪĺáĮ»áĪķ":3336,"ĠáĮ¸áĮĭáĭŃ":3337,"áĪİáĪĿáĬķ":3338,"ĠáĪĺáĪĵáĪª":3339,"ĠáĬ¥áĬķáĪµáĪ³áī³áīµ":3340,"27":3341,"ĠáĪĺáĪ«áĪķáī²":3342,"áī°áĪī":3343,"ĠáĬŃáĬ«áĭ¨áĭµ":3344,"ĠáĭĺáĭŃáĬķ":3345,"áĬĸáĪİáĮĤ":3346,"áīµáī³áīµ":3347,"ĠáĪµáī³":3348,"ĠáĭĿáī°áĪ¨":3349,"áĪĳáīµ":3350,"áī¥áĭ©":3351,"ĠáĬķáĭħ":3352,"áĪĵáīµáīµ":3353,"ĠáĪĺáĪŃáĪĺáĪ«":3354,"áĬĲáī³áĭĬ":3355,"Ġáĭĺáīķ":3356,"áĬ¤áĬķ":3357,"Ġáĭ³áĬķ":3358,"ĠáĭĪáĮĪáĬĵáīµ":3359,"ĠáĭĿáĪŃáĬ¨áī£":3360,"ĠáĬªáĬ¸áĭįáĬķ":3361,"ĠáĬ£áĪļ":3362,"ĠáĭĬ":3363,"ĠáĪĿáĬ½áĪª":3364,"áĪįáĭķáĪĬ":3365,"ĠáĭĿáĪµáĭķáī¥":3366,"áĪĵáĪ¨":3367,"ĠáĬ¥áĭĺ":3368,"ĠáĪĭáĭķáĪĪáĭĭáĭŃ":3369,"áĭįáĪķ":3370,"áī£áīĲ":3371,"ĠáĪĺáĬĲáī£áī¥":3372,"áĪĵáīķ":3373,"áĭĵáī¢":3374,"áĬ£áĭ©":3375,"áįĭáĬ¥":3376,"áĭįáĪİ":3377,"áĬ¨áĭŃ":3378,"ĠáīłáĪŃáĪĢ":3379,"áĪĪáĪĺ":3380,"áĭµáĪĺ":3381,"áī¥áĬ¦":3382,"ĠáĬķáĪĿáĪµ":3383,"ĠáĬŃáĭ³":3384,"ĠáĬ¢áĭ±":3385,"ĠáĭĿáīłáĪĪáĮ¸":3386,"áĪ³áī°áįįáī²":3387,"ĠáīĢáĪĬáĪį":3388,"ĠáĬ¨áįĬ":3389,"áĪµáĪŃáĭĵáīµ":3390,"áįįáĬ«":3391,"ĠáĪ³áĭĭ":3392,"ĠáĬ£áī°áĪĵáĪ³áĪµáī£":3393,"ĠáĭĵáĪļ":3394,"ĠáĪªáĭ«áĪį":3395,"ĠáĭĿáĮįáĪĪáĮ½":3396,"ĠáĭĿáĪ°áĪŃ":3397,"áĪĭáĭµ":3398,"Ġáī¤áī±":3399,"ĠáĪĽáĭķáĬ¨":3400,"áĬ®áĪŃ":3401,"ĠáĬ¥áĭĺáĬķ":3402,"ĠáĬ¨áĪĿáĭĺáĪĪáĭī":3403,"ĠáĬŃáįī":3404,"áīłáĪİ":3405,"áĭĶ":3406,"Ġ100":3407,"ĠáĭįáĪŃ":3408,"áĬĲáĮ½":3409,"áī¥áĮ½":3410,"ĠáĪľáīµáĪ®":3411,"ĠáĭĿáĬ¸áĭŃáĭµ":3412,"ĠáĪµáĪĿáĪĿáĭķ":3413,"áĭįáĪį":3414,"áįįáĪįáĮł":3415,"ĠáĭĵáīĲáĬķ":3416,"áĭµáīķ":3417,"áī¥áĪĬáĬŃ":3418,"ĠáĮ¸áīķáĮ¢":3419,"Ġáī¥áĭĪáĮĪáĬĳ":3420,"ĠáĬ¥áĬķáī°áĭĺáĭŃáīĢ":3421,"Ġáī°áīĵáĭį":3422,"áĬ¥áĪŀ":3423,"ĠáĬŃáĬ¢áĪī":3424,"Ġáī¥áĪĿáĭķ":3425,"ĠáĬŃáĮ¥áīĢ":3426,"ĠáĭĿáī°áĪĺáĭĿáĮĪáīł":3427,"ĠáĪ°áĪľáĬķ":3428,"ĠáĬ£áĮ½áĭĭ":3429,"áĪªáĬĸ":3430,"ĠáįĪáī°áĬĲ":3431,"ĠáĪµáī¥":3432,"áĬ¨áĪĿáĬ¡":3433,"ĠáĪķáĮ½":3434,"áĪ¶áīµ":3435,"ĠáĬ£áĭĽ":3436,"ĠáĮįáī¥áĮº":3437,"ĠáĮīáī£áĬ¤":3438,"áĪŃáīłáīµ":3439,"ĠáĬŃáĬķáĭµ":3440,"áĮ£áĪŃ":3441,"ĠáĭĿáĭ°áĪĬ":3442,"Ġáĭ°áĮĪáįį":3443,"ĠáĪĿáĬĵáĪįáī£áīµ":3444,"áĮĢáĪŃ":3445,"ĠáĬĲáī°áĬķ":3446,"ĠáĭµáĬ»":3447,"áĬ£áĪĺ":3448,"áĭĪáĬ¨áįį":3449,"ĠáĪĥáī¥áī²":3450,"áĬ¨áĪĿáī²":3451,"ĠáīħáĭµáĪĿ":3452,"ĠáĬ¢áĭ®áĪĿ":3453,"ĠáĮįáĪŃáĪĽáĭŃ":3454,"áĬªáĬ¤áĪį":3455,"ĠáīłáĪī":3456,"áĬ½áī³":3457,"Ġáī£áĪħáĪĭáĭĬ":3458,"ĠáĭĿáĪĺáĪŃ":3459,"ĠáĪĪáīł":3460,"ĠáĪĤáī¡":3461,"áĪĺáĮ¥":3462,"ĠáĬ£áīµáĪĪáī²":3463,"ĠáĪŃáĪĳ":3464,"ĠáĮ³":3465,"ĠáīĢáĭ³áĪŀáīµ":3466,"Ġáįįáīĵáĭµ":3467,"áī¥áĭķ":3468,"áĪĿáĪį":3469,"áĮ»áĭķ":3470,"áĪĭáĪļ":3471,"áīłáĪ³":3472,"áīłáĪ¨áĪī":3473,"ĠáĭĿáī°áĬ¸":3474,"ĠáĪĺáĭ³áĭŃ":3475,"áĭĵáĪī":3476,"áĭĽáĪ¨":3477,"ĠáĬĵáī¥áī³":3478,"ĠáĬ£áīµáĭ©":3479,"ĠáīĢáĪª":3480,"ĠáĪĵáįį":3481,"ĠáĪĿáĪķáĪ¨áīµ":3482,"ĠáĬ£áĪĽáĪ«áĮº":3483,"áĭµáĬ£":3484,"áĭĪáĪĪ":3485,"ĠáĬķáįĪ":3486,"áĬ¥áĬķáī°áĬ¾áĬĲ":3487,"ĠáĭĵáĪĪáĪĿáĬĵ":3488,"ĠáĪķáī¥áĪª":3489,"áĪĽáīķ":3490,"Ġáī£áĭŃáī¶":3491,"ĠáĪĺáĬ«áĭŃáĬķ":3492,"ĠáĬķáĬĲáī¥":3493,"áĬŃáĪ²":3494,"áīłáĪŃáĬ©áĪĿ":3495,"áĭ¨áĬĵ":3496,"Ġáī¥áĪ«áĭļ":3497,"áĪĿáī¥":3498,"Ġáĭĺáĭķ":3499,"ĠáĪĵáĬķáĪ³áī¥":3500,"ĠáĬķáĬ»áĪį":3501,"ĠáĪįáĭ³áīµ":3502,"ĠáĭĿáĬ£áĬŃáĪį":3503,"ĠáīħáĪŃáĮº":3504,"ĠáĭĿáĬ£áĪĺáĪ°áĪĪ":3505,"ĠáĭĿáĪĺáĪµáĪį":3506,"áĬ¨áĪ²":3507,"ĠáĭķáĪĭáĪį":3508,"Ġ197":3509,"áĪŃáĭķ":3510,"Ġáī¥áīģ":3511,"ĠáĪ¨áĬ¸":3512,"áĪľáī°áĪŃ":3513,"ĠáĪ°áīł":3514,"ĠáĭķáĪĪ":3515,"áĭĪáĪŃ":3516,"áĮ¸áĪ¨":3517,"áī¥áīķ":3518,"ĠáĪĬáī¨áĪŃáįĳáĪį":3519,"áĪ³áĭŃáĭ«áĪµ":3520,"ĠáĪĻáĭļáīĥ":3521,"ĠáĮĭáĪ½":3522,"áī¬":3523,"ĠáĭŃáĬĲ":3524,"Ġáī°áĭĪáĭ³":3525,"ĠáĭĵáĪĺáī³áĭĬ":3526,"ĠáĬ£áĪĺáĬĵ":3527,"ĠáĭĪáĪª":3528,"áĬŃáĪįáī°":3529,"áĮįáĪ¶":3530,"ĠáįĪáĭ°áĪ¨áĪ½áĬķ":3531,"áĪ³áĪĮáĪĿ":3532,"ĠáĬŃáī¥áĪī":3533,"ĠáĬŃáĪ³":3534,"ĠáĭĿáĭĪáĪ°":3535,"ĠáĬ£áĪŃáĬ£áĭ«":3536,"ĠáĬŃáĬ¢áĪĭ":3537,"29":3538,"áĮ¸áĬķáĪķ":3539,"ĠáĮ¸áĪ¨":3540,"Ġáī¥áĪªáĮ£áĬķáĭ«":3541,"ĠáĬ¥áīµáĪŃáĬ¨áī¥":3542,"ĠáĬ£áĮĪáĪįáĮįáĪİ":3543,"ĠáĬ´":3544,"áī°áĪį":3545,"ĠáĪĺáĭķ":3546,"áĭįáī³":3547,"áĪĵáĪĪáįĪ":3548,"áĬ¥áĮįáĭļáĬ£áī¥áĪĦáĪŃ":3549,"áĪĬáĪĿ":3550,"áīĢáĬĽ":3551,"ĠáĬĲáįįáĪįáĮ¥":3552,"ĠáĬ£áīĳ":3553,"ĠáĬŃáĬ¸":3554,"ĠáĪĿáĪŃáĬ¢áīµ":3555,"ĠáĭĺáĪ°":3556,"ĠáĪĺáĮ½áĬĵáĭķ":3557,"ĠáĬŃáĪħáĪī":3558,"ĠáĭŃáĭķ":3559,"ĠáĮłáĪĪ":3560,"áĪļáĪ©":3561,"áĪ°áī£áīµ":3562,"áĬĲáĭ¨":3563,"ĠáĮĤ":3564,"áĪ°áĭį":3565,"áīłáī²":3566,"ĠáĪµáĭī":3567,"ĠáīłáĪ¨áĬ¸":3568,"áĭĿáĮĪáī¥":3569,"ĠáĪŃáĪķ":3570,"áĮ¢áĪ©":3571,"ĠáĭĪáĪį":3572,"ĠáĭĵáĬķáĪ°áī£":3573,"ĠáīµáĪķáī°":3574,"Ġáĭ²áĬ»":3575,"áĮĪáī¥":3576,"áįĪáĪĭáĪĪáĭ©":3577,"áĭ³áĪĪáĭĪ":3578,"Ġáī¥áĭĿáī¥áĪį":3579,"ĠáĪķáī¥áĪ¨áīµ":3580,"áĭ°áĮĭáĮĭáĪļ":3581,"áĪµáī²áĭ«áĬķ":3582,"áĪ½áī±":3583,"áĮ½áĭĭáĭķ":3584,"Ġáīłáī³":3585,"áĭ°áĭµ":3586,"áĭ°áĪĭ":3587,"áĭµáĪ®":3588,"áĬ¨áĪĺáĭŃ":3589,"Ġ198":3590,"áĬķáĭ±":3591,"ĠáĪĵáįĪáĪ»áĭĬ":3592,"ĠáĪĺáĭ³":3593,"ĠáĪ¸áĭįáĭĵáī°":3594,"ĠáĮĪáīłáĬķ":3595,"áī£áĪħáĪĪ":3596,"ĠáīµáĪŃáĮīáĪĿ":3597,"ĠáĪŃáĬ¥áĪ¶áĪĿ":3598,"áĬ¥áĭĿ":3599,"ĠáĬŃáīķáĮ½áĪį":3600,"ĠáĭķáĮ¡áīĵáīµ":3601,"ĠáĪķáĪ°áĪĿ":3602,"ĠáĬŃáī°":3603,"ĠáĬŃáī¥áĪ¨":3604,"ĠáĬŃáī¡áĪŃ":3605,"ĠáĪĺáĪĿáĪħ":3606,"áĬ«áĪŃ":3607,"ĠáĭĺáĭŃáĪķ":3608,"áī¥áī£áĪŃ":3609,"áī¥áĪ«áĪĤ":3610,"ĠáĭµáĪĴ":3611,"Ġáĭ³áĭŃ":3612,"ĠáĬ£áīĵ":3613,"Ġáĭįáĭ³":3614,"Ġáī°áī£áĭķáīµáĭ®":3615,"áįĭáĪŃ":3616,"Ġáī°áĪ°áĪª":3617,"ĠáĬŃáĬ½":3618,"áĮ½áĭ®áĬķ":3619,"ĠáĭĿáĮĪáī¥áĪŃ":3620,"Ġáī¥áī°áĪĺ":3621,"ĠáĭĪáĭ°":3622,"Ġáĭ°áĪĥáĭŃ":3623,"ĠáĪĿáĮ½áĬķ":3624,"áīķáī³":3625,"ĠáĭĺáĪİáĬĵ":3626,"ĠáĬķáĭķáĬ¡":3627,"Ġáī¥áīĲáĮ¥áī³":3628,"ĠáĪĻáĪ´":3629,"ĠáĪĿáĪµáĮįáĮĭ":3630,"ĠáĪĺáĬĲáī£áī¥áĪ®":3631,"áĪŃáĪĿ":3632,"áĪ«áĭįáĭ«áĬķ":3633,"ĠáīłáĪĭ":3634,"Ġáĭ¨áī¥áĪį":3635,"ĠáĪĺáĬ¸":3636,"ĠáĭĵáĭĪ":3637,"ĠáĭĿáĪĥáī¥":3638,"áĪĺáĮ½":3639,"áĭĴáĪī":3640,"ĠáĭĪáĪ«áĪ²":3641,"áī¥áįįáĪĭáĭŃ":3642,"Ġáĭĳáīķáī£":3643,"áĬ¤áĪįáĬķ":3644,"áī¥áĪĪáĬĴ":3645,"Ġáĭ³áĮįáĪĽáĭŃ":3646,"áĪŀáĬķáī°":3647,"áĪĭáĪĭ":3648,"áĬ£áĭŃáĬķ":3649,"ĠáĭĿáĮ½":3650,"ĠáĬķáĮįáĪĨ":3651,"ĠáĭķáĪĽáĪĿ":3652,"áĭķáī£áĪį":3653,"áĬĴáĬŃ":3654,"ĠáĬ£áĪī":3655,"áĪ«áīķ":3656,"áĬ¥áĬ«":3657,"áĭĽáĭĺ":3658,"áĪ´áįį":3659,"ĠáĬ£áĭļ":3660,"Ġáĭ°áĪĵáĬķ":3661,"ĠáĭĺáĭŃáĬĲ":3662,"ĠáĬķáĪĿáĭµ":3663,"áĪĿáĪįáĬ¨áīµ":3664,"ĠáĪĺáĮ»áĪķáįįáī²":3665,"Ġáī¥áĪĿáĬķáī£áĪ©":3666,"áĪĬáįī":3667,"ĠáĬ«áī¥áī³":3668,"áĪįáĮ¡áįį":3669,"áĬ¾áĪĿ":3670,"ĠáĬ£áĮįáĪ«áī¥":3671,"áĬ¸áīµ":3672,"ĠáĬ£áī¥áĭĽ":3673,"ĠáĮĢáĪĺ":3674,")áį¡":3675,"ĠáĬ¥áĬĵáĮĪáĪĪ":3676,"áīĵáĭŃáīķ":3677,"áĪ©áĬ½":3678,"Ġáĭ©áĬĴ":3679,"áĪĪáĭ¨":3680,"ĠáīħáĬĳáĭķ":3681,"Ġáī¥áĪŃáĬŃáīµ":3682,"áĪĭáĪ½":3683,"áĪ³áĪį":3684,"Ġáī¥áĪĿáĭµ":3685,"ĠáĪĵáĭ°áĪµáī²":3686,"áĪµáī³áĬķ":3687,"ĠáĭįáĪ½áĮ£áĭĬ":3688,"ĠáĭŃáĪĺ":3689,"áĬ©áĪ®":3690,"ĠáĮĪáĭŃáĪ®áĪĿ":3691,"ĠáĬ£áī¡":3692,"áĪ¨áĪī":3693,"ĠáĬŃáīłáĪĥáĪį":3694,"Ġáĭ¶áĬŃáī°áĪŃ":3695,"áĬĵáįį":3696,"ĠáĬ£áĬ¥áĭ³":3697,"ĠáĮĪáĭĽáĬĵ":3698,"ĠáĬ¾":3699,"ĠáĪĺáī°":3700,"áĭĵáĬĵ":3701,"ĠáĭĿáī°áĪ°áĪŃ":3702,"áĬ£áī¦":3703,"ĠáĪĿáĬķáĮŃáī³áīµ":3704,"áĬ¥áĭĪ":3705,"áįĪáĪįáĮł":3706,"áĬ¢áĪī":3707,"áĬ£áĬĴ":3708,"Ġáī°áīĸ":3709,"áĭĪáĮ½áĬ¥":3710,"ĠáĬ£áĭŃáĬ¨áĬ£áĪĪáĬķ":3711,"ĠáĬŃáĪ¨":3712,"ĠáĬ®áĪŃáĭ«":3713,"áī°áĪĿ":3714,"áĪĺáĪĿ":3715,"ĠáĪĵáĮ¢":3716,"Ġáī°áĪ«áĬ¥áĭ©":3717,"áĬ»áīµáĬ©áĪĿ":3718,"ĠáīģáĮłáī£áĭĬ":3719,"áĪģáĭµ":3720,"áĬ£áĬĵ":3721,"ĠáĪĵáĪŃáĬĲáīµ":3722,"ĠáĪ¨áīĽ":3723,"ĠáĬŃáīµáĭķ":3724,"ĠáĭĿáĬĲáī¥áĪ©":3725,"ĠáĬ¥áĪĿáī£":3726,"áĮĪáīłáĪ¨":3727,"ĠáĬ¤áĪŃáīµáĪ«áĭĬ":3728,"ĠáĬ¢áĪ³áĭŃáĭ«áĪµ":3729,"áĪĿáĪĭáĬ½":3730,"áīĭáĪŃ":3731,"áĭĿáĮĬáī¡":3732,"ĠáĬ£áĪĪáĬ»":3733,"áĪĺáĪĵáĪĭáĪį":3734,"ĠáĭĪáĪŃáīĤ":3735,"áĬĵáĭ³":3736,"ĠáĬŃáī³":3737,"áĪĵáĪį":3738,"áĭĭáĭķ":3739,"áįīáĬķ":3740,"ĠáĮ¸áĭĬ":3741,"ĠáĪĥáĪĽ":3742,"áĪµáĮĵ":3743,"ĠáĭĿáĪĿáĪįáĬ¨áī¶":3744,"ĠáĬ¥áĬķáīĭ":3745,"Ġáī¥áĪŃáī±áĭķ":3746,"ĠáĬ£áįįáĪĬáĮ¡":3747,"Ġáī¥áĪĿáĪį":3748,"Ġáī£áĮ½áĭķ":3749,"ĠáĮĬáĭľ":3750,"ĠáĪľáĪĭ":3751,"ĠáĬ¨áĭį":3752,"ĠáĪ°áĪŃ":3753,"áĭįáĬķáĬķ":3754,"ĠáĬŃáįĪ":3755,"ĠáĬ°áĭŃáĬĸáĪĿ":3756,"áĬĵáĮ½":3757,"áĭĵáĬĴ":3758,"ĠáĭĢáĬĲ":3759,"áĭĪáĪį":3760,"áĮįáĪª":3761,"áĪŃáĮįáĮĭ":3762,"ĠáĬŃáĭĪáĪµ":3763,"áī¥áĪĪáĬ«":3764,"ĠáĪĺáĪ°áĪ¨áī³áĭĬ":3765,"ĠáĬ¡":3766,"áī£áĪª":3767,"áĬ¸áī¢":3768,"ĠáĭĿáīłáĮ½":3769,"áĭĵáī¥":3770,"ĠáĪ°áĪ¨":3771,"áĬ½áĬ¥áĪįáĬķ":3772,"áĮ¸áĬĵáĬĵáĭķ":3773,"ĠáĭµáīĥáĪµ":3774,"Ġáī°áĮĵ":3775,"ĠáĬ£áĭµáĪ«":3776,"áĭ©áĪĿ":3777,"áĬķáīµ":3778,"ĠáĮĭáĬķáī³áĬ¡":3779,"áī¶áī¡":3780,"ĠáįįáĪįáĪµ":3781,"ĠáĪµáĭµáĪ«áī¤":3782,"áĮģ":3783,"áĪµáīµáĪ«":3784,"ĠáĭŃáĮĪáī¥áĪŃ":3785,"ĠáĬķáĬķ":3786,"áĭĪáĪ¨":3787,"áĬŃáĭ«áĭµ":3788,"ĠáĬ£áīµáĪĴáĭĻ":3789,"áīĥáĪį":3790,"áĭ¨áĬ«":3791,"ĠáĪĿáĪµáĮĭáĬĵ":3792,"áĭįáĬķáī²":3793,"ĠáīłáĪİáĪĿ":3794,"áĪįáĭį":3795,"Ġáī¥áĭĵáĪį":3796,"ĠáĬ¨áĪĭ":3797,"ĠáĪµáĪŃáĪĵáīµ":3798,"ĠáĭĿáĮįáī£áĬ¥":3799,"áĮĪáĭ³":3800,"áĬłáī¥":3801,"ĠáĪµáĪŃáĭĵáī°":3802,"Ġáī£áĪħáĪŃáĭ«áĭĬ":3803,"ĠáĪ¨áīĽáĪĴ":3804,"áī¤áĪį":3805,"áĬ¥áĭŀáĪĿ":3806,"áĪĵáīµáĬķ":3807,"áĬĵáĪķ":3808,"ĠáĬ°áĭŃáĬĵ":3809,"ĠáĬĲáįĭáĪªáīµ":3810,"áĪµáĭķáī¡":3811,"áĭĽáĬ¥áī²":3812,"áĪŃáĭ³":3813,"ĠáįĪáĪŃ":3814,"ĠáįĸáĪĬ":3815,"ĠáĬĶáĪ©":3816,"ĠáĪ»áĪĿáįķáĭ®áĬķáĪµ":3817,"áĮİáĪį":3818,"ĠáĬŃáĬ¥áĪĪáīµ":3819,"ĠáĬµáĪİáĪĿ":3820,"ĠáīĢáĭ³áĪĺáĭŃáī²":3821,"ĠáįĲ":3822,"áĬ¨áĪĿáĭļ":3823,"ĠáĪĺáĪĿáĪŃáĪĴ":3824,"áĪ¨áĮĭáĮįáĮ½":3825,"ĠáĪĺáī£":3826,"Ġáī¥áī°áĭ°áĮĭáĮĭáĪļ":3827,"ĠáĬŃáĬ¸áĭŃáĭµ":3828,"áĬĲáĪī":3829,"áĪŃáĬ¥áĭ©":3830,"ĠáĬ¢áī¥áĪ«áĪĤ":3831,"ĠáĮįáĭ°":3832,"áĪŃáĮĭáĪķ":3833,"Ġáĭ°áīĵáĭŃáīķ":3834,"Ġáī°áīĵáĭįáĪŀ":3835,"Ġáĭĺáįį":3836,"áĬķáĮ¸áī£áĪŃ":3837,"ĠáĭĿáĬ½áĪª":3838,"áĬ¥áĪĿáĪ®":3839,"ĠáĭĪáĭŃáĪµ":3840,"áĪįáĭ«áĬķ":3841,"áĭİáĪµ":3842,"Ġ.\"":3843,"áĪĵáĭŃáĪ½":3844,"ĠáĬ£áī£áĭŃáī²":3845,"áī¡áĪį":3846,"ĠáĬ£áĭĿáĭ®áĪĿ":3847,"ĠáĭĺáĪİáĭİ":3848,"ĠáĬªáĭ³áĬķ":3849,"ĠáĭĺáĮ¸áĬĵáĬĵáĭķ":3850,"ĠáĬ¥áĬķáĪĨ":3851,"Ġáī´áĬŃáĬĸáĪİáĮĤ":3852,"áĪĪáīµáĬķ":3853,"áĪªáĪµ":3854,"áĭĪáĪŃáīĤ":3855,"ĠáĮĪáĪ¨áī¥":3856,"áĮĭáĮ¥":3857,"ĠáĬ£áĭŃáīµáĪŃáĬ¨áī¡":3858,"áĭ«áĪŃ":3859,"áĬķáĬ£áī¥áĬĲáīµ":3860,"áĭ¨áĬĴ":3861,"áĪĺáĭµáĪħáĬķ":3862,"ĠáĭĿáĮĢáĪĺáĪ¨":3863,"ĠáĪ¶áĪŃáĭ«":3864,"ĠáĮ½áĮĪ":3865,"ĠáīĢáĭ°áĪĿ":3866,"ĠáĪĭáĭķáĪĬ":3867,"ĠáĬ£áĪĺáĪįáĬªáī±":3868,"áĬªáĪĿ":3869,"ĠáĮ»áĭķáĭ³":3870,"áĭµáĬĴ":3871,"Ġáĭ¨áĪĺáĪįáĬŃ":3872,"áĭ«áĭŃ":3873,"áĪŃáĪĽ":3874,"ĠáĮ½áĪĳáįĭáīµ":3875,"ĠáĬķáĬĵáĭŃ":3876,"Ġáī¥áĪĿáįį":3877,"ĠáĪľáī°áĪŃ":3878,"áįķáĪ¨áĭļáĭ°áĬķáīµ":3879,"áĪªáĬĵ":3880,"áĪħáĪįáĭİ":3881,"áĮĪáĪįáĮ¸":3882,"ĠáīłáĮºáĪĳ":3883,"ĠáĭĪáĮį":3884,"ĠáĪ³áĪĭ":3885,"áĭ«áī³áīµ":3886,"áī°áĭŃáĬķ":3887,"ĠáĮīáĭ³":3888,"Ġáī¥áĬ¢":3889,"ĠáĪĵáĪĪáįįáī²":3890,"ĠáĬ¤áįį":3891,"ĠáĪµáĪĻ":3892,"áĬ¥áĪĪ":3893,"ĠáĪµáĬ¢":3894,"áīħáĪį":3895,"áĭĪáĪĥ":3896,"áĬĵáĪįáĭ¶":3897,"áĮ»áĭķáī²":3898,"Ġáĭ±":3899,"áĭŃáĪĬ":3900,"áĭĽáĭŃ":3901,"ĠáĬ£áīĵáĪįáī¦":3902,"ĠáĬ«áī£":3903,"áī¥áĭĻáĪķ":3904,"áĬĲáī¥":3905,"áī¢áī¥":3906,"ĠáĪĺáĭĪáĬ¨áĪ²":3907,"ĠáĭĺáĭµáĪĬ":3908,"áĬ»áĭĬ":3909,"ĠáĮĪáĮ»áīµ":3910,"áīµáĪĿ":3911,"ĠáĪĺáĪĺ":3912,"ĠáĭŃáĮ½":3913,"ĠáĭĿáĪĺáĪį":3914,"áī¥áĪĿ":3915,"ĠáĬ¹":3916,"áĪ©áĭķ":3917,"áĪ½áĪĵáīµ":3918,"áĪ°áī¥áĬķ":3919,"áĪĪáĭİáĪĿ":3920,"ĠáĮ¸áī£":3921,"ĠáĭŃáįĪ":3922,"ĠáįįáĪŃáĭ«áīµ":3923,"ĠáīĥáĬķáĭĽ":3924,"áĪµáĪįáĮ£áĬķ":3925,"ĠáĪĥáĮĪáĪŃáĬķ":3926,"ĠáĪĿáĭµáĪĭ":3927,"ĠáįķáĪ®áĮĢ":3928,"ĠáĭĿáīķáĮ½áĪį":3929,"ĠáĪĿáĭķáĪ«áī¥":3930,"ĠáĬĲáĭŀáĪĿ":3931,"ĠáĬ¨áĪĪáĬ¹":3932,"áĪĵáĬķáī²":3933,"ĠáĪµáĭµáĪ«áī¤áīµ":3934,"ĠáĪĺáĬķáĭ°áįĪáĪ«":3935,"Ġáī¥áĪĿáĬ½":3936,"áĭķáī¥":3937,"ĠáĪŃáĮį":3938,"ĠáĪ°áīłáĭŃ":3939,"áĮ»áĪĿ":3940,"áĪĵáĪĪ":3941,"ĠáĭĪáĭ°áĭŃ":3942,"ĠáĭŃáĭį":3943,"áĪ©áĪ³áĪĮáĪĿ":3944,"ĠáĪŀáī£":3945,"ĠáĬŃáįĭ":3946,"ĠáįįáĪįáĪįáĭŃ":3947,"áĪĥáĪ«áĭŃ":3948,"ĠáĪĥáĭĭ":3949,"ĠáĪĴáĭ°áīµ":3950,"ĠáĭĿáĪĺáĮ¸":3951,"ĠáĮĪáĬķáĭĺ":3952,"Ġáĭ°áī¥áĭ³áīł":3953,"ĠáĬ¥áīµáī¥áĪį":3954,"ĠáĮĢáĬĲ":3955,"ĠáĪĺáĬķáĮįáĪµáīµáĬķ":3956,"áĪĵáĬĵ":3957,"ĠáĬĵáī¥áĪ«":3958,"ĠáĮĪáĭŃáĪ¨":3959,"áĬķáĪ³áī¶áĪĿ":3960,"ĠáīłáĪĬ":3961,"45":3962,"áĪ¨áī±":3963,"áĪīáįį":3964,"ĠáĬĵáī¥áĬ¡":3965,"ĠáĪ©áī£":3966,"Ġáĭ©áĬĴáī¨áĪŃ":3967,"áĪµáĪµ":3968,"áĪĪáĬķáĬķ":3969,"Ġáī°áĪµ":3970,"ĠáĬŃáīµáĪķ":3971,"Ġáĭ°áĪŃáįĬ":3972,"ĠáĭįáĪįáīĢ":3973,"áī¥áĭĵ":3974,"ĠáĬķáĭ¨áĪĨáĭĭ":3975,"Ġáī¥áĪĿáĭĿ":3976,"Ġáī¥áī°áĪĺáĪ³áĪ³áĪĬ":3977,"ĠáĭĿáĮłáīĲ":3978,"Ġáĭ°áĪį":3979,"ĠáįĪáī²":3980,"ĠáĪħáĮį":3981,"ĠáĬ£áĭĺáĬ»áĬºáĪ©":3982,"ĠáĪĿáĮħ":3983,"ĠáĭĪáĮ»áĬ¥áĬķ":3984,"ĠáĪ°áĭŃ":3985,"ĠáĬ¥áĬķáī°áĭĢ":3986,"áĮ¸áĪ«":3987,"ĠáĬ¥áĬĵáīłáĪī":3988,"40":3989,"ĠáĭĿáīĲáĪ¨áīł":3990,"áĬ«áĪįáĬ¥":3991,"áĭĪáĪµáĭµ":3992,"áįĭáįį":3993,"ĠáĪĿáĬķáī³áĭŃ":3994,"ĠáĭĿáĮ¸áĬķáĪĳ":3995,"ĠáĪĿáĪµáī³":3996,"ĠáĬ£áĭŃáĪĿ":3997,"ĠáĪ°áī¥áĬ£áĭĬ":3998,"ĠáĬ¼":3999,"ĠáĭŃáī¥áĪī":4000,"áĬŃáī°":4001,"ĠáĬ£áĪĪáĬ«":4002,"áĬ¦áīµáĬķ":4003,"ĠáĭĪáī°áĪĥáĭ°áĪ«áīµ":4004,"ĠáĬ¥áĬĵáĪ°":4005,"áĪŃáĪ²":4006,"ĠáįĪáĪµáī²áī«áĪį":4007,"Ġáī¥áĪĿáĮįáĪĭáĮ½":4008,"ĠáĪĥáĮĪáĪ©":4009,"ĠáīłáĪ¨áĬ¸áīµ":4010,"Ġáī¥áĬ¸áĪĿ":4011,"áĪĿáĪĵáĪ¨":4012,"Ġáĭķáī¥áĭ¨áīµ":4013,"ĠáĭĿáĪ¨":4014,"ĠáĬ¨áĪĿáĬ¥áīµ":4015,"Ġáī¥áĪĿáĬ»áĭµ":4016,"áī³áī²":4017,"áī®":4018,"ĠáĬķáĮĪáĭĽáĬ¥":4019,"ĠáĭŃáĬ½":4020,"Ġáĭļáī¥áĪį":4021,"áĮ¼":4022,"áĪ³áī°áįī":4023,"áĪ°áĪĿáĭĸ":4024,"ĠáĭĪáĪ²áĬ¹":4025,"ĠáĬĵáī±":4026,"ĠáĬ£áĭ°áĬĵ":4027,"ĠáĬ®áĪĪáĮħ":4028,"áī£áĪ¨":4029,"ĠáĪĽáĪķáīłáĪ¨":4030,"ĠáĬķáĭµ":4031,"Ġ2019":4032,"ĠáĬ£áī¥áĪªáĪģ":4033,"Ġáĭ°áĪµ":4034,"ĠáĬ£áīĢ":4035,"ĠáįĪáĮºáĪĻ":4036,"ĠáĪĿáĮ¥áīĥ":4037,"ĠáĪ½áĪĽáĮįáĪĪ":4038,"áĮ¥áĭķ":4039,"ĠáĪŃáĬŃ":4040,"ĠáĬ£áĮ¥áīĥ":4041,"áīłáīµáĬķ":4042,"áīłáĬ«":4043,"ĠáīħáĭµáĭµáĪĿ":4044,"Ġáī¥áĪĿáĬ¥áī³áĭį":4045,"áĪĭáīµáĬĵ":4046,"ĠáĬ¥áĬķáī°áĬ¾áĭŃáĬĳ":4047,"ĠáīłáĮĥ":4048,"ĠáĪĵáĪĺáĭµ":4049,"ĠáĪĺáĪĽáĪħ":4050,"ĠáĪĺáĪŃáĪĥ":4051,"ĠáĬ£áīĥ":4052,"ĠáĬ£áĭįáī¶áī¡":4053,"ĠáĬ£áī³áĭĬ":4054,"Ġáī£áĪķ":4055,"áĬ£áĬ«":4056,"ĠáĭĿáīłáĭĿáĪĲ":4057,"Ġáĭ°áī¡áī£áĭĬ":4058,"áĬķáĪĿ":4059,"áĪµáĪĽáĬķ":4060,"áĪŃáĬĴ":4061,"ĠáīµáĪŃáĬ¨áī¥":4062,"ĠáįĮ":4063,"ĠáįįáĪ«áĬķ":4064,"áĪĿáĪħáĪ®":4065,"ĠáĭĿáĮĪáīłáĪ®":4066,"ĠáĭįáĪ½áĮ¥áĬķ":4067,"ĠáĬķáĮ¹áĪŃ":4068,"ĠáĭĿáĭĪáĪµ":4069,"áĬ¾áī¥":4070,"ĠáĭŃáĪģ":4071,"áĭĭáĪĿ":4072,"ĠáĭĪáĪ³":4073,"ĠáĮ½áī£áīĲ":4074,"ĠáĬ£áĪĪáĬĴ":4075,"áĬķáĭ«áĪĿ":4076,"Ġáī¥áĪĿáĪŃ":4077,"áįĪáĪī":4078,"áĭ°áĪ°":4079,"ĠáĪįáīłáĭŃ":4080,"Ġáī°áĪĺáĪį":4081,"áĭ°áĭ°":4082,"áĭķáĪĭ":4083,"ĠáĬŃáĭ³áĬķ":4084,"áĬ®áīµ":4085,"ĠáĪĿáĪĥáī¥":4086,"ĠáĪĵáĭ«áĪĪ":4087,"ĠáĭįáĪħ":4088,"áīĨáī¥":4089,"Ġáī°áīłáĮįáĪ¶":4090,"ĠáĬŃáĪ°áĪŃáĪķ":4091,"ĠáĭįáĪķáĪµ":4092,"áĪ´áĪİáĬĵ":4093,"áĪĺáĭĸ":4094,"ĠáĪĳ":4095,"áĭįáĪİáĪµ":4096,"Ġ45":4097,"ĠáĬ£áī³":4098,"ĠáĮĪáĭļ":4099,"ĠáĪ²áīª":4100,"ĠáĬ¥áĬĵáĬ£":4101,"ĠáĭĿáĬĵáī¥":4102,"áĭįáĭĵ":4103,"Ġáĭķáĭīáīµ":4104,"áĮĭáĪŃ":4105,"ĠáĪļáĬ«":4106,"ĠáĬķáĪĿáĪŃáĬ«áī¥":4107,"ĠáĬ£áĮ¥":4108,"ĠáĪ°áĪįáįĬ":4109,"áĬ®áĬķ":4110,"áĬ£áĭ®":4111,"áįķáĪİ":4112,"ĠáĮĥáįĵ":4113,"ĠáĭįáĪĳáĭ³áīµ":4114,"ĠáĪ°áĪĪáĪĻáĬķ":4115,"ĠáĪĿáĪµáĮįáĮĭáĪŃ":4116,"Ġáįįáī³áĪķ":4117,"áĭŃáĪ¨áĪµ":4118,"Ġáĭĺáī¥":4119,"ĠáĮ¥áĪ«áĪķ":4120,"áĮłáĪŀ":4121,"ĠáĪįáī¥":4122,"ĠáĪĺáĬł":4123,"ĠáĪĵáĭ°áĮĪ":4124,"Ġáĭ¨áĭµáĪĬ":4125,"ĠáĭķáĪĭ":4126,"ĠáĬ£áī¦áĬĵ":4127,"ĠáĪĺáĪįáĬŃáĭķ":4128,"ĠáĬ£áĮ½":4129,"áĮĪáĪĭ":4130,"ĠáīłáĪ¨áĬ»":4131,"áĬ½áĬķáĭ«áīµ":4132,"ĠáĭĺáĭŃáĬŃáĬ¥áĪį":4133,"ĠáĬŃáĭĿ":4134,"ĠáĬ¥áĬķáĭµ":4135,"ĠáĬ£áĭŃáįĪáĪįáĮ¥áĬķ":4136,"áīħáĪŃ":4137,"Ġáĭ°áĪŀ":4138,"ĠáĬ¸áĭŃ":4139,"ĠáĬķáĬĲáĭĬáĪķ":4140,"áĭŃáĬĲáĬķ":4141,"áīłáĭŃáĬĳ":4142,"Ġáī°áĮįáī£áĪ«áīµ":4143,"ĠáĬķáĪĵáĭµáĪķ":4144,"áįĭáĪ½":4145,"áįĭáĭķ":4146,"áĪĭáĭįáĬķ":4147,"ĠáĭĿáĪŃáĬł":4148,"ĠáĪµáĪŃáĪĴ":4149,"áī±áī¥":4150,"ĠáīĢáĮºáĪī":4151,"Ġáī¨":4152,"ĠáĪĵáĪ²":4153,"ĠáĬķáĪ°áī¥":4154,"ĠáĬ¨áĬķ":4155,"áĪįáĮłáĬķáī²":4156,"ĠáįķáĪĭ":4157,"ĠáĭĿáī°áįĪáĪĭáĪĪáĭ«":4158,"Ġáī¥áĭĿáī°áįĪáĪĭáĪĪáĭ¨":4159,"áĪ¨áĪŃ":4160,"ĠáĪĵáī²":4161,"ĠáĪĵáĪ¨áĪµáī¶áīµ":4162,"áĭķáĪŃ":4163,"Ġáī¥áĪĺáĮĪáĭ²":4164,"áĬĲáĪŃ":4165,"áĪįáīĤ":4166,"ĠáĭŃáĪ¨áĮĭáĮĪáĮ¸áĪĪáĭŃ":4167,"áĬ£áĭµ":4168,"áī¥áĭµ":4169,"áīłáĬĽáī³áīµ":4170,"ĠáĪĥáĬķáĭ°áīłáīµ":4171,"ĠáĭĪáĮºáĬ¡":4172,"Ġáĭ¨áĭµáĪį":4173,"áĪĥáĭŃáĪĽáĬĸ":4174,"ĠáĬĲáįįáĪµ":4175,"áĪīáĪį":4176,"ĠáĪĺáīķáĮ»áĭķáī²":4177,"áĪĵáĪĭáįĬ":4178,"áĪĵáĭĬ":4179,"ĠáĪĵáī£":4180,"ĠáĭĿáĬ£áī°":4181,"ĠáĪĺáĮ¥":4182,"áĭĵáĪĺ":4183,"ĠáĪ°áĭįáĪ«":4184,"áĮĪáĮ½":4185,"áĪĥáĮĪáĪ«áĭĬ":4186,"ĠáĪŃáĪĳáīķ":4187,"áĪīáĭŃ":4188,"áĪ«áĪ½":4189,"áĭķáĬĵáĬķ":4190,"Ġáī°áĪĺáĪª":4191,"áĭĪáĬĵ":4192,"ĠáĬŃáĪ«":4193,"ĠáĭµáĬ½":4194,"ĠáĪµáĭ°":4195,"áįĭáĪķ":4196,"ĠáĬ«áĪįáĬ¦áīµáĬķ":4197,"ĠáĪĺáĪ«áĬ¸áī¢":4198,"ĠáĬ¥áĬķáī°áĭĿ":4199,"ĠáĮ½áĪ¬áīµ":4200,"ĠáįķáĪ®áĮĢáĬŃáīµ":4201,"áĪµáĬĲ":4202,"ĠáĪ´":4203,"ĠáĬ¢áĬķáī°áĪŃ":4204,"áĪµáĬ¥":4205,"Ġáī¥áīĲáĮ»áĪĬ":4206,"!!":4207,"ĠáĬĲáĮĬ":4208,"áĭįáīµáĬķ":4209,"áĬķáĮ»áĪ©":4210,"ĠáĪ½áĮįáĪŃ":4211,"Ġáī¥áĪĿáĬ½áĬķáĭ«áīµ":4212,"ĠáĭĿáĪħáī¥":4213,"ĠáīµáĪĳáīµ":4214,"áĪįáĬ«áīµ":4215,"Ġáī¥áī´":4216,"áįĬáĬ¡":4217,"áĬŃáĪįáī²":4218,"ĠáĬ«áĪķáĪ³áĭŃ":4219,"áĪ»áĪŃ":4220,"ĠáĭĭáĪķ":4221,"ĠáīµáĪĿáĪħáĪŃáīµáĬķ":4222,"ĠáĪĽáĪ«":4223,"áĭµáĪķáĪªáīµ":4224,"Ġáī¥áĭĵáĭŃ":4225,"ĠáĭŃáīµ":4226,"áī¡áī¥":4227,"ĠáįįáĪį":4228,"ĠáĭµáĪĮáīµ":4229,"ĠáįĪáī°áĬĵ":4230,"áįĪáĪµ":4231,"ĠáĪ°áĪ«áĪķáī°áĬĽ":4232,"ĠáĬŃáĪ¨áĬł":4233,"ĠáĬ£áĭįáĮº":4234,"ĠáĬ¸áĪĿáĭļ":4235,"áī°áĪŃáįį":4236,"Ġáī¥áĪĽáĭķ":4237,"ĠáĪħáĬķáĭ²":4238,"ĠáĬ¥áĪĿáĬĴ":4239,"ĠáĪĴáĭŀáĪĿ":4240,"ĠáĪµáĮ³áĬĽ":4241,"áĪĴáī±":4242,"áĭªáĭ±":4243,"ĠáĪ®áĪĽ":4244,"ĠáĪĿáĮī":4245,"ĠáĬķáĪķáī¥áĪŃ":4246,"Ġáĭįáĭķ":4247,"Ġáĭĵáĭµáī³áīµ":4248,"ĠáĭĿáĮĪáīłáĪŃ":4249,"ĠáĭŃáĬķáĮĪáĪŃ":4250,"áĮ¥áĪª":4251,"áĪ°áĪŃáī²":4252,"ĠáĪĺáĪŃáĬ¨áī¥":4253,"ĠáĬŃáĬ¾áĬĳ":4254,"ĠáĭŃáĪķáī¥áĪ©":4255,"ĠáĭĺáĭŃáĬ®áĬĲáĪµ":4256,"ĠáĬŃáĪįáī²áĬ¦áĪĿ":4257,"ĠáĪįáĭķ":4258,"ĠáĪĿáĬķáī£áĪŃ":4259,"ĠáīłáĮ½":4260,"áī±áĪŃ":4261,"áĬŃáĪ³áī¥":4262,"ĠáĬĵáĭŃáī¶áĪĿ":4263,"áĮįáĭµ":4264,"áĮĭáĭµ":4265,"áī³áĭįáĬķ":4266,"áĬ£áīµáĬķ":4267,"áĪŃáĮįáĮĭáĮ½":4268,"áĭŃáĬ¹áĬķ":4269,"áįĭáĪĬ":4270,"ĠáīĢáĬķ":4271,"áī³áĭį":4272,"áīķáĬ«":4273,"áĭŃáīµáĬķ":4274,"ĠáĬ£áĪķáĭĭáīµ":4275,"ĠáĭĪáĪ«áĪŃ":4276,"ĠáĬ£áĮ½áĭĭáĪŃ":4277,"áī¥áĭĻáĪĵáīµ":4278,"áĪŃáī¶":4279,"áĪĵáĭ³áĪµ":4280,"ĠáĭŃáĮĪáĪįáĮ½":4281,"ĠáĬĴáĭį":4282,"ĠáĭĳáĪµáĪĽáĬķ":4283,"áĭ±áĬ¥":4284,"ĠáĪĿáĪħáĪŃáī²":4285,"áĪŃáī±":4286,"ĠáĮ¸áĮ¥áī³":4287,"áĭµáĪķáĪŃ":4288,"ĠáĬķáĪĿáĮįáī£áĪŃ":4289,"Ġáī°áĪĥ":4290,"áĪĺáĭµáĬķ":4291,"áĬ»áĬ¸":4292,"ĠáĬķáĬ¡áĪ³áĬķ":4293,"ĠáĭĺáĪ«":4294,"ĠáĭĵáīĲ":4295,"ĠáĬŃáĪħáĪįáĭİ":4296,"áĪµáĬĲáīµ":4297,"Ġáĭ°áīĢáĪĿáĪĵáĪ¨":4298,"ĠáĪĿáĪµáĮ¢áĪŃ":4299,"Ġáĭ°áīł":4300,"áĭµáĪªáĪµ":4301,"áĪĪáĮł":4302,"áīµáĭ©":4303,"ĠáĭĿáī°áĪ«áĬ¥":4304,"áĪŃáĭ²":4305,"áĮĢáĪŃáĭ«":4306,"áĮ¥áĬĵ":4307,"ĠáĬ¥áĬ½":4308,"áĪĪáĭĵáĪĪ":4309,"áĭ±áĪµ":4310,"ĠáĪ³áĪįáĪķ":4311,"ĠáĬ£áįĪáĭĪáĪŃáīĤ":4312,"ĠáĮ¥áĭĳáĪĿ":4313,"ĠáĬŃáĪŃáĪµáī²áĭ«áĬķ":4314,"Ġáī°áī³":4315,"ĠáĭĺáĭŃáĬ°áĬĲáĪµ":4316,"áĬĲáĮĪáĪŃ":4317,"ĠáĭŃáĪĺáĪµ":4318,"áīłáĬĽ":4319,"ĠáĬĵáīµáĬĵ":4320,"áī¹":4321,"ĠáĭĺáĮłáīĵ":4322,"ĠáĪĿáĪµáĪ«áĪķ":4323,"ĠáĭĿáĭµáĪĪ":4324,"áĪ¨áīµáĬķ":4325,"ĠáĪ¸áĪŀáĬķáī°":4326,"áĭĿáĬĲáīµ":4327,"ĠáįĪáĬķ":4328,"ĠáĬ¢áĭ«":4329,"Ġáī°áĪĺáĪµ":4330,"áĪĭáĪĪáĪµ":4331,"ĠáįįáĪ½":4332,"áī¥áĪŃáĪĤ":4333,"ĠáĪĺáīł":4334,"ĠáĬ«áī¥áī°áĬķ":4335,"ĠáĭĿáĭĪáĪ¨":4336,"ĠáĭĵáĭŃáĬĲáī³áīµ":4337,"ĠáĪĽáĪįáĭ«":4338,"ĠáĮİáī¦":4339,"ĠáĪĿáĪŃáĬ£áĭŃ":4340,"ĠáĭŃáĪķáī¥áĪŃ":4341,"áĭ²áīµ":4342,"ĠáĬ¥áĬĵáĮĪáĪĪáĮ½áĬĵ":4343,"Ġáī¥áĭĿáĮįáī£áĬ¥":4344,"áĭĭáĪķ":4345,"áĪĮáī³áīµ":4346,"ĠáĭĺáĬ«áĭ¨áĭ°":4347,"áĮĪáĪŃáĮį":4348,"ĠáĪĿáĪŃáĮįáĮĭ":4349,"áĬ«áĭŃáĭ±":4350,"Ġáī£áĪħáĪįáĬķ":4351,"ĠáĭĵáĬķáĭ°":4352,"ĠáīłáīĴ":4353,"ĠáĬķáĪĿáīµ":4354,"áĭµáĬ¥":4355,"ĠáĭĿáĮĪáī¥áĪ®":4356,"ĠáĪĽáĭķáĬ¨áĬĵáīµ":4357,"áĮ£áĪª":4358,"ĠáĭĿáĮĪáĪĪ":4359,"áī¥áĭĵáĭŃ":4360,"ĠáĭĦ":4361,"ĠáĬĲáĭ³áĭ²":4362,"ĠáĪĵáĭĪáĭŃ":4363,"ĠáĬ¥áĮĥ":4364,"ĠáĭĺáĮ¸áĬĵáĬĵáĭķáĬ©áĪĿ":4365,"ĠáĬ£áĬĵ":4366,"ĠáĬ£áĪ¨áĬ£":4367,"áīĥáĪª":4368,"Ġáī°áĮ«":4369,"áĪįáī¥":4370,"áĭļáĪĻ":4371,"ĠáĪµáĪĪáĭĺáĪİ":4372,"áī°áĬ½":4373,"áĪĻáĪī":4374,"ĠáĬķáĬ»áĪįáĬ¦áīµ":4375,"áĭµáĪ½":4376,"áĮ¸áĬķáĪĲ":4377,"ĠáĬ¸áī°áĪĽ":4378,"áĪĪáĪ±":4379,"áĪĭáī±":4380,"áĪĽáĮįáĪĿ":4381,"ĠáĬ£áĭĪáĭ³":4382,"ĠáĪµáĪįáĮ£":4383,"Ġáī¥áĪŃáĮįáĮ½":4384,"áĭįáĭĴ":4385,"ĠáĬķáĪħáĭĿáī¢":4386,"ĠáĬ£áĮĭáĮ¢":4387,"áī°áī£áĭķ":4388,"ĠáĭĵáĪĿáĭ²":4389,"ĠáĬ£áĮ»":4390,"áĭ°áīĤ":4391,"ĠáĬ£áĬ«áĪĭáĭĬ":4392,"áĪ³áĪ²áīµ":4393,"ĠáĪĺáĭ°áīłáĪŃ":4394,"áĪīáĪµ":4395,"Ġáī°áĭĵáĭĺáī¥":4396,"áĮ½áĬł":4397,"ĠáĮłáīĴáĪ±":4398,"ĠáĬĸáī³":4399,"ĠáĬŃáĪŃáĪµáīµáĭ«áĬķ":4400,"ĠáĪ°áĮĬ":4401,"áĭĽáĪ¨áī¡":4402,"ĠáĬ£áĬķáįĪáīµ":4403,"áĪĥáīµ":4404,"áĪ²áĬķ":4405,"Ġáī¢áĪįáĭ®áĬķ":4406,".)":4407,"áĬĲáĪ½":4408,"ĠáĪĺáĮĵáĭĵáĭĿ":4409,"ĠáĮįáĭ²":4410,"áĮįáĭľ":4411,"ĠáĪĵáīĢáĬĽ":4412,"áĬ½áī¥":4413,"áĮĭáĭķ":4414,"ĠáĭŃáīķáĮ½áĪį":4415,"´áĮ¥áĪ®":4416,"áĬ»áĬ½áĪŃ":4417,"áĭĪáĭŃáĭĺáĪ®":4418,"ĠáĭĪáĬ¨":4419,"áĮ¤":4420,"ĠáĬŃáĪĿáĪµ":4421,"áĮĢáĪĺáĪŃáĭ«":4422,"áĬķáĬ©áĬķ":4423,"ĠáĬķáĭĺáĪİ":4424,"áĬķáĮİ":4425,"ĠáĬķáĭĺáĭŃ":4426,"ĠáĮįáĭ³áĭŃ":4427,"ĠáĪĺáĪĬáĪ±":4428,"áĭĪáī±":4429,"áĮĪáĪŃáĪĿ":4430,"ĠáĬ¨áĪĿáĭĺáĪĪáĭĭ":4431,"ĠáĪŃáĬ¢":4432,"áįĪáĪ¨":4433,"ĠáĪĽáĬ¥áĪ°áĪŃáī²":4434,"ĠáĪ°áĪĿáīłáĪį":4435,"ĠáĬ¢áī¥áĪ«áĪĤáĪĿ":4436,"ĠáĬŃáĪ½":4437,"áĬ³áĬķ":4438,"áĪ«áĪĽ":4439,"áĪ«áĪª":4440,"áĭ°áīł":4441,"ĠáĬ£áĭŃáĪĺáĪµ":4442,"ĠáĭĿáī°áī£áĪħáĪĪáīµ":4443,"áĭļáĬłáī¥":4444,"ĠáĮĪáĮ»":4445,"ĠáĮĪáĭµáĪĬ":4446,"áī¢áĬ¡":4447,"ĠáĮĮáĪŃáĬ«":4448,"Ġáī°áĭĭáĪĤáī¡":4449,"ĠáĮ¸áĮĭáī³áīµ":4450,"ĠáĪ³áĪĻ":4451,"áĬ©áĭĭ":4452,"áĪĽáĭĿ":4453,"ĠáĪĵáĭĺáĬķáĬĵ":4454,"áĪĺáĮł":4455,"Ġ31":4456,"áĭĺáĭį":4457,"ĠáĭĿáĭĪáĪĥáī¥":4458,"ĠáĪįáĪĿáĭ²":4459,"ĠáĬķáįĭáĪµ":4460,"ĠáĪŀáĪªáĬĸ":4461,"ĠáĬ£áĪĺáĪĵ":4462,"áī£áī£":4463,"ĠáĬ¨áĪ°":4464,"áī£áĪķáī²":4465,"áĭŃáĬĵáĬķ":4466,"áĭķáĭĿ":4467,"ĠáĭĵáĪµ":4468,"ĠáĪħáĮįáĭ°áįį":4469,"ĠáĭĿáĪĺáĮ¹":4470,"ĠáĪŀáĭ«áĭĬ":4471,"áĪ¥":4472,"áĬķáĪķáĬĵ":4473,"ĠáĮ¥áīķáĪļ":4474,"áīº":4475,"áĪ¨áĭĿ":4476,"áĮĪáīµ":4477,"ĠáĭĺáĭŃáī¥áĪİáĪĿ":4478,"áĪ«áĪŃáĪĵ":4479,"ĠáĭĪáĭµ":4480,"ĠáĪĵáĪĻáĪµ":4481,"ĠáĪĿáĪįáĬŃáī³áīµ":4482,"áĪĭáĭįáĭ«áĬķ":4483,"ĠáĬķáĬ£áĪĿáĪĭáĬ½":4484,"ĠáĮĪáĪĿáĮĭáĪĿ":4485,"ĠáĬķáī¥áĪ¨":4486,"Ġáī¥áĪķáĮĭáĭĬ":4487,"áĪįáī£":4488,"áĬ©áĪŃ":4489,"áĪ°áĬĲ":4490,"áĮ»áĬ¢":4491,"ĠáĭĿáĬĲáī¥áĪŃ":4492,"ĠáĪĿáīµáĬ¥":4493,"áĪ¬áĬķ":4494,"ĠáĬŃáĪ¨áĬŃáī¥":4495,"ĠáĬĵáĮ½":4496,"ĠáĪĺáĭĺ":4497,"áĮĭáĮ¥áĪĿ":4498,"ĠáĭĿáĪĿáĪµ":4499,"Ġáī¥áĮ¥":4500,"áĭįáĬĵ":4501,"ĠáĬ£áĮ¸áī¢":4502,"áĪįáīĥáĭĬ":4503,"áī£áĪ®áĪĿ":4504,"Ġáī°áĪĿ":4505,"ĠáīĢáĪ¨áī¥":4506,"Ġáī£áĬ¥áī³":4507,"ĠáĬŃáĪħáī¥":4508,"Ġáĭ®áĭįáĪĥáĬķáĪµ":4509,"áĬ¹áĪī":4510,"áĪĥáī¦":4511,"ĠáįįáĮ¥":4512,"ĠáĪµáīķ":4513,"ĠáīĢáĭŃ":4514,"áĬ£áĪĿáĬķ":4515,"ĠáĮ¸áĬķ":4516,"ĠáĪĺáĭĭ":4517,"ĠáīħáĭµáĪĺ":4518,"ĠáĪ®áĬĵáĪįáĭ¶":4519,"áĪĺáĬ«":4520,"ĠáĪŃáĪĴ":4521,"áī°áĬķáĪĥáĪĿ":4522,"ĠáĪĺáĮ½áĪĵ":4523,"áįįáīµáĬķ":4524,"áĪ°áĪĽ":4525,"ĠáĮĪáĪĽáĮįáĪĿ":4526,"ĠáĭĪáĪ³áĬĴ":4527,"áĬ¨áĭŃáĭµ":4528,"Ġ,":4529,"ĠáĭĺáĪĪáĭĪáĬķ":4530,"Ġáī¥áĬ£áĮĭ":4531,"ĠáĪ°áĪĽáĬ¥":4532,"áĬ¥áĭĭ":4533,"áĪ³áĭ°áĪŃ":4534,"ĠáĭĪáīķáī²":4535,"ĠáĬ£áĪµáĪĺ":4536,"ĠáĮłáīķ":4537,"ĠáĪĪáīłáĭĭ":4538,"ĠáĬ£áĭŃáĬŃ":4539,"áī¥áĪĪáĪį":4540,"ĠáĬ¨áĭ°":4541,"áīĲáĬķáĭ¨":4542,"ĠáĪ¬áĪ³":4543,"áįĪáī±":4544,"áĮłáĭŃ":4545,"Ġáī±áĪŃáĬª":4546,"ĠáĬ¨áĪĪáĬĵ":4547,"Ġáī°áĮĪáĭ²":4548,"ĠáĪħáĭ«áī¥":4549,"áĪ½áĬ¨":4550,"ĠáĪĽáĭķáĮ¾":4551,"ĠáĪĺáĪįáĬŃ":4552,"áĪĭáĬ»":4553,"Ġáĭĵáĭįáĭ°":4554,"ĠáĭĿáĪŀ":4555,"Ġáī«áĭŃáĪ¨áĪµ":4556,"áĪĵáĬĴ":4557,"áĭĳáĬķ":4558,"áĭ¨áīµáĬķ":4559,"ĠáĪĿáĪ³áĭŃ":4560,"ĠáĬĵáī°áĭŃ":4561,"ĠáĬŃáĪĪáī¡":4562,"ĠáĬ£áī¢áĪĭ":4563,"áĪĬáĬ»":4564,"ĠáĮ½áĪį":4565,"áĪĻáĬĴ":4566,"ĠáĪĺáī¥áĭĽáĪķáīµáĬ¡":4567,"áĬķáĭļ":4568,"ĠáĪ°áĬª":4569,"ĠáĬ£áĭķáĪ©áĬ½":4570,"áĭĵáĪįáī²":4571,"Ġáī£áĬķáĬŃ":4572,"ĠáĪĿáĪĿáĪķáĭ³áĪ«áīµ":4573,"áĭµáĮį":4574,"Ġáĭ¨áī¥áĪĪáĭŃáĬķ":4575,"ĠáĬ¥áĭļáĬ£áī¶áĪĿ":4576,"áĮ½áĪķáįĪáīµ":4577,"ĠáĪĺáĪªáĪķáĬĲáīµ":4578,"áĪĳáĬķ":4579,"áīłáī£":4580,"ĠáĬķáĬ¸áĭŃ":4581,"áĪĵáĭĺ":4582,"ĠáīµáĬ¸áĭįáĬķ":4583,"áĭ°áĪįáĭ®":4584,"ĠáĭĺáĪĪáĭį":4585,"áĪĲáĭŃ":4586,"ĠáĬ¥áī²áĬ£":4587,"áĪĬáĬĵ":4588,"ĠáĬ£áĪµáī°áĪĿáĪħáĪ®":4589,"áĮŃáīµ":4590,"áĮ¼áĬķ":4591,"áĬ°áĬĲ":4592,"Ġáī¥áīĲáĬķáĭ±":4593,"áĮĭáĪ«":4594,"ĠáĭŃáĮĪáĪįáĮ¹":4595,"áĭĿáĮĪáī£":4596,"Ġáĭ°áĪ´áīµ":4597,"ĠáĮ¸áĪĵáįĬ":4598,"ĠáĪĺáĭĵáĪŃ":4599,"áĮĭáĪį":4600,"ĠáĭĵáĬķáīĢ":4601,"ĠáĭįáĪķáĪµáĬĲáīµ":4602,"áĪ«áĪŃáī£":4603,"ĠáĪĺáĮĪ":4604,"áĭļáĬłáī¥áĪĶáĪŃ":4605,"áī¥áĭµáĪķáĪª":4606,"ĠáĭĵáĪŃáĬ¨":4607,"áĮ»áĬķ":4608,"ĠáĬķáĬ½áĬķ":4609,"áĬĴáĬ¤áĪį":4610,"áī¥áĬ¡":4611,"ĠáĪĿáĭķáīĥáī¥":4612,"Ġ07":4613,"ĠáĭĭáĬķáĬĲáīµ":4614,"Ġáī£áĪŃáĬ«":4615,"ĠáĬ£áĬ¨áī£áī¢":4616,"ĠáĬŃáĮ½":4617,"ĠáĪµáĭķ":4618,"ĠáĭŃáĬ¸":4619,"áĮ¥áīĢáĪĺáĪī":4620,"áĪ¨áĮį":4621,"Ġáī°áĬª":4622,"ĠáĭķáĭµáĪĭáīµ":4623,"ĠáĭĺáĪĺáĬĵáĭĬ":4624,"áĮłáī£áĭĬ":4625,"ĠáĬķáī£áī¥":4626,"áĬĳáĭŃ":4627,"Ġáī¥áĭĺáĭŃáĪĿ":4628,"ĠáĬķáĪŃáĬ¥":4629,"ĠáĬ¥áĬķáī°áĭĺáĭŃáĬ®áĭŃáĬĳ":4630,"áĮ©":4631,"ĠáĪĽáĪŃáĭ«áĪĿ":4632,"ĠáĭĺáĪĪáĬ«":4633,"ĠáĪĺáīĵáī¥áĪŃ":4634,"ĠáĭķáĪĿ":4635,"áĪŃáĪ³":4636,"ĠáĬķáĪµáĬº":4637,"ĠáĭĵáĪĪáĪĽáĭĬ":4638,"ĠáĬ£áĪīáī³áĭĬ":4639,"ĠáĪ¨áĬºáī¡":4640,"Ġáī¥áĪ«áĭļáĪį":4641,"áį¡-":4642,"ĠáĭĵáĪĮáīµ":4643,"ĠáĬķáĬ¤":4644,"ĠáĬŃáĪĺáĮ½áĬ¥":4645,"ĠáĬ¢áĪ³":4646,"áĪļáĭĳ":4647,"ĠáĬķáĭµáĪķáĪªáīµ":4648,"ĠáĪĺáī¥áĪŃáĪĤ":4649,"áĪ®áĬĵ":4650,"ĠáĬĲáĮ¥áī¥áī³áīµ":4651,"áĭ²áĪĻ":4652,"ĠáĪįáĪĻáĭµ":4653,"ĠáĪĺáĬķáīłáĪª":4654,"Ġáī¥áĮī":4655,"ĠáĪĺáĮ»áĪĿáĭµ":4656,"ĠáĪĵáĭ°áĮĪáĬĽ":4657,"Ġáĭ¶áī¥":4658,"ĠáĪĨáī´":4659,"ĠáĬŃáīµáīħ":4660,"Ġáī°áīĲáĭ³áĭ³áĪĽáĭŃ":4661,"Ġáī¥áĬĵ":4662,"áĪ¨áĬŃáī°áĪŃ":4663,"ĠáĪ¹":4664,"ĠáĪĿáĪķáĭ°áĪ«":4665,"ĠáĬ¨áĪĿáĭĿáĬĲ":4666,"Ġáī³áĬķ":4667,"ĠáĭĿáĭĺ":4668,"ĠáĪļáĬ¥áī²":4669,"ĠáĬ£áĪ³":4670,"ĠáīģáĮłáī£":4671,"ĠáĬ£áī°áĭĪ":4672,"áĪİáĬĴ":4673,"áĭĵáīł":4674,"áĬķáĭµ":4675,"áī¤áī°áĭŃ":4676,"Ġáī´áĪĪ":4677,"áĪĪáĪĽáĪŃáĭ«áĪĿ":4678,"ĠáĮĪáĭĿ":4679,"ĠáĪ»áĪĤ":4680,"áĬ£áĪĿáĪĭáĬ½":4681,"áĪļáĬĴáĪµáīµáĪª":4682,"ĠáĭŃáĭĿáĬ¨áĪŃ":4683,"ĠáĪĪáī°":4684,"áĮĪáĭµáĪµ":4685,"áĪĪáĪµáī°":4686,"ĠáĪĵáĮĲáĪµ":4687,"áī¥áĪħ":4688,"Ġáī°áĪ³áīµ":4689,"Ġáī£áĪŃáĪ´áĪİáĬĵ":4690,"Ġáī°áĭĪáĪĬ":4691,"ĠáĬ¥áĭĭáĬĵáīµ":4692,"ĠáĬ£áįįáĪĬ":4693,"Ġ35":4694,"ĠáĭĿáī°áĪĺáĪŃ":4695,"áĬ©áĪĭáĬķ":4696,"ĠáĬŃáĪŃáĪµáīµáĭ«":4697,"ĠáĪĵáĮ¢áĬ£áīµ":4698,"áĬĲáīķ":4699,"ĠáĭĿáī°áĭĭ":4700,"áĭ²áĬ¦áĪĿ":4701,"áĭįáĭķáĪį":4702,"áįįáĪĪ":4703,"áĪĪáĭŃáī²":4704,"Ġáĭ°áĬķáĭ°áĬķ":4705,"áĪĺáĪµáīĢáĪį":4706,"ĠáĪĵáĪ¶áīµ":4707,"ĠáĪķáĪĻ":4708,"Ġáĭĺáįįáīħ":4709,"Ġáī¥áĪĿáĪħáĪĭ":4710,"ĠáĭĪáĭ«":4711,"ĠáĪ³áĭķáī¤áĬķ":4712,"ĠáĪĥáĭŃáĪĽáĬĸáīµ":4713,"ĠáĪ¸áĬĲáĬ½":4714,"áĭļáĬ¡":4715,"ĠáĬ¥áĬķáĬ®":4716,"áīĥáīĲ":4717,"áĮ¶":4718,"ĠáĭķáĮį":4719,"ĠáĭĿáīłáĪİ":4720,"áĮĪáĪŃáĮįáĪ½":4721,"ĠáĪµáĮįáĬ£áīµ":4722,"ĠáĬ£áĭŃáĬĲáīłáĪ®":4723,"áĪľáĬķ":4724,"áĪµáĪ«áĭķ":4725,"áĬĵáĪŃ":4726,"ĠáĬ£áĪķáĪĺáĭµ":4727,"ĠáĪµáĪŃáĪĴáīµ":4728,"ĠáĭĿáī°áĪ¨áįĪ":4729,"áĮĭáĬ¥":4730,"Ġáī¥áĬ£áĬķáĮ»áĪ©":4731,"áĮĢáĬķáī²":4732,"áī¥áī°áĭĪáĪ³áĬº":4733,"Ġáīµáīķ":4734,"Ġáĭ©áĪ®":4735,"áĪįáī¦áĬķ":4736,"áĮĪáīłáĪŃ":4737,"ĠáĪµáĪĪáĭĿáī°áĪ°áĭį":4738,"´áĮ¥áĪ®áĪµ":4739,"ĠáĬķáĮ¹":4740,"Ġáīłáĭĵ":4741,"ĠáĪķáĬŃáĪĿ":4742,"ĠáĪĺáĬ£áĭ²":4743,"ĠáĬ¤áĪį":4744,"áĪĺáĪĵáĪĭáĪĪ":4745,"ĠáĭįáĪĳáĭµ":4746,"áĬ¤áĪµ":4747,"ĠáĬŃáī³áīłáīµ":4748,"áīłáĭ®":4749,"áĭĭáĪĭ":4750,"ĠáĬ¥áĬķáī°áĬĲáīłáĪ¨":4751,"ĠáįįáĪµáĪĥáĭ¨":4752,"áĬ£áīµáĭī":4753,"áĮ¸áĪ©":4754,"áĭĽáĪĿ":4755,"ĠáĭĺáīĥáīłáĪŃáĬ©áĪĿ":4756,"áīłáī¶":4757,"áĭ³áĬ¥áī³":4758,"Ġáī¥áĬ»áĪįáĬ¥":4759,"ĠáĬŃáĭĵ":4760,"ĠáĭĺáĬ«áĭ¨áĭ¶":4761,"áĪĻáīķ":4762,"áīĵáĪķ":4763,"ĠáīįáĮ½áĪª":4764,"Ġáī¥áĮįáī¥áĪª":4765,"Ġáĭĵáī¥áĭª":4766,"áĬķáĭĿ":4767,"ĠáĪĿáĪµáĪĬ":4768,"ĠáĪ«áĬ¥":4769,"ĠáĭĪáĮ»áĬ¢áī³áīµ":4770,"ĠáĪĿáĪī":4771,"ĠáĪĺáĭĽáĭĺ":4772,"ĠáĭĿáīłáĪį":4773,"ĠáĪĿáĪħáĪĭáĭİáĪĿ":4774,"ĠáĪĺáĪ¬":4775,"ĠáĬ¨áĭŃáī°áĪ¨áįĪ":4776,"áĪĵáī°":4777,"áĬ¨áīµ":4778,"ĠáĬķáĪĿáĭķáī£":4779,"áĬ®áĪĿ":4780,"ĠáĭĿáĬķáĮĪáĪ¨":4781,"ĠáĭĿáī°áĮłáīķáĪ°":4782,"áĪ¨áīµáī²":4783,"áĬ£áĪĽ":4784,"áĭ³áĬ¥áī²":4785,"áĪ»áĬķ":4786,"Ġ2012":4787,"ĠáĬ£áĪĽáĬĳáĬ¤áĪį":4788,"áĭĭáĪŃ":4789,"áĮĭáī¥áĪŃ":4790,"Ġ60":4791,"ĠáĮĢáĬĲáĪ«áĪį":4792,"áĪĵáĪįáįį":4793,"áĪĵáī±":4794,"áĮ¹áĬķ":4795,"ĠáĬµáĬĲáī³áīµ":4796,"Ġáĭĺáĭ¨áĪĪ":4797,"áĬ®áĬĲáĬķ":4798,"áĬ£áĭŃáī²":4799,"ĠáĬ®áĪŃ":4800,"Ġáĭ´":4801,"ĠáĭŃáĪĺáĪµáĪį":4802,"ĠáĬķáī¥áĭĻ":4803,"Ġáī£áĪħáĪŃáĭ«áīµ":4804,"Ġáĭ¨áĪ¨áĭµáĬ¡":4805,"ĠáĪĽáī´":4806,"áĮłáī£":4807,"Ġáī°áĭ³":4808,"Ġáĭ°áĮĭáĮĬ":4809,"áĪµáī°áĬķ":4810,"ĠáĮ³áĭįáĪİáĪµ":4811,"áĪĭáī³":4812,"áĬ£áī£":4813,"áĪĪáĭİáīµ":4814,"áī¥áĭĵáīµ":4815,"áĪĿáĭİ":4816,"ĠáĪĵáĭ³":4817,"ĠáĪĺáĬĵ":4818,"ĠáĪĥáĮĪáĪ¨":4819,"áĪ¨áĬĴ":4820,"ĠáĬķáīµ":4821,"ĠáĪĿáĪĿáĭķáī£áĪį":4822,"áĮħáĬķ":4823,"áĬĲáĭĪ":4824,"Ġáī¥áĪĺáĪįáĬŃáĭķ":4825,"Ġáī°áįĪáĮ¥áĪ®":4826,"ĠáĬŃáīµáĮĪáī¥áĪŃ":4827,"ĠáĭµáĪķáĬĲáīµ":4828,"áĪ«áĬķáĬķ":4829,"Ġáī°áĮĪáĬķ":4830,"Ġáĭĳáĭ°áīµ":4831,"Ġáĭ¨áĪįáī¦áĬķ":4832,"Ġáī¥áīĲáĭ³áĪĿ":4833,"ĠáĬķáĪĿáĬķáī³áĭŃ":4834,"ĠáĮįáĭľáĬ¡":4835,"ĠáĬŃáįįáĪįáī³áīµ":4836,"Ġáĭ®áĪĥáĬķáĪµ":4837,"ĠáĪµáįĸáĪŃáī³áĭĬ":4838,"áĬ«áīµ":4839,"ĠáĪ°áĪĵ":4840,"áĬ½áĬ»":4841,"ĠáĪįáī¡":4842,"Ġáīłáĭ¨":4843,"ĠáĬŃáĪįáī²áĬłáĬķ":4844,"Ġáĭ°áīĨáĪĿ":4845,"áĬ½áĪª":4846,"áĪĺáĭĵáĬĵ":4847,"Ġ*":4848,"áĪŃáīµáĭĸ":4849,"ĠáĭŃáĬ¸áĭŃáĭµ":4850,"ĠáĪµáĪĪáĭĿáĬĲáīłáĪ¨":4851,"Ġáī¥áĬĲ":4852,"ĠáĭįáĪī":4853,"áįĭáįĭáĪĬ":4854,"ĠáĪĴáĭĺ":4855,"ĠáĪĿáĬŃáīµáī³áĪį":4856,"áĬ¥áĪµ":4857,"ĠáĪĺáĭĽáĭĺáĪļ":4858,"ĠáĪĺáĪĥ":4859,"áĪ³áīµáĬķ":4860,"ĠáĭļáĬ¸áĭįáĬķ":4861,"Ġáī°áĪµáįĭáĪĽáĪŃáĭ«áĪĿ":4862,"áīµáĬ»":4863,"ĠáĭįáĮ½áĬ¢áī±":4864,"ĠáĬ£áīĭ":4865,"ĠáĪĵáī£áĪŃ":4866,"Ġáī¥áĬ¥áĬ¡":4867,"áĪ«áĬº":4868,"ĠáįįáĮ¡":4869,"áĮįáĭķ":4870,"ĠáĬ¨áĪĽ":4871,"áĪĺáĬķáĮįáĪµáī²":4872,"Ġáī¥áīķáĭĵ":4873,"ĠáĪĺáĮł":4874,"ĠáĬ£áĪĪáĪĿ":4875,"ĠáĪ°áī¥áĬķ":4876,"ĠáĬķáīķáĪĵáīµ":4877,"ĠáĬĵáī£":4878,"Ġáī°áĮĪáĭŃáĪ©":4879,"Ġáī¥áĬķáĮ¹áĪŃ":4880,"ĠáĪĵáĭįáĪ²":4881,"áĪĥáĮĪáĪŃ":4882,"ĠáĬ¹áĪī":4883,"áįįáī³":4884,"áĪ³áĪ°":4885,"ĠáĬŃáĬķáī¥áĪį":4886,"áīłáĮĪáĪ²":4887,"áĭ³áĭĬáīµ":4888,"ĠáĭŃáĪĺáĮ½áĬ¥":4889,"ĠáĮīáĭµáĬ£áīµ":4890,"áĬ¥áī°áĬķ":4891,"ĠáĬ£áĪĺáĪªáĬ«áĬķ":4892,"ĠáĪĵáĮĭáĭļ":4893,"áĪ¨áī°":4894,"ĠáĬķáī£áĭķ":4895,"ĠáĭĿáĭĪáĮ¸":4896,"ĠáĪįáĪĿáĪĿáĭµ":4897,"áĬŃáįįáī³":4898,"áĮ¥áīħ":4899,"áĪ¨áīłáīµ":4900,"ĠáĬķáĮĪ":4901,"Ġáĭ¨áīķáĪŃáī¥":4902,"ĠáĬ¥áĭµáĪªáĪµ":4903,"áĭķáĬ«":4904,"Ġáĭ²áįķáĪİ":4905,"ĠáĪ°áĪ«áĭĬ":4906,"Ġáĭ®áĪ´áįį":4907,"áīłáĪ«áīµ":4908,"ĠáĬķáĪĿáĪŃáĮįáĮĭáĮ½":4909,"ĠáĬķáĭĵáĬ»":4910,"ĠáįĸáĪĪáī²áĬ«":4911,"ĠáĬ£áĪ¨áĬ£áĬ¥áĭ«":4912,"ĠáĬ£áĮĪáĪį":4913,"áĮłáĬķáīĤ":4914,"ĠáĪµáĪ«áĪĵáīµ":4915,"ĠáĪĺáĭĿáĮĪáī¥":4916,"áī°áĪ¨":4917,"Ġáī¥áĪįáĮ«":4918,"ĠáĮįáĮ¥áĪļ":4919,"áĭ«áĪ½":4920,"áįĪáĪĪáĮ¥":4921,"ĠáĬŃáĮĪ":4922,"Ġáī¥áĭĿáĪĿáĪįáĬ¨áīµ":4923,"ĠáĬ«áĪįáĬ¢":4924,"áĪĽáĬķáĬĲáīµ":4925,"ĠáįįáīµáĪĴ":4926,"ĠáĭĿáĬ¥":4927,"áĬ½áĬ¥áĪĭ":4928,"ĠáĪµáįįáĪ«":4929,"áĭĿáĮĭáī¥":4930,"áĪĵáĪĭáĪĪ":4931,"ĠáĪĺáĬķáįĪáĪ³áĭĬ":4932,"áĬ£áī³":4933,"ĠáĬ¸áĪİ":4934,"ĠáīħáĭµáĪļáĬ¡":4935,"ĠáĬ£áĪįáī¦":4936,"áĭ°áĪµáī²":4937,"áĪĭáĭª":4938,"ĠáĪĿáĪµáī¶áĪĿ":4939,"ĠáĪĺáĪ»áĪŃ":4940,"ĠáĬķáĪĿáīķ":4941,"ĠáĬŃáĭĪáĮ½áĬ¥":4942,"áĭĿáĪĵáĪĪáįĪ":4943,"ĠáĭĿáĬ¸áįį":4944,"ĠáĭĺáĭŃáĬ¨áĬ£":4945,"áĪĺáĬĴ":4946,"áĪµáĪĪáĪĿáĬķáī³áĭŃ":4947,"áĪħáĭĿáī¢":4948,"ĠáĪŃáĪķáīĢáīµ":4949,"ĠáĮ½áĪĿáī¥áĪį":4950,"Ġáī¥áĪħáĭŃáĭĪáīµ":4951,"ĠáĪĿáĪµáĬ£":4952,"ĠáĮķáĭķáĭŀ":4953,"áĮĪáī¥áĪ¨áĪī":4954,"Ġáī¥áĪīáĮ»áīµ":4955,"ĠáĭĮ":4956,"ĠáĬ¤áĪĪáĬŃáīµáĪªáĬŃ":4957,"áīĲáĪŃ":4958,"ĠáĬ£áīłáī£":4959,"áĬ¤áīµ":4960,"ĠáĪĺáĪĵáĭĻ":4961,"ĠáĬŃáĭįáĬķ":4962,"ĠáĬ£áĪĿáī£":4963,"áĬķáĪµáĬ»":4964,"ĠáĬ£áĭŃáĪ°":4965,"ĠáīĢáĮ½áĪª":4966,"ĠáĪķáĪįáĪļ":4967,"ĠáĭĿáī°áĭ³áĪĪáĭĪ":4968,"ĠáĪĵáĬªáĪĿ":4969,"ĠáĬ¥áīµáĬ½áĬ¥áĪį":4970,"Ġáī£áĪħáī³":4971,"ĠáĬ£áįĭ":4972,"áĬ«áĭŃáĪĿ":4973,"áĪ¨áĮĭáĮį":4974,"ĠáĬĲáī¥áĪ±":4975,"áĪĭáĪ²":4976,"ĠáĪµáĪ«áĪķáĬķ":4977,"ĠáĬ£áĪĿáĪĭ":4978,"áĭ°áĮį":4979,"ĠáĪĵáĭĪ":4980,"ĠáĭĿáīłáĭĿáĪĳ":4981,"áĬ¨áī£áī¢":4982,"áĪĺáĪŃáĪķ":4983,"áĪĨáĪĿ":4984,"ĠáĭĿáĬ¨áĬ£áĪį":4985,"ĠáĬŃáĮĪáī¥áĪ©":4986,"áĪ°áĬĵ":4987,"ĠáĬ®áĬ¾áī¥":4988,"áĪ¨áīłáĪī":4989,"áįįáĪķ":4990,"ĠáĭĭáĭķáĪĭ":4991,"Ġáī°áĪ³áī³":4992,"ĠáĬ½áĪ³áĭķ":4993,"Ġáĭ¨áĪ©áĪ³áĪĮáĪĿ":4994,"áĪķáĭµ":4995,"ĠáĬĲáĬķ":4996,"ĠáĭįáĪ³áĬĶ":4997,"ĠáĭįáĪĭáĭµ":4998,"ĠáĪ°áĪĭáĪĿáĬķ":4999,"ĠáĮ½áĪ©áĭŃ":5000,"ĠáĭĳáĪĺáĪŃ":5001,"áīµáĬ©áĪĿ":5002,"Ġáī¥áīķáĭµáĪļ":5003,"ĠáĭĿáīłáĭĿáĪķ":5004,"áĪĻáĬĵ":5005,"ĠáĪħáĪĭ":5006,"ĠáĪĺáĭĿáĪĻáĪŃ":5007,"áĮłáīĲ":5008,"ĠáĬ¨áĭŃáĭ±":5009,"ĠáĪŃáĬ¥áĪµáĬ»":5010,"áī£áĪķáĪª":5011,"áĭļáĬ£áī¥áĪĶáĪŃ":5012,"ĠáĪµáĪĺáĭŃ":5013,"áĮĭáĬķáī³":5014,"ĠáĪĺáĮĵáĭĵáĭĿáĭ«":5015,"ĠáĪķáĪįáĬĵ":5016,"ĠáĭŃáĮ¥áīĢ":5017,"áĪĥáĭŃáĪĽáĬĸáīµ":5018,"ĠáĪĵáī£áĪ«áĭĬ":5019,"ĠáĭĿáĬĲáīłáĪŃáĬ©":5020,"áĬ£áĬ¹":5021,"ĠáĭŃáĪħ":5022,"áī¥áĪĭáĭķ":5023,"áĭĭáĪļ":5024,"áīĨáĮ»áĮ¸":5025,"Ġáī°áĪĽáĪĤ":5026,"ĠáĬ«áĭ³":5027,"áīłáī¥áī²":5028,"ĠáĪµáĪĪáĭĿáĭ°":5029,"ĠáĬŃáĮįáīłáĪŃ":5030,"35":5031,"áĮ¦áĪİáĬĴ":5032,"áīķáĪŃáī¡":5033,"ĠáĪĺáĪ¨áĭ³áĬ¥áī³":5034,"ĠáĮĴ":5035,"ĠáĪĺáī¥áĪ«áĪħáī±":5036,"ĠáĮīáĪį":5037,"áĪĭáĭŃáĬķ":5038,"ĠáīłáĭŃ":5039,"áĭĪáī°":5040,"ĠáĭĺáĭŃáī¥áĪį":5041,"Ġáį¢\"":5042,"31":5043,"ĠáĬ£áĮĪáĭ°áĪµáī²":5044,"ĠáĬ£áĭµáĪĽ":5045,"ĠáĪ¥":5046,"Ġáĭ°áĪĵáĪŃ":5047,"ĠáĬ£áĪµáĭĴ":5048,"ĠáĪĺáĮįáĭĽáĬ¥áī²":5049,"ĠáĪĿáĪ½":5050,"ĠáĭĪáĪĬ":5051,"áĭĽáĬ¥":5052,"Ġáī°áĮłáīĥ":5053,"ĠáĬŃáĬ£áī±":5054,"áĮİáĪĿ":5055,"áįįáĪįáĮ¥":5056,"ĠáĭĺáĮĭáĮłáĪĺ":5057,"ĠáĪĵáĪĪáīĵ":5058,"ĠáĬ£áī²":5059,"áĪ½áĮ¢":5060,"Ġáįĭáī¥áĪª":5061,"ĠáĭĿáĬĲáīłáĪ®áĪĿ":5062,"ĠáĬķáĬ£áĪ½áī±":5063,"ĠáīĢáĪĪ":5064,"áĪ«áī¥áĬķ":5065,"ĠáīµáĮį":5066,"áĮ¸áĪĭ":5067,"ĠáĭĿáįĪáĪįáĮ¦":5068,"ĠáĬ¥áĬķáĬ¨áĪĪáĬ¹":5069,"ĠáĭĿáīĳ":5070,"áĪĺáĪįáĪ²":5071,"ĠáĪµáĪĪáĭĿáī°áĪ°áĭįáĬł":5072,"áĮħáĪĿ":5073,"Ġáī°áĭĺáĪŃ":5074,"ĠáīĢáīµáĪª":5075,"Ġáī¥áĪĺáĬķáĮĪáĭ²":5076,"áįįáĪĪáĮ¥":5077,"ĠáĭĿáī°áĭĭáĪħáīł":5078,"ĠáĬķáĮĪáĪĪ":5079,"ĠáĬŃáĪ°áĪŃ":5080,"Ġáī¥áĭĿáĪĪáĭĵáĪĪ":5081,"ĠáĬķáĮįáĭ³áĭĬ":5082,"Ġáī°áĪ°áĪĽ":5083,"ĠáĪ«áī¥áĭĵáĭŃ":5084,"ĠáĪļáĬªáĬ¤áĪį":5085,"áĬĲáīµáĬĵ":5086,"ĠáĬŃáĪ«áĪĽáīµ":5087,"ĠáĪķáĪīáįį":5088,"áĭĵáī³áīµ":5089,"Ġáī°áĪĺáĪŃ":5090,"Ġáĭ³áĪķ":5091,"Ġáī±áĪª":5092,"ĠáĭĪáĬķ":5093,"ĠáĮĪáĪĬáĮ»":5094,"ĠáĬŃáīµáĪĿ":5095,"áĪīáĭį":5096,"ĠáĭµáĪĮ":5097,"ĠáĭĺáĭŃáĬķáīĢáĪ³áīĲáĪµ":5098,"áĬħ":5099,"ĠáĮĪáĪĬáĬ¦áĪĿ":5100,"ĠáĪ°áĬĲáĭµ":5101,"áĬĸáĬķ":5102,"ĠáĭŃáĪģáĭ³":5103,"ĠáīµáĪµ":5104,"ĠáĭĿáĭĪáĭ°":5105,"ĠáįįáĪīáĮ¥":5106,"ĠáĭĿáĭĪáĮ¸áĪī":5107,"áĬķáīĭ":5108,"ĠáĭĿáĬĵ":5109,"ĠáĭĿáĬ£áī°áĭĪ":5110,"áĬ¥áī±":5111,"Ġáī¥áĪĿáĪĿáĪįáĬ«áīµ":5112,"ĠáĭĪáĪ²áĭ±":5113,"áĬ£áĪĺáĪªáĬ«":5114,"áĬķáĬ©":5115,"ĠáĮĪáĪµ":5116,"ĠáĭĿáī°áĪ¨áĬ½áīł":5117,"ĠáĬ¥áĬ©":5118,"ĠáĬŃáĪ°áĪŃáĪĳ":5119,"áĮįáĪ®":5120,"Ġáĭ°áĭŃ":5121,"ĠáĪįáĪĿáĭĵ":5122,"ĠáĪĿáĪŃáĪĿáĪŃ":5123,"ĠáĮįáĪĿ":5124,"Ġáī°áī³áĪĴ":5125,"ĠáīģáĮ½":5126,"ĠáĪµáĪĪáĭĿáĭĢáĬĲ":5127,"ĠáĮĮáĪŃáĬĵ":5128,"áĪĥáĬĵ":5129,"áĭĳáīķ":5130,"Ġáī¥áĭĺáĭ¨":5131,"ĠáĭĿáĪµáĭķáī¡":5132,"ĠáĬŃáī¥áĪŃáī³áīµ":5133,"ĠáĬ¨áĪĿáĭĿáĬĲáīłáĪ¨":5134,"áĪŃáĪĳ":5135,"ĠáįįáīµáĪķ":5136,"ĠáĭĿáĭĵáĭŃ":5137,"ĠáįĪáĪª":5138,"ĠáĭŃáĪ°":5139,"Ġáī¥áĮ»":5140,"áĬ£áįį":5141,"ĠáĪĵáĭĭ":5142,"áĮĪáĪįáĮ¾":5143,"áįİáĪŃáĭµ":5144,"ĠáĬ¨áĪĪáĬ»":5145,"Ġáī°áĪŀ":5146,"áĮįáĭĺ":5147,"áĭ©áī°áĪŃ":5148,"ĠáĮ¥áĭķáĬĵáĬķ":5149,"Ġáī°áīĲáī£áĪį":5150,"áĪĿáĪĿ":5151,"áĭĿáĬ¾áĬĲ":5152,"ĠáĭįáĪŃáĪ»":5153,"áīłáī³":5154,"Ġáī¥áĪĿáīµáĪķ":5155,"áī°áĬķáī²":5156,"ĠáĪĺáī£áĬ¥áī³":5157,"Ġáī¥áĪ¨áīµ":5158,"áĪĺáĬķáĬ¥áĪ°":5159,"Ġáĭ°áĮĪáįįáī²":5160,"ĠáįĸáĪĬáĪ²":5161,"áĪŃáī³áīµ":5162,"áīħáĭ«":5163,"ĠáĬ£áī¦áĬ¡":5164,"áĪĪáĭ«":5165,"ĠáĭĿáĮĪáĪįáĮ¹":5166,"áĮĬáĭķ":5167,"ĠáĪĿáĪħáĪĭáĭĭ":5168,"Ġáī°áĪ³áīµáįİ":5169,"ĠáĭŃáĬ«áĭ¨áĭµ":5170,"áĪ°áĪµ":5171,"áĭµáĭ©áĪĿ":5172,"ĠáĪµáīµáĪ«":5173,"ĠáĪħáĭĿáī¥áī³áīµ":5174,"ĠáīĢáĪº":5175,"Ġáĭ³áĭķ":5176,"ĠáĬŃáĪŃáĬŃáĪŃ":5177,"áĮ½áī¡áīķ":5178,"ĠáĪ½áĮį":5179,"áīłáĭµ":5180,"áī°áĮĤ":5181,"ĠáīĵáĪį":5182,"áī¥áĪµ":5183,"ĠáĭįáĮ¥áĬķ":5184,"áįĪáĪ©":5185,"ĠáĬ£áĭĿáĭ«":5186,"áįĲáĪŃ":5187,"áĮįáĭĻ":5188,"áĬķáĮĪáĪŃ":5189,"áĪµáĬ®":5190,"ĠáĮ¸áĪĬáĪĿ":5191,"Ġáī£áĪħáĮĬ":5192,"áĬŃáĪĮ":5193,"áĮ¥áīłáī¥":5194,"ĠáĭĿáī¥áĪĥáĪį":5195,"ĠáīĢáĮ»áĪį":5196,"áĬĵáĭĬáīµ":5197,"ĠáĬ¥áĭĪáī³áĭĬ":5198,"Ġáī¥áĭķáĪĪáīµ":5199,"ĠáĭĺáĪį":5200,"ĠáĪĿáĭī":5201,"áĪĽáĭįáĭ«áĬķ":5202,"ĠáĪĺáĬłáĮĪáĭ²":5203,"ĠáĭĿáīĸ":5204,"áĭĿáī¥":5205,"ĠáĭĪáī³":5206,"áĬŃáĪŃáĪµáīµ":5207,"áĬ¨áĪ«":5208,"ĠáĬķáĭĵáĬĵ":5209,"áīĸáīµ":5210,"áĭŃáĪ½":5211,"Ġáī¶áī°áĬķáĪĥáĪĿ":5212,"ĠáĭĿáĪ°áĪŃáĪķ":5213,"áĪ¨áĬ£áĭ©":5214,"ĠáĮ¥áĪĿ":5215,"ĠáĭĿáĪĥáī¥áĭİ":5216,"ĠáĭĿáĪį":5217,"ĠáĬ«áĪįáĬ£áĭŃáī²":5218,"áĬķáĭ³áĭķ":5219,"ĠáĪĭáĭķáĪĪáĭİáīµ":5220,"áĬªáĬķ":5221,"Ġáĭĺáī°áĬ°":5222,"áĪĺáĮ¸":5223,"áīµáīµ":5224,"ĠáīłáĮ»":5225,"ĠáĬ£áĭ²":5226,"ĠáĮĪáĭļáįį":5227,"ĠáĮ¸áĪİáīµ":5228,"áī¢áĪ²":5229,"áĭ¶áĬķ":5230,"ĠáĬ¥áĬķáī°áĭĺáĭŃáīĢáĪª":5231,"ĠáĭĿáĪĺáĪµ":5232,"ĠáĪĺáĪ³áĪŃáĪķ":5233,"ĠáĪĺáĪ²áĪī":5234,"ĠáĬ£áĬ«áĭŃáĭ³":5235,"áĪ«áĭķ":5236,"áī¥áĪŃáĬķ":5237,"ĠáĭĿáįĪáĪįáĮ¥":5238,"áįĬáĪ©":5239,"áī£áī¥áĬķ":5240,"Ġáī°áĮ¸áĭĬ":5241,"Ġáĭ³áĬķáĬ¤áĪį":5242,"áĪįáĬŃáīµ":5243,"Ġáī¥áĪĿáĪĿáĪį":5244,"áĭ®áĪµ":5245,"ĠáĬ£áīłáĪĥ":5246,"áĮįáĭ³áĪµ":5247,"ĠáĬ£áĪ½áĪĵáīµ":5248,"áįĪáĬĲ":5249,"áĪĻáĪ´":5250,"ĠáįĪáĪ¨":5251,"ĠáĮįáĭľáĬķ":5252,"ĠáĪĺáĪĪáĪµ":5253,"ĠáĪħáĪŃ":5254,"ĠáĬ£áĪħáĭĽáī¥":5255,"áĭĽáĪŃ":5256,"ĠáīģáĪ©áī¥":5257,"áĪįáĭ®áĬĵáīµ":5258,"áī£áĪµ":5259,"ĠáĪĺáĭĲ":5260,"ĠáĮĢáĪļáĪ«":5261,"ĠáĪĿáīµáĪķáĮįáĮĭ":5262,"ĠáĭĺáĪµáĪĺáĭĸ":5263,"áĬĲáī¥áĪ©":5264,"áĪ½áĪ½":5265,"Ġáĭ®áĬĵáĪµ":5266,"Ġáī¥áīĳáĭķ":5267,"Ġáī¥áĭĪáĮĪáĬķ":5268,"áĭĿáĭ©":5269,"ĠáĪĺáĭĺáĬĵ":5270,"áĮ¥áįī":5271,"ĠáĭĿáīłáĮ½áĪķ":5272,"ĠáĬ£áĪĿáĮº":5273,"áī°áĬĵ":5274,"ĠáĭĪáĭ±":5275,"áī¥áĪįáĬķ":5276,"áĬŃáĪįáĬĵ":5277,"ĠáĬ£áĪ¨áĮĭáĮĬáĮ¾áĪĿ":5278,"áĮĵáĪį":5279,"áĬķáĭĵ":5280,"ĠáĬ¨áĪĿáĭĺáĪĭ":5281,"áĭĭáĬ½":5282,"Ġáĭ¨áīĲáĬķáĭ¨":5283,"ĠáĬŃáįīáīµ":5284,"áĬ¬áīµ":5285,"áĭµáĪµ":5286,"ĠáĭĺáĮĭáĮ¥":5287,"áĪĺáĪŃáĭĵ":5288,"ĠáĪµáĭķáĪ¨áīµ":5289,"Ġáī°áīĺ":5290,"áīĢáĪ³áīĲ":5291,"áĬ¥áĬķáī°áĭĺáĭŃ":5292,"áĬĵáĭįáĭ«áĬķ":5293,"ĠáĬ£áīµáĪĪáī³áīµ":5294,"Ġáī£áĪ¨áĬķ":5295,"ĠáĪŃáĬ¥áĪ³":5296,"áĭµáĪĽ":5297,"ĠáĪħáĬķáĮ¸":5298,"ĠáĬŃáĪ¨áĪĿáī²":5299,"ĠáĬ£áĮĪáĭ³áĪµáĬĲáīµ":5300,"ĠáĭķáĪĽ":5301,"ĠáĭĺáĬķáĮ¸áī£áĪŃ":5302,"ĠáĪĵáīħ":5303,"ĠáĬ£áĭŃáĪ¨áĬ¸":5304,"áĭĭáĪį":5305,"áīĵáĬķ":5306,"áĬŃáĪįáĬ»":5307,"ĠáĪħáĭŃáĭĪáī±":5308,"ĠáĮİáĪį":5309,"áīłáĭ°":5310,"Ġáī¥áĪŀ":5311,"Ġáī£áĭ¨áĪŃ":5312,"ĠáĮĵáĪĪáĭŃ":5313,"áĭĪáĪĭ":5314,"ĠáĮįáĭ³áĭ«áīµ":5315,"ĠáĭįáĪķ":5316,"ĠáĭĿáĪŃáĭĿáĪŃ":5317,"ĠáĬ®áĪĽáĭĬ":5318,"áĬĶáĪį":5319,"ĠáĬ£áĬĲáĮºáĪ©":5320,"ĠáĬķáĭħáĪī":5321,"áĭįáĮ½":5322,"ĠáĭĿáīµ":5323,"ĠáĬ¥áĬķáī°áĭµáĬ£":5324,"ĠáĬ£áįįáīĥáĪª":5325,"áĮ½áĪķáįį":5326,"Ġáī¥áĪįáĭĳáĪį":5327,"Ġáī¥áĪŃáĮĮ":5328,"áĮ¸áīł":5329,"Ġáīħáĭ²":5330,"ĠáĬ¥áĮįáĭļáĬłáī¥áĪĶáĪŃ":5331,"ĠáĪĵáī¥":5332,"áĬŃáĭ®":5333,"Ġáī°áĬ½áĪĬ":5334,"ĠáĭŃáĪĵáĭŃáĪ½":5335,"áĪĿáĬĲáīµ":5336,"áĮ¹áĮ½":5337,"áĪķáī¥":5338,"ĠáĪĺáĭµáĪ¨":5339,"ĠáĪĺáĪ¸áĮ£":5340,"ĠáĬĲáīĲ":5341,"áĭĺáĪ«":5342,"Ġáī¤áī³":5343,"áĪĥáĪŃáĬķ":5344,"Ġáĭ©áĬĴáī¨áĪŃáĪ²áī²":5345,"áĪķáĬ«":5346,"ĠáĪĿáĪīáĬ£áīµ":5347,"áįĬáīµ":5348,"ĠáĪĺáĪŃáīµáĭĸ":5349,"áĪ®áĪĿáĬķ":5350,"ĠáĮĥáįĵáĬķ":5351,"ĠáĬ¨áĪĿáĭĺáĭ¨áĪĪ":5352,"ĠáĭĿáĪ¨áĬł":5353,"áĭĪáĬ«":5354,"ĠáīµáįĪáĪįáĮ¥":5355,"ĠáĬ£áĪ°áĪ«áĪŃáĪĵ":5356,"ĠáĪĿáī£":5357,"áĪĺáĮ¡":5358,"ĠáĮĪáī¥áĪ¨áĪļáĬ«áĬ¤áĪį":5359,"Ġáī¥áĪĿáīµ":5360,"Ġáī°áĪ¨áĬºáī¡":5361,"ĠáĭĿáĪ¸":5362,"ĠáĭĺáĬ½":5363,"ĠáĭµáĪķáĪªáĬ¡":5364,"ĠáĪ°áĪ«":5365,"Ġáī³áĪªáĬ»áĭĬ":5366,"ĠáĭŃáĬ¹":5367,"áĪħáĪª":5368,"ĠáĬ³":5369,"áĪĽáĮ¦":5370,"ĠáĬ£áĪĪáĭį":5371,"áĪĪáįį":5372,"áĭįáĭĴáīµ":5373,"ĠáĮĪáĭŃáĪ«":5374,"Ġáī¥áīĵ":5375,"Ġáī°áĭĽáĪªáī¡":5376,"áīłáĪŃáīµ":5377,"ĠáĪµáĭ°áī°áĬĽáī³áīµ":5378,"áĪŃáĬ¥áĭ«":5379,"áĬ£áĬ¥áĪĿáĪ®":5380,"áĮĪáĬķáĭĺáī¥":5381,"áĭĪáĪĿáī²":5382,"ĠáĭŃáĪķáīłáĪŃ":5383,"áĬķáī°":5384,"ĠáĭĿáĭĵáĪĪáĪĺ":5385,"áĪ½áĮ£":5386,"áįįáĪŃáĭ²":5387,"ĠáįĬáĪį":5388,"ĠáĭŃáīłáĪĥáĪį":5389,"áīłáĭĵáĪįáī²":5390,"ĠáĭįáĪįáīĥáĭĬ":5391,"Ġáĭ³áĭŃáĪ¨áĬŃáī°áĪŃ":5392,"áĭĥáĬĳ":5393,"Ġáī°áĭĽáĭļáĪĻ":5394,"ĠáĮĪáī¥áĪ¨áĪĺáĭµáĪħáĬķ":5395,"áįĬáĪĳ":5396,"ĠáīħáĬķáĭ«áīµ":5397,"ĠáĬ¥áĬĵáīłáĪĪáīµ":5398,"ĠáĪŃáī¥":5399,"Ġ32":5400,"áĬ¨áī°áĪĽ":5401,"ĠáĬŃáĪĿáĪĪáĪµ":5402,"áīªáĭµ":5403,"ĠáĪµáĬķáĬ©áĪĭáĬķ":5404,"Ġáī°áĪĺáĪĬáĪ±":5405,"áĮįáĪ©":5406,"áīµáĪĪáīµ":5407,"ĠáĭµáĬķáĮį":5408,"áĭ°áīµáĬķ":5409,"ĠáĬ¢áĪ«áĬķ":5410,"ĠáĪ³áĪĻáĬ¤áĪį":5411,"ĠáĭŃáĪŃáĬ¨áī¡":5412,"ĠáīĥáĪĪ":5413,"ĠáĬ£áĪŃáĮĢáĬķáī²":5414,"áĬ£áĪĭ":5415,"ĠáĪĿáĪħáĭŀ":5416,"ĠáĪĺáīłáĮĪáĪ²":5417,"áī£áĪŃáĬ«":5418,"Ġáī¥áĭµáĪķáĪªáĬ¡":5419,"Ġáī¥áĭĿáĭ«áĭ³":5420,"áĪĥáĭ¨":5421,"Ġáĭ°áīĢáĭŃ":5422,"ĠáĪĺáĬķáĮįáĪµáī³áīµ":5423,"ĠáĬķáīĲ":5424,"áĮ£áĭķ":5425,"áĪĥáĪ©":5426,"ĠáĭĿáĪ½":5427,"Ġáĭİ":5428,"áĬķáĪĺ":5429,"áĭŃáĭ±":5430,"ĠáĬ«áĪľ":5431,"áĭŃáīµáĬ¦áĪĿ":5432,"áī³áī³áĪĬ":5433,"áī¥áĪİáĪĿáĬķ":5434,"ĠáĪĵáī°áī°":5435,"ĠáĪĨáī´áĪį":5436,"ĠáĭŃáįĪáĪįáĮ¥":5437,"áĭĪáĪī":5438,"áĬºáĪī":5439,"ĠáĮİáĪµáĮĵ":5440,"Ġáī¥áĪķáĮĬ":5441,"ĠáĬłáī¥":5442,"áī³áī±áĬķ":5443,"áĪ¨áĬĵ":5444,"ĠáĭĿáĬĲáīłáĪŃáĬĵ":5445,"áĬĲáī±áĬķ":5446,"áĮīáĪį":5447,"ĠáĬķáĪĵáĭĭ":5448,"ĠáĮĢáĪļáĪ®áĪĿ":5449,"ĠáĭĿáĭĵáīł":5450,"Ġáĭ²áīªáĭ¥áĬķ":5451,"ĠáĮĪáī¥áĪ¨áĪĤáĭĪáīµ":5452,"ĠáĬŃáĪįáī²áĬ¡":5453,"áī³áī°áĬķ":5454,"ĠáĬ¥áĬĵáĬ¸":5455,"ĠáĭĽáĭķáī£":5456,"ĠáīĢáĪµ":5457,"ĠáĪĿáĮ½áĬĵáĪķ":5458,"ĠáĪĵáĪįáĭ®":5459,"áĭĭáįį":5460,"áĭĭáĮ½áĬ¦":5461,"ĠáĬ£áĮłáīĵ":5462,"ĠáĬ¥áĬķáĬ¨áĪĪáĬĵ":5463,"áĮ¸áĮį":5464,"ĠáĪįáī¦":5465,"áĪķáĭĽ":5466,"ĠáĪĵáįĭáĪ½":5467,"áįĵáī¥áĪĬáĬŃ":5468,"ĠáĭĿáĭĢáĬĲáīµ":5469,"ĠáĪ°áĪĽáĬ¥áī³áīµ":5470,"ĠáĭĿáī£":5471,"Ġáĭ°áĪŃáĮį":5472,"ĠáĭĪáĭŃáĬĴ":5473,"áįĪáĪįáĭ¨":5474,"ĠáĪķáĮ½áĪ¨áīµ":5475,"Ġáīħáī¥áĬ£":5476,"ĠáĪĵáĪĺáĭµáĬķ":5477,"ĠáĬ£áĪĺáĪµ":5478,"ĠáĬķáī¥áĭĵáīµ":5479,"Ġáįĭáī¥áĪªáĬ«":5480,"áĪĪáĬ½":5481,"ĠáĭĺáĭŃáįĪáĪįáĮ¥":5482,"áĪĭáĭķáĪĪ":5483,"áĪ°áĪµáī²":5484,"ĠáĪ¨áĭµ":5485,"Ġáī°áĪĭáī¥áĭ©":5486,"ĠáĬ£áī¥áĬ£":5487,"Ġáī¥áĭĪáĮĪáĬĸáĪĿ":5488,"Ġ2011":5489,"Ġáĭ°áĪ«áĪ²":5490,"Ġáī¥áĬ¸áĪĿáĭļ":5491,"ĠáĪĺáĪĪáĪ°":5492,"Ġáīº":5493,"ĠáĪ°áĪĺáĪ¨":5494,"ĠáĬŃáĭĽáĪ¨áī¥":5495,"Ġáī£áĭķáĪį":5496,"Ġáī¦áĮ¦áĪİáĬĴ":5497,"Ġáī¥áĭĪáĮįáĭĴ":5498,"ĠáĬķáĭ°áīĤ":5499,"ĠáĬ£áĪ°áĪŃ":5500,"ĠáĪµáĬŃáįįáī³":5501,"áĪħáĭ®":5502,"ĠáįĭáĪķ":5503,"ĠáĪĺáĪŃáĪĥáĭĬ":5504,"áĬķáĮ«":5505,"áī³áĭįáĭ«áĬķ":5506,"ĠáĭĿáīĲáĮ¸áĪĪ":5507,"ĠáĬ£áĪĺáĪĵáĭ³áĪª":5508,"áĪµáĪ«áĪķ":5509,"ĠáĮ£áĭķ":5510,"ĠáĭĿáĭ³":5511,"ĠáĭµáĪĴáĪ©":5512,"Ġáī°áĪ³áī°áįįáī²":5513,"ĠáĭĪáĭ«áĬĲ":5514,"Ġáīĺ":5515,"ĠáĪ¨áĪ²":5516,"ĠáĭĿáĬ¾áĬĵ":5517,"ĠáĮ¾áī³":5518,"áĪŃáĪĿáĭ«áĪµ":5519,"áī¹áĬ¥":5520,"ĠáĬ®áĪļáĪ½áĬķ":5521,"ĠáĪŃáĬŃáī£áīµ":5522,"áĪĪáĪ°":5523,"ĠáĬ¥áĬķáĬ½áĬ¥áĪį":5524,"ĠáĬĵáī¥áĭļ":5525,"áĭ°áĪŃáī²":5526,"ĠáĭĺáĭŃáĬŃ":5527,"ĠáĪħáĭŃáĭĪáīµáĬĵ":5528,"ĠáĭĿáįĪáīµ":5529,"ĠáĭĿáī¥áĪİ":5530,"ĠáĪĵáĭĺ":5531,"Ġáī°áĭĪáĪ²":5532,"ĠáĬ¥áĪµáĬ¨":5533,"Ġáī³áĭ°áĪ°":5534,"áĭµáĭİ":5535,"áĮłáĪĿ":5536,"áĭĪáĪ°áĬĲ":5537,"áĭķáĭİ":5538,"áĪŃáĬ©áĪĿ":5539,"ĠáĭĿáĪŃáĪŃáī¥":5540,"Ġáī¥áĭĿáĬ¾áĬĲ":5541,"ĠáĭĵáĭĪáī³áīµ":5542,"ĠáĬķáĪ½":5543,"áĮķáĪĿ":5544,"Ġáĭ°áĪŃáįį":5545,"áĬ¢áĬķ":5546,"ĠáĮłáī£":5547,"ĠáĬķáĬĲáįį":5548,"áĬ©áĪµ":5549,"ĠáĪķáĬŃáĪĿáĬĵáĭĬ":5550,"ĠáĪĿáĭµáĪĭáĭĭáīµ":5551,"49":5552,"áīłáĪĥ":5553,"Ġ70":5554,"ĠáĮ´áĮ¥áĪ®áĪµ":5555,"áīķáĬĵ":5556,"ĠáĭĿáĪķáĮįáĭĿ":5557,"ĠáĪĿáĭµáī¥":5558,"ĠáĭĺáĭŃáĬĲáīłáĪ¨":5559,"ĠáĬķáīĳ":5560,"ĠáĪħáĭŃáĭĪáī¶áĪĿ":5561,"ĠáĬ¥áĬķáĮįáĪĬáĭĽ":5562,"ĠáĬķáĮīáĪ°":5563,"ĠáĬ®áĪİ":5564,"áĭĪáĭ°":5565,"ĠáĪ½áĮĭáĪ«":5566,"áĮįáī£áĬ¥áĬķ":5567,"ĠáīħáĪĭáĭķ":5568,"áĪĺáī°áĬ¤":5569,"ĠáįĵáĪŃ":5570,"ĠáĪĺáĪ³áĪŃáĪĴáī³áīµ":5571,"ĠáĮ¥áĬķáĪ²":5572,"áĪĵáī¥":5573,"ĠáĪŀáĭŃ":5574,"ĠáĪµáĪĴ":5575,"ĠáĪĵáīłáĪ¬áī³áĬķ":5576,"ĠáĮ¸áĭĬáĭĳ":5577,"ĠáĬ£áĭµáĪ«áĪ»":5578,"áĮįáĪį":5579,"ĠáĬ£áĭĴáĬķ":5580,"áĭ°áĮĪáĬĵ":5581,"ĠáĬĵáĭįáī²":5582,"áīķáĪĽ":5583,"ĠáĪĵáĪĭáįį":5584,"ĠáĬ£áīłáĪŃáī²":5585,"áĬ«áī¥áī²":5586,"ĠáĪµáĪ©áĭķ":5587,"ĠáĪĿáĪµáĪĭ":5588,"Ġáī°áĪ°áĪĿ":5589,"ĠáĮĪáī¥áĪ¨áĪµáĪĭáĪ´":5590,"áĪµáįĸ":5591,"ĠáĬ¥áĬĵáĪĥ":5592,"ĠáĮĢáĪļáĪ¨":5593,"Ġáī¥áĭĵáĭĪáīµ":5594,"ĠáĪĵáī¢áĪ«":5595,"ĠáĪĿáįįáĪĭáĮ¥":5596,"ĠáĬ£áĭĴáĬķáī±":5597,"Ġáī°áĭĵáĭĺáī¥áī²":5598,"ĠáĬ¥áĬĵáĪĵ":5599,"ĠáĪĿáĭįáĪ³":5600,"áĮ½áĭķáĪŃ":5601,"ĠáĮįáĬĵáĬ¸":5602,"ĠáĭĿáĬ¸áĬ£áĪĪ":5603,"áĪµáĪ³áĪŃ":5604,"áĮłáĪĽ":5605,"ĠáĮ½áĬĳáĭķ":5606,"ĠáĭĿáĪĵáīłáĪ¨":5607,"áĪµáī¥":5608,"áĭ°áīĢ":5609,"áī¥áī£áĭķ":5610,"ĠáĪįáĪĿáĭĵáī³áĭĬ":5611,"áĪŃáĭŀ":5612,"ĠáĭĿáĪķáī¥áĪŃ":5613,"áī£áĪĴáī±":5614,"ĠáĪļáĬ«áĬ¤áĪį":5615,"áĬ£áĪĺáĪĵ":5616,"áĬŃáī³áĪŃ":5617,"ĠáĪķáĮį":5618,"Ġáī°áĪ½áĬ¨":5619,"ĠáĪĤáĭĪ":5620,"Ġáī¥áĪµáĪ«áīµ":5621,"ĠáĬķáĬ£áĪµáī³áīµ":5622,"Ġáĭĺáī°áĬ°áĪ¨":5623,"áĪĺáĭĵáĬĴ":5624,"ĠáĮģáī¬":5625,"ĠáĪĺáĬķáĬĲáīµ":5626,"áĪĥáĭ°áĪ«áĭĬ":5627,"ĠáĬ¥áĬ®":5628,"Ġáĭ°áĪ¨":5629,"ĠáĮŃáĬķáīĢ":5630,"ĠáĪĿáĪ³áĬ»":5631,"ĠáĬķáīķáĭµáĪļ":5632,"ĠáĪ¨áīĽáĪĴáī³áīµ":5633,"ĠáĪĵáĬ«áĭŃáĪĿ":5634,"Ġáī¥áĪĵáĭµáĪ½":5635,"ĠáĪĺáĮ¥áī£áĪķáī²":5636,"ĠáĭĿáĮłáįį":5637,"áĭŃáĪŃ":5638,"ĠáĬķáĪįáĭķáĪĬ":5639,"áī¥áĪ°áĬķ":5640,"áį¡áį¡":5641,"ĠáĭļáĪŃáĬ¨áī¥":5642,"ĠáĬ¥áĬ½áĪĬ":5643,"áī¡áĭķ":5644,"áĬªáĭ³áĬķ":5645,"ĠáĬ£áĭĭáĪįáĭµ":5646,"ĠáĬłáĪİ":5647,"áĬĵáĮ½áĬĲáīµ":5648,"áĭ°áĪįáĬķ":5649,"ĠáĮĨáĬķ":5650,"áĪĪáĮ¡":5651,"ĠáĬ¨áĪµ":5652,"ĠáĮįáĭ´":5653,"áĪ¬áĪĿ":5654,"ĠáĬ¨áĪĿáĭĿáĭĵ":5655,"áī£áĬ¥":5656,"ĠáĪµáĬĴ":5657,"áĬķáĪĵáĭ°":5658,"ĠáīĢáĪįáĮ¢áįī":5659,"áīłáĪŃáĬ©":5660,"áī°áī£áĭķáīµáĭ®":5661,"áĭĵáīłáīµ":5662,"ĠáĭĵáĪ«áīµ":5663,"ĠáįįáīķáĪŃáĬķ":5664,"ĠáĪĥáī¥áī³áĪĿ":5665,"áĪĬáĬ¡":5666,"ĠáĬ£áĪ²":5667,"ĠáĮ¸áĮī":5668,"áī°áĪµáįĭ":5669,"ĠáĮ¥áĭķáĬĵáĭĬ":5670,"áĪ©áĪĿ":5671,"ĠáĪĺáĭĭáĬ¥":5672,"áĭķáĭĺ":5673,"ĠáĭĺáĮĭáĮ¥áĪĿ":5674,"ĠáĮįáĪ«áīµ":5675,"áī±áĪĿ":5676,"áĭ°áĪĿáī³":5677,"Ġáĭ°áīłáĪ³áĭŃ":5678,"áĭ°áĪĻ":5679,"áįįáīķáĪª":5680,"áĭµáĬ¡":5681,"ĠáĮĪáĮ¢":5682,"áĮ¸áĭŃ":5683,"ĠáĪĺáĮĢáĪĺáĪŃáĭ«":5684,"ĠáīĬáĮ½áĪª":5685,"áĬ£áī¥áī³":5686,"áįĬáĪį":5687,"ĠáĮ¥áĪ¨":5688,"ĠáĬķáįĪáĪĪáĪĽ":5689,"áĪħáĭŃáĭĪáīµ":5690,"áĪ°áĪĿáĭĵ":5691,"ĠáĪº":5692,"ĠáĬ£áĪķáĪĬ":5693,"ĠáĮ¾áī³áĭĬ":5694,"ĠáĪĿáĪŃáĮįáĮĭáĮ½":5695,"ĠáĬ£áĪ¸":5696,"Ġáī¢áī¢áĪ²":5697,"ĠáĮĬáĬķáĭ³áĭķ":5698,"ĠáīµáĮĪáĪįáĮ½":5699,"áĬŃáĪŃáĪµáī¶áĪµ":5700,"ĠáĬ¥áĪµáĮ³áĬĽ":5701,"Ġáī¬":5702,"Ġáī´áĪĽ":5703,"Ġáī¥áīĲáĭ³áĪĿáĬĲáīµ":5704,"áĪĭáĪµáĬķ":5705,"Ġáĭ°áĪ¨áīµ":5706,"ĠáĬŃáĪŃáĬł":5707,"Ġáī°áĭĵáĭĭ":5708,"ĠáĪ«áĪħ":5709,"ĠáįĪáĮ¢áĪ©":5710,"ĠáĮ¨áĬĵ":5711,"ĠáĮ½áĬķáī¥áĪį":5712,"Ġáī£áĪ¨áĬķáī±":5713,"ĠáĬ¥áĬķáĭµáĭ©":5714,"ĠáĭĺáĪĲ":5715,"Ġáī°áĭĪáįĭáĭŃ":5716,"ĠáĬ¥áī¶áīµ":5717,"ĠáĪįáĭķáĪĬáĬ¡":5718,"áĪ¨áĮĭáĮĪáĮ½":5719,"Ġáī³áĭŃ":5720,"áĪĺáĬĲ":5721,"ĠáĪĺáĬķáīłáĪŃ":5722,"ĠáįĪáīµ":5723,"Ġ196":5724,"ĠáĬķáĭ°áĪĵáĪŃ":5725,"ĠáĭĺáĭµáĪįáĭ®":5726,"Ġ2010":5727,"Ġáī°áĪµáįĭáĪļáĬ«áĬ¤áĪį":5728,"Ġáī¥áĭĵáī¢áĬ¡":5729,"áĪ«áĬ¸áī¥":5730,"ĠáĪĵáĮİ":5731,"ĠáĭĪáĮįáĭĵáĭĬ":5732,"áĭĺáĭĿ":5733,"Ġáī°áīĲáī£áĪįáĬĲáīµ":5734,"ĠáĭļáĬ½áĬ¥áĪį":5735,"ĠáĬĲáĭŃáĪ¨áĬķ":5736,"ĠáĪĿáĭĥáĬĳáĬķ":5737,"Ġáī¡áĬķ":5738,"áīĤáīķ":5739,"áĪŃáĬ¨áī£":5740,"Ġáī¥áĭįáĪķ":5741,"ĠáĭĤ":5742,"áĬ¥áĭİ":5743,"áĪŃáĬĵáĭķ":5744,"áĬ¨áĪĪ":5745,"áĮ¸áĮĪ":5746,"ĠáĭĺáĪİáĬķ":5747,"áĪĮáĭ³":5748,"ĠáĬ£áĮĭáĮ£áĪļáī³áīµ":5749,"ĠáĬķáĪµáĬ»áīµáĬ©áĪĿ":5750,"ĠáĭĴáĪ«áīķ":5751,"áĪŃáī£":5752,"Ġáī°áĭĵáĭļ":5753,"áĪ¨áĬ½áī£":5754,"Ġáĭĵáī¥áĭ±":5755,"áĮĭáĮĪáĪŃ":5756,"ĠáīłáĪª":5757,"ĠáĬ£áĭŃáĬĲáīłáĪ®áĬķ":5758,"ĠáīµáĪį":5759,"áĪĿáĪī":5760,"áĭĬáĪµ":5761,"Ġ80":5762,"ĠáĪħáĪŀáīµ":5763,"áĭķáĪįáĪį":5764,"áĮ»áĪ©":5765,"ĠáĭĵáĬķáīĢáĮ½":5766,"Ġáī¥áĪįáĬŃáĭķ":5767,"ĠáĪµáī³áĭµáĭ©áĪĿ":5768,"ĠáĭĵáĪ¨":5769,"Ġáįĵáī¥áĪĬáĬŃ":5770,"ĠáĭĿáĬ«áĭ¨":5771,"ĠáĭĭáĪħáĭ®":5772,"ĠáĬŃáĪŃáĬ¨áī¥":5773,"ĠáĪĺáĬ¸áī°":5774,"áĬ«áĪµ":5775,"ĠáĬ£áīłáĪŃ":5776,"ĠáĬ£áī¢áĪİáĪĿ":5777,"ĠáĭĿáī°áįĪáĮ¸áĪĺ":5778,"áĬ£áĬ¸":5779,"Ġáī¥áĪŀáīµ":5780,"Ġáī¥áĪĿáĪī":5781,"ĠáĬ£áĭĽáĭļ":5782,"ĠáĭįáĭĴ":5783,"ĠáīĢáī¢":5784,"áĭµáĬ¦":5785,"ĠáĬķáįī":5786,"áĪķáĪŃ":5787,"ĠáīµáĪ½":5788,"ĠáĪĿáĪĭáĪ½":5789,"ĠáĬ¢áĪĪáĬķ":5790,"ĠáĬ¥áĬķáī°áĭĢáĭŃáĬĳ":5791,"ĠáĬ£áĬķáī¢":5792,"ĠáĬĲáī¥áĪ°":5793,"ĠáĭŃáĮįáīłáĪŃ":5794,"Ġáī¥áĭµáĪĨáī³áīµ":5795,"ĠáĬŃáĪ³áĪ«":5796,"ĠáįĪáī°áĭįáīµáĬķ":5797,"Ġáī°áĮ¸áĪļ":5798,"áĪ¸áĪį":5799,"ĠáĪĺáĭ°áĪĿ":5800,"ĠáĪĵáĪĪáĭĭ":5801,"Ġáī°áĬ¸áĪµáī°":5802,"ĠáĪµáĪŃáĪĳ":5803,"áĪ¨áī¦":5804,"ĠáĭĿáīĺ":5805,"áĭĵáīķ":5806,"áĪĭáĪĬ":5807,"ĠáĪļáĭĽáĬķ":5808,"áĮĪáĪįáĮįáĪī":5809,"Ġáī¥áĪĦ":5810,"Ġáī°áĪĽáĪĥáĪ«áĭŃ":5811,"ĠáĭĪáĪ°áĬķ":5812,"ĠáĪĪáĪĿ":5813,"áĭ°áĪĺ":5814,"ĠáĮ¸áĪĭáĪĿ":5815,"áĬ®áĪµ":5816,"ĠáĬķáĬ½áĪįáī°":5817,"áĮ¸áī¥":5818,"áĪĽáĭµ":5819,"ĠáĬĵáĭŃáĮĢáĪŃáĭ«":5820,"áĭ³áĪļ":5821,"áĪŃáĮįáĪĲ":5822,"Ġáĭĵáī¥áĭ°áĪį":5823,"ĠáĬ£áĪĿáī£áĪ³áĭ°áĪŃ":5824,"áįĬáĬŃ":5825,"Ġáī«áĬķ":5826,"ĠáĪĺáĪ°áĬĵ":5827,"ĠáĬ¨áĬ¨áĪĿ":5828,"Ġáī°áĬķáĪ²":5829,"áĮ¥áĪ©":5830,"áĪħáĬĵáīµ":5831,"ĠáĭĪáĬªáĪī":5832,"ĠáĪ²áīªáĪĭáĭĬ":5833,"áī°áīĲ":5834,"ĠáīĨáĪįáĭĳ":5835,"áĭįáĭĿ":5836,"Ġáĭ°áīĥ":5837,"ĠáĪĿáĭµáĬķ":5838,"ĠáĬŃáĮ»áĭĪáīµ":5839,"áĪ«áĭŃáĬķ":5840,"ĠáĮłáĪĺáī°":5841,"Ġáī°áĭ³áĪį":5842,"ĠáĮĲáĭ°áĬĵ":5843,"ĠáīħáĪįáĮ¡áįį":5844,"Ġáī°áĪĺáĬ©áĪ®":5845,"ĠáĬ£áĭ±":5846,"ĠáĭĿáĮħáĪĿáĪŃ":5847,"Ġáī°áĬ»áĭªáĭ±":5848,"Ġáĭĵáĭµ":5849,"ĠáĮİáĪ¨":5850,"ĠáĪķáĪŃáĪ»áĭĬ":5851,"ĠáīłáĪĪáĬĴ":5852,"ĠáĪµáīµáĪ«áī°áĮĤ":5853,"áĪľáĪªáĬ«":5854,"ĠáĭĵáĪŃáī¢":5855,"Ġáī¥áī´áĪĮáįİáĬķ":5856,"ĠáĬ£áĭ³áĪĿ":5857,"ĠáĬķáĪĿáĪħ":5858,"áĬ«áī¥áĭļ":5859,"áĮ½áĪĬ":5860,"Ġáĭ¨áī¥áĪİáĪĿáĬķ":5861,"ĠáĬ®áĪĿáįĴ":5862,"ĠáĪ½áĬ®áĪŃ":5863,"Ġáī°áĪ³áī²":5864,"ĠáĮĭáĪ»":5865,"ĠáĮķáĭ³áĭŃ":5866,"ĠáĬ£áĭįáī¶áī¡áĪµ":5867,"ĠáĬĲáĭŃáĪŃáĬĵ":5868,"áĪµáĪ«áĬ¤áĪį":5869,"ĠáĪĦáĬŃáī³áĪŃ":5870,"ĠáĬ£áīµáĪĪáī²áĬ®":5871,"áĬ£áī°":5872,"Ġáĭµáĭ«":5873,"ĠáĪĥáĪį":5874,"áĪ°áĪ«áĭĬáīµ":5875,"áĪĴáĪŃ":5876,"áĬķáīĢáĪ³":5877,"áĭĺáĭĺ":5878,"Ġáī°áĮ«áĪ¨áīµáī²":5879,"áĮ¥áīĥáĭķ":5880,"áĪĿáī£áĪ²":5881,"ĠáĮ»áĭįáĭĴáīµ":5882,"ĠáĪ°áĪİ":5883,"ĠáĬŃáĬĲáī¥áĪŃ":5884,"ĠáĪĿáĪ³áĬĵ":5885,"Ġáī¥áĭĺáĭ¨áĮĪáĭµáĪµ":5886,"ĠáĭĿáīłáĪĭ":5887,"ĠáįįáĪįáĮłáīµáĬķ":5888,"áĭµáĬ£áīµ":5889,"Ġáī°áīĲáĪļ":5890,"áīĲáĪŃáī¥":5891,"áĬºáīµ":5892,"ĠáĪ½áĪĿ":5893,"áĪŃáĭ³áĬĸáĪµ":5894,"ĠáĬ£áĭ´":5895,"áĪ¨áĮ¸":5896,"áĭ°áĪĵáĬķ":5897,"áīµáĬķáĪ³":5898,"ĠáĬ£áĪµáī°áĭĭáĮ½áĬ¦":5899,"ĠáĭķáĪĪáī°":5900,"ĠáĬ£áīłáĪĥáĪħáĪĭ":5901,"ĠáĬĲáī¥áĪ°áĭŃ":5902,"ĠáĭĿáĮİ":5903,"ĠáĪĿáĪµáĪĽáĭķ":5904,"Ġ...":5905,"ĠáĬ»áĪįáĬ¥":5906,"ĠáĬ°áĭŃáĬĲ":5907,"ĠáĬ£áĮĪáī£":5908,"ĠáĮĪáĪĬáĬ¡":5909,"ĠáĪŃáī¥áĭĴ":5910,"áĬĲáĬķáī²":5911,"áĮĭáĬĳ":5912,"áĪ³áĪ°áĪŃ":5913,"ĠáĭŃáĬ¥":5914,"ĠáĪĺáĭļ":5915,"ĠáĭĺáĪĪáĬĴ":5916,"Ġáī°áĮ»áĭĬ":5917,"ĠáĪªáįĵáī¥áĪĬáĬŃ":5918,"ĠáĭĻáĪŃ":5919,"áĪĿáī¥áīĨ":5920,"Ġáī¥áī£áĪħ":5921,"áĭįáī°áĪŃ":5922,"áĮĭáī¥":5923,"ĠáĪķáĬķ":5924,"áī¦áī³":5925,"ĠáĬķáĪ¸":5926,"áĭ±áĪ³áīµ":5927,"ĠáĪ³áĪķáĪį":5928,"Ġáī°áĬķáī°áĬķáī²":5929,"ĠáĪµáĭĭ":5930,"ĠáĬªáĪİáĪľáī°áĪŃ":5931,"ĠáĬ¥áĬķáĬŃ":5932,"ĠáĬ£áĪİáĬ¹":5933,"ĠáĮłáī£áĭŃ":5934,"ĠáĪĽáĪħáĪ°áĭŃáī²":5935,"áĭŃáĬķáĬĵ":5936,"áĭįáĭĵáĪį":5937,"ĠáĪĺáī°áĬ«":5938,"áī¥áĬ©":5939,"ĠáĬĲáī£áĪª":5940,"ĠáĬŃáĬķáĮĪáī¥áĪŃ":5941,"áī¥áĬ¸":5942,"ĠáĪµáĭį":5943,"ĠáĪĺáĪŃáĬ£áĭ«":5944,"Ġáĭ¨áĪ¨áĭµáĬ¥":5945,"ĠáĬ©áĬĲáīµ":5946,"áĪµáĭ«áĬķ":5947,"áĬĲáĭŃáī²":5948,"ĠáĮ«áįį":5949,"ĠáĬĵáīłáĭŃ":5950,"ĠáĪµáįįáĪĵáīµ":5951,"áĭ¨áĪ¨":5952,"ĠáĪ¨áĬ£áĭ¨":5953,"ĠáīħáĭµáĪļáīµ":5954,"áĪĻáĪ½áī°":5955,"ĠáĮįáĪŃáĪĽ":5956,"áĭ°áĪĪáĭ¨":5957,"áĪįáĪĭáįį":5958,"ĠáĮįáĪ«":5959,"ĠáĬķáĪĿáī£áĪį":5960,"ĠáĬŃáīłáĮ½áĪķ":5961,"ĠáĬĲáĮ»":5962,"ĠáĮįáīłáĪŃ":5963,"ĠáĪĥáī¥áī¶áĪĿ":5964,"ĠáįĪáĮ£áĪª":5965,"ĠáĮłáĪĪáī¥":5966,"áĭ°áĬ¤":5967,"áĮĭáĭĿ":5968,"ĠáįĶ":5969,"ĠáĪ¾":5970,"áĭµáĭµ":5971,"Ġáī°áĪĺáĭĿáĮĬáī¡":5972,"áĮįáĬ¡":5973,"ĠáĪŃáĭ±áĬ¥":5974,"ĠáĭĿáīłáĪĪáīµ":5975,"áĮįáī£áĪ¨":5976,"ĠáĭĿáīĲáĪŃáī¥":5977,"áĪĵáĪ³áī¥":5978,"ĠáĮĪáī¥áĪŃ":5979,"áĪ´áĬķ":5980,"áĪµáīµáĪ«áĪįáĭ«":5981,"ĠáĪ°áĪĪáĭĿ":5982,"áīłáĪİáĪĿ":5983,"ĠáĭĿáįĪáĮ¥áĪŃ":5984,"ĠáĭĺáĭŃáĬ®":5985,"áĬ£áīĲ":5986,"ĠáĭĿáĪħáĪī":5987,"ĠáĬķáĬº":5988,"ĠáĭĵáĪ«":5989,"Ġáīłáī¶áĪĿ":5990,"Ġ33":5991,"ĠáĬķáĭĿáĬĲáīłáĪ¨":5992,"ĠáĮĪáīłáĬĲ":5993,"ĠáĭŃáīµáĪ¨áįį":5994,"áĬķáĬ¥":5995,"áĪĥáī¥áī²":5996,"ĠáĬķáĪĺáĪµ":5997,"ĠáĮįáĮŃáīµ":5998,"áĭĭáĮĭ":5999,"áĪŃáĬ¨áī¦":6000,"ĠáĬ¥áĮįáĭļáĬ£áī¥áĪĶáĪŃ":6001,"áĭĽáĭĿ":6002,"ĠáĬ¤áĪª":6003,"ĠáĪµáĮķ":6004,"ĠáĬķáĪĿáĭĿ":6005,"áīłáĪįáĬĵ":6006,"ĠáĬĲáīłáĪ«":6007,"Ġáĭ©áĬŃ":6008,"ĠáĮİáĭŃáīµáĬ¦áĪĿ":6009,"ĠáĪĵáĪ«áĮħ":6010,"ĠáĪŀáĬķáĮİ":6011,"áįįáĪ«":6012,"áĮįáī¦":6013,"ĠáĬ¥áĬĵáĭĵ":6014,"ĠáĪĺáī¥áĮ½":6015,"ĠáĬŃáĮ¸áĬķáĪķ":6016,"áī³áīµáĬ«":6017,"áī¥áĪĥ":6018,"áĬ¨áĪ¨":6019,"Ġ36":6020,"ĠáĮĪáī¥áĪ¨áĪĺáĪµáīĢáĪį":6021,"ĠáĬ®áĪļáī°":6022,"áįĪáĪ¨áĬķ":6023,"ĠáĮĵáĪĪáĬķ":6024,"ĠáĭĵáĪŃáĬ¨áĭŃ":6025,"ĠáĪħáĪĭáĭĪ":6026,"áįįáīĢ":6027,"áįĸáĪĬáĪµ":6028,"áĭĽáīµ":6029,"ĠáĪķáĮĭ":6030,"ĠáĮłáĪĺ":6031,"ĠáĪ°áĪĽáĭ«áīµ":6032,"ĠáĬĳáĬŃáĪĮ":6033,"ĠáĪĿáĮŃ":6034,"áĪĺáĭ°":6035,"áĬ¾áĬĵ":6036,"ĠáĬķáī¥áĭĻáĪĵáīµ":6037,"ĠáĭĵáĮ½":6038,"Ġáī°áī£áĪĤáĪİáĪĿ":6039,"áī¨áĬķ":6040,"Ġáī¥áĪ¸":6041,"áĪ®áĪµ":6042,"ĠáĬ®áĭŃáĬĲáĬķ":6043,"ĠáĬ£áĭ³áĪ«áĪ½":6044,"ĠáĬ£áī¥áī°áĬķ":6045,"ĠáĬķáĪħáĭĿ":6046,"ĠáĮīáĮħáĪĪáī³áīµ":6047,"ĠáĭĿáĪĵáĪĪáįī":6048,"ĠáĬ£áĪĿáĪŃ":6049,"ĠáĮĢáĪĺáĪ¨áīµ":6050,"ĠáĭķáĬķáĭĪáīµ":6051,"ĠáĬ®áĭŃáĬĲ":6052,"áĮĲáĭĵáĭĿ":6053,"áīµáĬ¡":6054,"**":6055,"Ġ90":6056,"ĠáĬ£áĬ¨áįĭáįĭáĪĬ":6057,"áĪįáī³":6058,"áīłáĮ¥":6059,"áī¥áĬĵáĭ®":6060,"Ġáĭ¨áī¥áĪįáĬĵáĬķ":6061,"ĠáĪĽáĬªáĬĵ":6062,"ĠáĭµáĪķáĬĲáīµáĬķ":6063,"ĠáĪĺáī³áĬķ":6064,"ĠáĪħáĭ«áĭį":6065,"ĠáĪĿáĭķáĪ«áįį":6066,"Ġáī°áĮĪáĬķáĭļ":6067,"Ġáī¥áĪĺáĪµ":6068,"áįįáĭİ":6069,"ĠáĬ¥áĬķáī°áĪ¨":6070,"Ġáĭįáīħáĭ«":6071,"Ġáĭ³áĬĴáĬ¤áĪį":6072,"áĪĺáĭĿáĮįáī¥":6073,"áĪķáī¶":6074,"ĠáĪŀáĪ«":6075,"Ġáī°áĭĭáĪ³":6076,"ĠáĪ°áĬĲáĭ³áīµ":6077,"Ġáĭįáĭ³áīł":6078,"ĠáĬ«áĬķ":6079,"ĠáĮĪáĬĲáīµ":6080,"ĠáĬ¤áĭ°áĬķ":6081,"ĠáĪĺáĬķáĬ¥áĪ°áĭ«áīµáĬķ":6082,"áĭįáĭĳ":6083,"Ġáĭ°áĪ¨áĮĥáī³áīµ":6084,"áĮ¥áī³áĭĬ":6085,"ĠáĬŃáĬķáĬŃáĬķ":6086,"Ġáī¥áįįáĪīáĭŃ":6087,"Ġáī°áĭĵáĭĬáī³":6088,"áĭ±áīķ":6089,"áĬ«áĪįáĬ£áĭŃ":6090,"ĠáĬĲáī¥áĪ²":6091,"áĬ«áĭŃáĭ³":6092,"ĠáĬ£áĭŃáĮįáī£áĬ¥áĬķ":6093,"ĠáĮĪáī¥áĪ¨áĪĽáĪŃáĭ«áĪĿ":6094,"ĠáīłáĪįáĬ©":6095,"ĠáĮĢáĪĺáĪ©":6096,"ĠáĪĺáĭ°áĪĿáĭ°áĪĿáī³":6097,"ĠáĬ£áĭĪ":6098,"Ġáī£áĭŃ":6099,"ĠáĬķáĪµáĭµáĪ«":6100,"ĠáĮĪáī¥áĪ©":6101,"ĠáĭĿáī°áīłáĮĪ":6102,"ĠáĮ¡":6103,"Ġáī°áĪ°áĬĲáĭŃ":6104,"ĠáĪĻáīĲáīµ":6105,"?'":6106,"áĭ°áĪİáĪĿ":6107,"ĠáĬ£áĭŃáĬª":6108,"ĠáĭĿáĪķáī¥áĪ©":6109,"Ġáī°áī£áĭķáī³áĭŃ":6110,"Ġáī¥áĮ½áī¡áīķ":6111,"ĠáĪĺáĪĿáĪħáĪ«áĬķ":6112,"Ġáįī":6113,"áĭĭáĬĵ":6114,"ĠáĪĿáĭįáĪ³áĭµ":6115,"ĠáĬ´áĬķáĬ«":6116,"Ġáī¥áĮĪ":6117,"ĠáĪĿáĪŃáĪĿ":6118,"ĠáĭµáĪĿáĮ»":6119,"ĠáĬŃáī¥áĭ°áīµ":6120,"áĮįáī¢":6121,"áĮłáī¥":6122,"Ġáī¥áīģáĮ½áĪª":6123,"áĮ¢áĪŃ":6124,"!'":6125,"ĠáĭĿáĪ°áĪŃáĪĳ":6126,"áĪ³áĪĭ":6127,"Ġáī°áīĲáĪĽáĮ¦":6128,"ĠáĬŃáįĪáĪįáĮ¥":6129,"áĭĺáī¡":6130,"áĬķáĭ°áĬķ":6131,"áīłáĪįáĭķ":6132,"ĠáĬ£áĬ«áĭ¨":6133,"ĠáĭŃáĪŃ":6134,"ĠáĪĥáĮĪáĪ«áĭįáĭ«áĬķ":6135,"ĠáĪĿáĪħáĬĵáĮ½":6136,"ĠáĬ£áĪ¨áĮĭáĮĬáĮ¹":6137,"ĠáĭĺáĬ«áĭ¨áĭµ":6138,"ĠáįĪáĪ³áĪ²":6139,"ĠáĬķáĬ¥áĮį":6140,"ĠáĬŃáĬ¥áĪĪ":6141,"áĬ¦áĪį":6142,"ĠáĮ¨áĭį":6143,"ĠáĪĺáĭµáĪĥáĬĴ":6144,"áĪĽáĪķáīłáĪŃ":6145,"ĠáĭĿáī°áĪ°áĪŃáĪĲ":6146,"áĬ¨áĪµ":6147,"áĭĻáĭĿ":6148,"áĪ¨áĬ½áīłáĪī":6149,"ĠáĬ£áįįáĪĬáĮ£":6150,"ĠáĭĿáī°áĪ¨áĬ½áī¡":6151,"ĠáĬ¤áĪįáĭ«":6152,"áī¥áĪ«áīķ":6153,"Ġáī°áīłáĮĬáĪ±":6154,"Ġáī¢áĪ«":6155,"Ġáī°áĬ»áĭŃáĭ±":6156,"ĠáĬ£áīµáĪĪáīµ":6157,"áĭįáĪĭ":6158,"ĠáĪĵáĪ°":6159,"áĭ¨áĪĽ":6160,"ĠáĪĿáĭĥáĬĲáĬķ":6161,"áĮ½áĪĳáįį":6162,"ĠáĪĺáĮī":6163,"áĪĭáĪķáī³":6164,"ĠáĬ¥áĬķáĬ¨áĪĪáĬ»":6165,"áĭĵáĪĪáĪĿ":6166,"áĪĬáĮĭ":6167,"ĠáĭĺáĭŃáī¥":6168,"ĠáĬ¥áĬķáĬ¨áĪĪáĭĭ":6169,"39":6170,"ĠáĪĿáĬ½áĬķáĭ«áī³áīµ":6171,"Ġáĭĺáī¥áĪį":6172,"áĪĺáĪĵáĪĭáĪįáįİ":6173,"áĬ£áĪĺáĪĵáĭ³áĪª":6174,"áĮ¸áĬĴ":6175,"áīłáĪµ":6176,"áĭĶáīµ":6177,"ĠáĭŃáĪŃáĬł":6178,"ĠáĮĪáĭŃáĪŃáĬ«":6179,"áĭĪáĪ°áĬķ":6180,"áĬ¨áī¥":6181,"Ġáī¥áĪĿáīµáĪķáī¥áī£áĪŃ":6182,"ĠáĬ«áĪĿ":6183,"ĠáĬ¥áĬķáĭ°áĮĪáĬĵ":6184,"ĠáĬĲáī¥áĭ«áīµ":6185,"áĬĥ":6186,"áĪ«áĪ¨":6187,"ĠáĮ½áĭĳáīķ":6188,"ĠáĪĿáĭµáĪĭáĭį":6189,"áĬ¥áĬķáĮįáĪĬ":6190,"ĠáĬ¨áĬ«áĭŃáĭµ":6191,"áĭļáĬķ":6192,"ĠáĭįáĪĭ":6193,"ĠáĮįáĭµ":6194,"Ġáĭ¨áīĲáĬķáĭ¨áĪįáĬĵ":6195,"áī¦áĪĿáĬķ":6196,"ĠáīµáĮįáĪ¨":6197,"ĠáĭĺáĭŃáī²":6198,"Ġ37":6199,"Ġáĭ²áĮįáĪª":6200,"ĠáĭĿáī°áĪ°áĪĺáĭĵáĬĵ":6201,"áĬµáĪī":6202,"ĠáĬ£áĪįáĭĴ":6203,"áĭĪáĭŃáĬĴ":6204,"ĠáĭĺáĬĲ":6205,"ĠáĬĲáĭį":6206,"ĠáĭįáĪ½áĮ¡":6207,"áĬ£áĪ°áĪįáĮ£áĬĴ":6208,"ĠáĬ¨áī¥áĭ²":6209,"Ġáī¥áĪŃáĮĮáĭµ":6210,"áĭķáĭµ":6211,"áįįáĪ¨áīµ":6212,"áĮ»áĭĪáī±":6213,"ĠáĭĿáĮ½áīł":6214,"áĭ©áĬĴ":6215,"áĭŃáĪ®":6216,"ĠáĪĿáĪģ":6217,"ĠáĪĬáīĥ":6218,"áĬ«áĪįáĬ¦áīµ":6219,"ĠáįįáĪŃáĪĴ":6220,"ĠáĬ¢áĬķáĭ±":6221,"áĭ«áĪİ":6222,"ĠáĭµáĪ«áĪĽ":6223,"ĠáĭļáĪķ":6224,"Ġáĭ¨áĪĺáĪįáĬŃáī±":6225,"ĠáĪĿáīķáĪ«áī¥":6226,"áĮ½áĪİ":6227,"ĠáĮŃáĭĭ":6228,"ĠáĭĿáīłáĪĥáĪī":6229,"áĪĪáĭµ":6230,"áĭĿáĬĵ":6231,"ĠáĭĿáĮįáīł":6232,"Ġáī°áĮłáīĢ":6233,"Ġáī¥áĭķáī±áī¥":6234,"ĠáĬķáĮ¥áįĪáīµ":6235,"ĠáĪ°áĪĭáĪĿáī³":6236,"áĮłáįįáĬ¥":6237,"ĠáĬ¨áĪĿáĭĿáĬ¸":6238,"ĠáĬ£áĪµáĭĴáī¡":6239,"áĬĲáĮįáĪ¨":6240,"áī°áĪĺáĬĵáĭŃ":6241,"ĠáīłáĪ«áĬº":6242,"áĭĭáĬ½áī¥áī²":6243,"200":6244,"ĠáĬŃáĭĢáĬĳ":6245,"áĮłáĬķáīĢ":6246,"áįįáĪįáĮłáīµ":6247,"ĠáĬ£áīµáĪĪáī²áĬŃáĪµ":6248,"ĠáĬŃáīµáĪ¨áĬŃáī¥":6249,"ĠáĪĺáĭ²":6250,"ĠáĭĿáĪħáĪį":6251,"áĪĽáĪĺ":6252,"ĠáĪĵáĭµáĬĲáīµ":6253,"áī°áĮį":6254,"áĬ£áĬ¨":6255,"áĮ½áįĬ":6256,"Ġáī¥áįįáīķáĪª":6257,"ĠáĬ¥áĬĵáī°áĪĺ":6258,"ĠáĭĪáĮ¸":6259,"ĠáĬ£áĪľáĪªáĬ«":6260,"ĠáĭĵáĪĽáĭĬ":6261,"áīłáĪįáĬ©":6262,"Ġ2020":6263,"ĠáĬ£áĭĿáĭ¨":6264,"ĠáĬ£áĭµáĪĭáĭª":6265,"ĠáĬ«áī¥áĬ£áī¶áĪĿ":6266,"ĠáĪķáĭµáĪª":6267,"Ġ34":6268,"ĠáĪĺáīķáĭ°áĪµ":6269,"Ġáī°áĪªáĪŃ":6270,"áĭĵáĭ²":6271,"ĠáĪµáįĸáĪŃáīµáĬķ":6272,"áįįáĮ½áĪĿ":6273,"áĪĴáįī":6274,"ĠáĪħáĭŃáĭĪáī³":6275,"ĠáĪµáĪĪáĭĿáĪŀáī±":6276,"ĠáĭĪáĪªáĭ±":6277,"ĠáĬŃáīł":6278,"áĪ¨áĭµáĬ¥":6279,"ĠáĭĿáįįáĮłáĪŃ":6280,"ĠáĭĪáĪįáĭ±":6281,"ĠáĬķáīķáĭµáĪļáīµ":6282,"ĠáĭŃáĮ¸":6283,"áĬĴáĬĵ":6284,"ĠáĬķáĭĵáĪĪáĪĿ":6285,"ĠáĬŃáĪĿáĪŃ":6286,"ĠáĭĵáĪ°áī¥":6287,"ĠáĪ°áī¥áĬĲáīµ":6288,"áĪŃáĪķáīķ":6289,"77":6290,"áĭŃáī³áĭŃ":6291,"áĪĵáĪĿ":6292,"áĭħáĬķ":6293,"ĠáĬ£áĬ«áĪĭáīµáĬĵ":6294,"ĠáĬ¥áĬĵáīłáĪįáĬ©":6295,"áĬªáĪį":6296,"áĮ½áĬķáĭķ":6297,"ĠáĪ¸áĪĪáĪį":6298,"ĠáĬ£áĬķáīłáī¥áī²":6299,"áĬ¨áĪĭáĬ¸áĪĬ":6300,"Ġáĭ°áĪŀáĭĿ":6301,"áĬĵáī³áĬķ":6302,"ĠáĮĭáĭĿ":6303,"áĪ¨áĬ«":6304,"ĠáĪĿáĪ©":6305,"ĠáĬĲáī¥áĪµáĬ»":6306,"Ġáī¨áĬķáĮĪáĪŃ":6307,"Ġáī¥áĪĵáĭŃáĪĬ":6308,"ĠáĬ¢áīµáĭ®áĮµáĭ«áĬķ":6309,"áĭĽáĭĺáĪĿ":6310,"áĪĵáī¶":6311,"áĮ½áĪ©":6312,"ĠáĪŃáĬ¥áĭ¨":6313,"áįĸáĪĬ":6314,"Ġáĭ²áĬº":6315,"Ġáī¥áĪĺáĬķáĮ½áĪŃ":6316,"áĪĿáĬĵáĪįáī£áīµ":6317,"ĠáĬ¥áĬķáĮĮ":6318,"Ġáĭ°áī¥áĪ¨":6319,"áĪŃáįį":6320,"ĠáĭĿáĪĵáīµáīµ":6321,"áĮ¸áĬķáĪĳ":6322,"áĬ£áĬķáī³":6323,"ĠáĪĿáĭįáĮ»áĬ¥":6324,"áĬĲáīłáĪŃáī²":6325,"ĠáĪĺáĮºáĬ¦áĪĿ":6326,"ĠáĬ£áĮĪáĭ³áĪµ":6327,"ĠáīĢáĭ³áĪĿáĬĲáīµ":6328,"áĮĭáĪļ":6329,"áĬĸáīµ":6330,"áĪŃáĬ¨áĪŃáī²":6331,"ĠáĭĿáĪĿáĪŃ":6332,"Ġáīłáĭ¨áĬĲ":6333,"ĠáĬŃáĬ¸áįį":6334,"ĠáĬ¢áĭ¨áĪ±áĪµ":6335,"ĠáĭįáĪ½áĮłáĭŃ":6336,"áĭ«áĭĬáīµ":6337,"ĠáĬ£áĭŃáīµáĬ½áĬ¥áĪįáĬķ":6338,"ĠáĪĺáĮ½áĪĵáįįáī²":6339,"áĮĢáĬķ":6340,"áĮĪáįį":6341,"Ġáĭ³áĬĽ":6342,"ĠáĪħáĬķáĮ¸áīµ":6343,"áĬºáī¦áĪĿ":6344,"ĠáĬ¨áī¶":6345,"áĪ°áĪ°":6346,"áĪ³áĬĲ":6347,"áĪĻáĬĵáīµ":6348,"Ġáĭ³áĪħ":6349,"áĪªáĬ¡":6350,"ĠáīµáĬ½":6351,"áĭĽáĪ¨áīł":6352,"Ġ500":6353,"ĠáĬ£áīĲáĭ²áĪŀáĪĿ":6354,"Ġáī°áĭį":6355,"ĠáĬ»áĪį":6356,"áĪµáĪĿáĭĸ":6357,"ĠáĭĪáĬ¨áĪįáī²":6358,"áīłáĪ¨áĪİáĪĿ":6359,"ĠáĪĺáĬ®áĬĲáĬķ":6360,"ĠáĬ£áĭĴáĬķáī²":6361,"áĬķáĮĭ":6362,"áĪŃáī¡":6363,"Ġáī¥áĭĺáĪİ":6364,"ĠáĬ£áįįáĭ°áĮĪ":6365,"áĬĵáĭ³áĬ¢":6366,"Ġáīłáīĥ":6367,"ĠáĭŃáīķáĪ¨":6368,"áĭįáĪ²":6369,"ĠáĭŃáĮįáī£":6370,"ĠáĮ¸áĪįáĪĽáīµ":6371,"ĠáĪįáĭķáĪį":6372,"ĠáĪĺáĬķáĭ°áīķ":6373,"ĠáĪ°áĭŃáĮ£áĬķ":6374,"ĠáĭĿáĪµáī°":6375,"ĠáĪĽáĪ«áī¶áĬķ":6376,"ĠáīħáĬĲ":6377,"ĠáĪĺáĮįáī¥áĬķ":6378,"áĭ²áĭ±":6379,"ĠáĭĿáī°áĪĵáī°":6380,"ĠáĪµáĭĴáĭµ":6381,"áī£áĪŃáĭĭ":6382,"áĬķáĬª":6383,"Ġáī¥áīķáĭĵáīµáĬķ":6384,"áĪĽáĬ¥áĬ¨áĪį":6385,"ĠáĪĿáĬķáī£áĪ®áĪĿ":6386,"áī°áĪ³áī°áįįáī²":6387,"Ġáī£áĪħáĪŃáĭ«":6388,"ĠáĭµáĬķáĮįáĪį":6389,"áĪħáĭĿ":6390,"Ġáīħáĭ±áĪ³áĬķ":6391,"áĬ¥áĭĭáĬĳ":6392,"áī¥áīĲ":6393,"áĪ«áĭįáĬķ":6394,"ĠáĬķáĪĵáĬķáī²":6395,"áīĭáĪŃáĮ½":6396,"áĪµáī±":6397,"ĠáĭĺáĪĪáĭİáĬķ":6398,"ĠáĭĿáĭ°áĪĪ":6399,"ĠáĬķáĪĿáįįáĪĭáĮ¥":6400,"ĠáĬŃáīĲáĪŃáī¥":6401,"áĪŀáĬŃ":6402,"Ġáī¥áĬ½áĪįáī°":6403,"Ġáĭŀáī£áĭĬ":6404,"Ġáī°áĪ°áĪļáĭĳ":6405,"áīĢáĭ³áĪĽáĭŃ":6406,"ĠáĪ³áĪįáĪ°áĭŃáī²":6407,"ĠáĪĺáĪµáī°áĬķ":6408,"áĭĪáĪµáĭ°":6409,"áĬŃáĪŃáĪµáīµáĭ«áĬķ":6410,"áĪĵáĭļ":6411,"ĠáĭĿáįĪáĮ¸":6412,"ĠáĭĵáĪ³áī³áīµ":6413,"áĭµáĪ®áĪµ":6414,"ĠáĮįáĭ´áī³":6415,"ĠáĬ£áĬķáĪµáī°áĭŃáī²":6416,"áĪŃáĮħ":6417,"áįĪáī²":6418,"áĪħáĪĥáĭµ":6419,"áĪļáĬĴáĪµáī°áĪŃ":6420,"ĠáĪĿáĮ½áĬķáĪĳ":6421,"áĭĺáĭ¨":6422,"Ġáīłáĭ°áĪį":6423,"áĪĥáīł":6424,"ĠáĬķáĪĥáĮĪ":6425,"áĭĽáĪ¨áī¦":6426,"Ġáī¥áĭĵáĭŃáĬĴ":6427,"ĠáĬ¢áĪīáĬĴ":6428,"ĠáĭĿáĮ¸áĬķáĪĲáīµ":6429,"ĠáĪĺáĪ¬áīµáĬķ":6430,"ĠáĭµáĪ«áĪŃ":6431,"Ġáī¥áĪįáĮ½":6432,"ĠáĬ£áĭķáĭĭáįį":6433,"ĠáĬķáĭļ":6434,"ĠáĬ¨áĪĿáĭĿáĮįáī£áĬ¥":6435,"áĭŃáĪĭ":6436,"áĪĵáĭĻ":6437,"áĮ½áĪī":6438,"áī¥áĭĪ":6439,"ĠáĪ°áĬĳáĭŃ":6440,"áĬ¤áĪŃáīµáĪ«áĭįáĭ«áĬķ":6441,"ĠáĬ¥áĬķáī°áĭĺáĭŃáīĢáĪªáī¡":6442,"áĬ¥áīĨáī¥":6443,"ĠáĬ¨áĭŃáĭ°":6444,"áĬ«áĬ¥áī²":6445,"ĠáĪµáĭĳ":6446,"áīĲáĪī":6447,"áĮĲáĪį":6448,"áĪĿáĮ½áĬ¥":6449,"áĮĪáĪ°":6450,"ĠáīłáĪĪáī¶":6451,"ĠáĭĿáĭįáĭķáĪį":6452,"ĠáĮ¤":6453,"ĠáĬĲáīĴ":6454,"ĠáĪĿáĪŃáĬ«áī¥":6455,"áĮłáīĵáĪįáĪį":6456,"áĪĿáĪĪáĪµ":6457,"ĠáĪĿáĬŃáĪįáĬ»":6458,"ĠáĬ£áĮĪáĪįáĮįáĪİáī³áīµ":6459,"ĠáĪĿáīµáĬ¥áĪµáĪ³áĪŃ":6460,"ĠáĪĿáĬ¥áī³áĭį":6461,"áĪĺáĬķáīłáĪŃ":6462,"Ġáī¤áī°áĪ°áī¥áĬķ":6463,"ĠáĭĿáī¥áĪĭ":6464,"Ġáī¥áĪĿáĭįáĮ»áĬ¥":6465,"ĠáĬ£áĭįáĪ«":6466,"ĠáĬ¨áī¥áī²":6467,"áĪŃáĬŃáĬĲáīµ":6468,"áĬ¥áĪĿáĬĲáīµ":6469,"ĠáĬ¾áĭŃáĬĳ":6470,"ĠáĬŃáįįáĪĪáĮ¥":6471,"ĠáĬķáĭĺáĪĪ":6472,"áįĪáĪįáĮ£":6473,"ĠáĬŃáĪŃáĬ¢":6474,"ĠáĭķáĮ¥":6475,"áįįáĪį":6476,"ĠáįĪáĪĪ":6477,"áĭ°áĪįáĭ¨":6478,"ĠáīµáĪĿáĪħáĪŃáī¶áĪĿ":6479,"ĠáĬ¥áĬķáī°áĪĭáĭŃ":6480,"ĠáĪµáĪĪáĭĺáĭŃáī°":6481,"áĬĵáĬ¸":6482,"áĬ¡áĪµ":6483,"ĠáĭĿáĬ£áī±":6484,"ĠáĪĿáĮħáĪĽáĪŃ":6485,"ĠáĭĺáĬ½áĬ¥áĪį":6486,"áĬŃáĬ¢":6487,"áīĵáĭĬ":6488,"ĠáĪ»áĪĿáī¥áīĨ":6489,"Ġ2009":6490,"áĭŃáĪµ":6491,"áĪĽáĪª":6492,"áĭįáĭĭ":6493,"ĠáĪĽáĪĪ":6494,"áīħáĪĿ":6495,"ĠáĬ¬áĬķáĭ«":6496,"áĪ¨áī³áīµ":6497,"ĠáĬ£áĪĺáĭĿáĮĬáī¡":6498,"ĠáĪħáĭŃáĭĪáī°áĭŃ":6499,"áĮ£áīµ":6500,"áīĪáĮ»áĮ¸":6501,"Ġáī£áĪŃáĪ³":6502,"ĠáĮ¥áĬķáīĥáīĲ":6503,"áĪķáĪ«áĭŃ":6504,"ĠáĭĵáĪª":6505,"ĠáĬ«áĪįáĬ¢áīµ":6506,"ĠáĪķáĪŃáĪ»áĬķ":6507,"áĪĥáĭ°áĪŃ":6508,"Ġáī£áĭķáĪĪáĭŃ":6509,"ĠáĬķáĬ¹áĪİáĪĿ":6510,"áĪ«áĭ²":6511,"áĬµáĪ®":6512,"ĠáĬ£áĭµáĬĵ":6513,"ĠáĭĺáĬ«áĭŃáĭµ":6514,"áĭĥáĬķ":6515,"ĠáĮİáĭ³áĭŃ":6516,"Ġáī¦áī³áĬķ":6517,"áĪªáĮ¹":6518,"ĠáĬ¢áĭ³":6519,"ĠáĬ£áĭŃáĬ¨áĬ£áĪį":6520,"ĠáĪĵáįįáī°áĭŃ":6521,"ĠáĭĺáĬ«áĭ¨áĭ°áī¶":6522,"ĠáĭĪáĪ«áĪ²áīµ":6523,"áĬ¤áĪĭáĭįáĭ«áĬķ":6524,"ĠáĬ¥áĮįáĪ©":6525,"áįįáĮ½":6526,"áĮĪáĪįáī²":6527,"áĬĲáīłáĪ©":6528,"ĠáĬŃáĪµáī°":6529,"Ġáī°áĮĵáĭĴ":6530,"Ġáĭĺáĭ³":6531,"áĮĭáĪķáī³":6532,"ĠáĪĥáĪĽáĪĺáī°áĬ¤":6533,"ĠáĬŃáĬķáĬ¨áĭįáĬķ":6534,"ĠáĪĺáĬķáĮįáĪµáīµ":6535,"áĬĲáĪĽ":6536,"Ġáĭ²áįķáĪİáĪĽ":6537,"áįĪáĮ¸áĪĺ":6538,"áīħáīķ":6539,"ĠáĬ£áĪİáĬĴ":6540,"áĪ³áĪķ":6541,"ĠáĪįáīĵáĪķ":6542,"ĠáĪĵáĬķáĮİáĪį":6543,"áįįáīµáĪĴ":6544,"ĠáĭĺáĭŃáĬŃáĬ¥":6545,"áĬ¹áĪµ":6546,"ĠáĪļáĪ³áĭŃ":6547,"ĠáĮĪáĭ²áįī":6548,"ĠáĬ£áĮĪáĬķáĭļ":6549,"ĠáĪĿáīģáĮ½áĮ»áĪŃ":6550,"Ġáĭ°áĪįáĭ¨":6551,"ĠáĪĿáī¹áĬ¥":6552,"ĠáĪĺáĪ°áĬ»áĬ½áĪŃ":6553,"ĠáĪĿáĪķáĪĭáįį":6554,"áĪµáĪĭáĪ°":6555,"Ġáī¥áĪ©áĪħ":6556,"áĭĦ":6557,"ĠáĬ£áĭŃáĬ°áĬķáĬ©áĬķ":6558,"áīµáĬķáĪ³áĬ¤":6559,"ĠáĭĿáĮ½áĭĭáĭķ":6560,"áĭ°áĪĭáīµ":6561,"ĠáĬ£áĪ¨áĭ²áĬ¦áĪĿ":6562,"Ġáĭĺáĭµ":6563,"áĪªáī±":6564,"ĠáĪĿáĬķáī£áī¥":6565,"ĠáĪĽáĪķáīłáĪ«":6566,"Ġáĭĺáīł":6567,"ĠáĮĪáĪĭ":6568,"ĠáĭĺáĭŃáīħ":6569,"Ġáī°áĪĺáĬķ":6570,"Ġ300":6571,"áī£áī¥áĭķ":6572,"Ġáī¥áīµáĪķ":6573,"ĠáĬ£áĪĮ":6574,"áĭĵáĭĻ":6575,"áĮįáĭ°":6576,"37":6577,"áī°áĬ¸":6578,"áī²áĪī":6579,"ĠáĬ¨áĪįáī¢":6580,"áīķáĪį":6581,"ĠáĬ¢áĭµáĬ«":6582,"Ġáī°áĮ¸áĬķ":6583,"ĠáĬ©áĬĲáī³":6584,"ĠáĮĪáĮł":6585,"áĪĵáĭ°áĪŃáī²":6586,"Ġáĭ¨áĪĺáĪįáĬŃáīµ":6587,"ĠáĪĺáī°áĬ«áĬ¥áī³":6588,"ĠáĪĺáĭį":6589,"ĠáĬ¤áĪĿáī£áĪ²":6590,"ĠáĪļáĪĭáĬķ":6591,"ĠáĮĭáĭľáĮł":6592,"Ġáī°áĬ¸áĪ²":6593,"ĠáĪĺáĪįáĬ¥áĬ½":6594,"ĠáĭĺáĪŃáĬ¥áĪµáī³":6595,"Ġáī°áĬªáĬ¤":6596,"ĠáĮ¸áī¥áĪĪáĪį":6597,"áīķáĮ½áĪį":6598,"ĠáĬķáĪĿáĬŃáĪįáĬ»áĪį":6599,"áĬĶáīµ":6600,"ĠáĪµáĭ©áĪĿ":6601,"ĠáĭĵáĬķáĭ²":6602,"ĠáīħáĪ©áī¥":6603,"ĠáĬ£áĬķáīłáĪ³":6604,"Ġáī¥áĬķáĭ«áĪĿ":6605,"ĠáĬ¥áĬĵáĪĺ":6606,"áĪ¨áĬ¸áīł":6607,"ĠáīµáĭĿ":6608,"ĠáĮĵáĪĪáĬķáĪµáī°áĭŃáī²":6609,"áīĳáĪŃ":6610,"ĠáĬ£áĬķáĪµáī²":6611,"ĠáĪµáĭīáĬ£áīµ":6612,"áĭįáĪĿ":6613,"áī¶áĪµ":6614,"Ġáī°áĪ°áĬª":6615,"Ġáĭ®áĪŃáĭ³áĬĸáĪµ":6616,"áīĭáĬķáīĭ":6617,"áĮ¥áĪŃáĬķ":6618,"áĬĲáī°áĬķ":6619,"áĬ½áĭİ":6620,"áĬŃáĭĭ":6621,"áĭ¨áĪĿ":6622,"ĠáĮ½áĭĴ":6623,"Ġáī°áĬ¸áĪĭáĬ»":6624,"ĠáīµáĪŃáĬ¢áīµ":6625,"ĠáĭĺáĮĪáĪŃáĪĿ":6626,"ĠáĬ£áī£áĭŃ":6627,"ĠáĬ¥áĮĪáĭ³":6628,"áĭ¨áĪµ":6629,"áĬ¥áīµáī³áĭį":6630,"áĬĴáĬ«áĭĬ":6631,"ĠáĭĿáĭĪáĮ½áĬ¥":6632,"áĪ©áĬĴ":6633,"ĠáĮĢáĮĭáĬĳ":6634,"ĠáĪĿáĮħáĪĽ":6635,"ĠáĬ£áĮ¥áīĥáĭĵáĭŃ":6636,"ĠáĪĺáĬķáĮĪ":6637,"áĪĿáī£áī£":6638,"ĠáĪĽáĬĵ":6639,"Ġáī¥áĪĿáĪĵáĭĿ":6640,"ĠáĪĿáĪħáĪĭáĭį":6641,"ĠáĪįáī¦áĬĵ":6642,"ĠáĬ¥áĬĵáĭĪáĪ°":6643,"áīķáĪŃáī¦":6644,"áįĶ":6645,"áĭĪáĪ³":6646,"Ġáīłáĭ³":6647,"ĠáĬ¨áĭŃáĬ¨áĭįáĬķ":6648,"áī°áĪĪ":6649,"ĠáĪĿáĬ¥áī³":6650,"ĠáĪ³áĭŃ":6651,"Ġáī¥áĪĿáīķáĪ«áī¥":6652,"ĠáīłáĪ¨áĭµ":6653,"Ġáī¥áĪĿáĮ¥":6654,"ĠáĭĿáĮĪáī¥áĪ©":6655,"áĭ°áĪ¨áĮĥ":6656,"áĪ°áĪĿáĭĳ":6657,"ĠáĪĵáĪŃáīłáĬĽáī³áīµ":6658,"Ġáĭ°áĪ´áī³áīµ":6659,"ĠáĭĿáī°áĪ¨áįī":6660,"Ġáī°áĭĪáĭ³áĭ°áĪŃáī²":6661,"áĪ½áĪ®":6662,"ĠáįĬáīµ":6663,"ĠáĭµáĪķáĪŃ":6664,"ĠáĪĺáĪĽáĪħáĪ«áĬķ":6665,"Ġáī£áĪķáĪŃáĬķ":6666,"ĠáĬ¥áī¶":6667,"Ġáī°áĬ¸áĪ°áĪµáī²":6668,"Ġáĭŀ":6669,"áĬŃáī³áīµ":6670,"ĠáĬķáĭĵáĬ£":6671,"Ġáī±áĪŃ":6672,"ĠáĪĺáī¥":6673,"áĬĴáĭĳ":6674,"áī¥áĪ¨áĪī":6675,"ĠáĬ£áĭĴáĬķáī³":6676,"ĠáĪĺáĭ³áĭ«áīµ":6677,"áīłáĪ¨áīµ":6678,"ĠáĬ£áĪ®áĬķ":6679,"ĠáĭĺáĪĪáĬº":6680,"ĠáĭĿáī°áĪĺáĪµ":6681,"ĠáĪĺáĪ°áĪĭáīµ":6682,"ĠáĪĺáī¥áĭĽáĪķáīµáĬ¦áĪĿ":6683,"ĠáĬ¤áĪŃáĪĿáĭ«áĪµ":6684,"Ġáĭ²áĮĭ":6685,"áįįáĭķ":6686,"ĠáĭĿáī°áĪĥáĬķ":6687,"ĠáĪ°áĮĪ":6688,"Ġáī¥áĪĿáī¥":6689,"áĭķáī¢":6690,"áĮĢáīµ":6691,"Ġáī¥áĪ°áĪĭáĪĿ":6692,"ĠáĭĿáĬķáīĢáĪ³áīĲáĪµ":6693,"ĠáĭĿáī°áĭ°":6694,"ĠáĪĿáĭĿáĪ«áī¥":6695,"áĪĿáĬ½áĬķáĭ«áīµ":6696,"ĠáĬªáĬķ":6697,"ĠáĪŀáī£áĭŃáĪį":6698,"áĪµáī²áĬŃ":6699,"ĠáĬ£áīłáĪĪ":6700,"ĠáĬķáĪį":6701,"áĭīáĭ«áĬķ":6702,"áĭĪáĪµáĭ¶":6703,"ĠáįĭáĭŃáĬĵáĬķ":6704,"ĠáĬ£áĬ»":6705,"ĠáĮ½áįį":6706,"ĠáĬ¥áĬĵáīĲ":6707,"ĠáĬĲáĭŃáĪŃáĭİ":6708,"áīµáĪµ":6709,"áĪµáī°áĪĽ":6710,"ĠáĬ£áĪĺáĭĿáĮĬ":6711,"ĠáĪĥáī¥áī°áĪĽáĪŃáĭ«áĪĿ":6712,"ĠáĭĿáĬķáīĢáĪ³áīĲ":6713,"ĠáīµáĪ«áįĬáĬŃ":6714,"áĬķáĮ£":6715,"áīµáĪªáĬŃ":6716,"Ġáī£áĭķáĪįáĬ»":6717,"ĠáĪįáĭ°áīµ":6718,"ĠáĬķáĪĵáĭĭáĪ©":6719,"ĠáĮįáī¡":6720,"ĠáĮ¥áĪªáīµ":6721,"Ġáī°áīĵáĭĪáĪĿáī²":6722,"ĠáĬ£áĭļáĬĵ":6723,"ĠáĬķáĪĿáĬ¥":6724,"ĠáĭĪáĪĭáĭ²áī°áĭŃ":6725,"áĪŃáĬĲáīµ":6726,"áĪ«áĭµ":6727,"áĮĭáĮĪáĪ¨":6728,"áįĭáĬĸáĪµ":6729,"ĠáĬŃáĬķáįĬ":6730,"ĠáĪľáĪ®áĬķ":6731,"áĪįáĬ¥áĬ¾":6732,"áĬ¨áĪĭáĬ¸áĪį":6733,"áĬ£áĭ°":6734,"ĠáĬĵáīµáĬ«":6735,"áĮ½áĮ»":6736,"Ġáī°áĪ°áĭĬ":6737,"ĠáĮ½áĭµ":6738,"Ġáī¥áĬ¹áĪī":6739,"ĠáĬ¨áĪ³áĪ²":6740,"ĠáīµáĮĪáī¥áĪŃ":6741,"áĮĬáĮ¹":6742,"áī¡áĭİ":6743,"Ġáī°áĮ»áī¥áĬ¦":6744,"ĠáĪĺáĬ£áĭĽ":6745,"áĭ³áĮį":6746,"áĪŀáī±":6747,"Ġáī¥áĭĪáĮĪáĬĵ":6748,"áĪ°áĪĭáĪĿ":6749,"áĪŃáĭ«áĪµ":6750,"ĠáĬ£áĪĪáĬº":6751,"ĠáĪĭáĪĿ":6752,"Ġáĭķáĭīáī³áīµ":6753,"ĠáĬŃáīµáĪĺ":6754,"ĠáĬ¨áĪĿáĭĺáĭŃáĬ®áĬĲ":6755,"áī¥áĮ¥":6756,"ĠáīĨáĪŃáīłáīµ":6757,"áĮ¥áīłáī£áĭĬ":6758,"ĠáĭĪáĬĲáĬķáī²":6759,"Ġáī°áĮĪáĭ³áĪµáĬĲáīµ":6760,"áįĪáĪĪáĮł":6761,"Ġáĭ¨áĮįáĭ³áĪµ":6762,"áĬ¹áĪĿáĬķ":6763,"ĠáĪĿáĬŃáĭ«áĭµ":6764,"Ġáĭ°áĮĬáĪĿ":6765,"ĠáĭĿáĭĭ":6766,"ĠáĬ¤áĬŃáĪµ":6767,"ĠáĬ¥áĭ®áī¥":6768,"ĠáĭĺáĮłáīĵáĪĪáĪĪ":6769,"áĭ°áīłáīµ":6770,"ĠáĬŃáĪ¨áĬ½áī¡":6771,"ĠáĪĻáĬĴáĬŃ":6772,"áĭħáĪī":6773,"ĠáĬķáĪĽ":6774,"áĭ³áĭįáĭ«áĬķ":6775,"áĮłáĬĳ":6776,"ĠáĭķáĭĻáĭĿ":6777,"ĠáĪŃáĬ¥áĪµáĬĵ":6778,"áī¥áĭĽáĪķ":6779,"ĠáĪĥáĮĪáĪ«áīµáĬķ":6780,"ĠáĬ£áĭįáĪµáīµáĪ«áĪįáĭ«":6781,"ĠáĭĿáĮĢáĪĺ":6782,"áĪħáĬĵ":6783,"ĠáĬ£áĭŃáĪģáĭµ":6784,"ĠáĪ³áĪ«":6785,"ĠáĬ£áįįáĭĵáīłáīµ":6786,"áĪĿáĪĿáĪķ":6787,"ĠáĭĿáĭµáĪŃ":6788,"áĮįáĭ¶":6789,"ĠáįĭáĪŃáĪĽ":6790,"áī¥áĪķ":6791,"ĠáĪħáĪį":6792,"ĠáĬķáĪ°áī£áīµ":6793,"ĠáĪĺáĬ½áĪ°áī¥":6794,"ĠáĮ¢":6795,"ĠáĬ£áĪ°áĪįáĮłáĬķáī²":6796,"Ġáĭķáĭ®áĬķ":6797,"ĠáĬ£áįįáĪªáīĥáĬķ":6798,"Ġáī°áĬ£áĪĿ":6799,"ĠáĪĿáĬ»áĭµ":6800,"ĠáĬŃáĮ¸":6801,"Ġáĭµáĭ¨":6802,"ĠáĭĿáī°áĪ°áĪĿ":6803,"ĠáĭĺáĮĪáĪįáĮįáĪį":6804,"ĠáĮ»áĭķáĪŃáī³áīµ":6805,"Ġáī°áĮ¸áĭĭ":6806,"ĠáĪĽáĪķáĪĻáĭµ":6807,"áī¥áĪĵáįĪáĪ»":6808,"ĠáĬķáĪĿáĭķáĭĭáīµ":6809,"Ġáĭ°áĪŃáįįáī³áīµ":6810,"ĠáĬ®áĪİáĬĶáĪį":6811,"áĪķáĪįáįį":6812,"ĠáĭĺáīĥáīłáĪŃáĬ©áĪĿáĬĵáĬķ":6813,"áĪĥáĪª":6814,"áĪİáĪĿáįĴ":6815,"ĠáĪ°áĪļáĬĵáĪŃ":6816,"ĠáĬķáĬ¢":6817,"áĭĪáīµáĬķ":6818,"Ġáī°áĪ¨áĭ²":6819,"ĠáĬķáĬ¤áĪªáĬĵ":6820,"ĠáĪŃáĬ½":6821,"ĠáįĪáĪĭ":6822,"ĠáĬķáĮĪáĪįáĮ½":6823,"ĠáĭµáĬ»áĪĿ":6824,"ĠáĭĵáīĲáī¥":6825,"áĭĿáī²":6826,"ĠáĪĽáĭ«áīµ":6827,"áĪĶáīµ":6828,"áī¥áĪĺ":6829,"áĪĪáīł":6830,"áī³áĬ¥":6831,"áĭ®áĪĭ":6832,"ĠáĭĿáĮłáīĲáĪ°":6833,"áĪįáĭ°áīµ":6834,"Ġáī°áĪĺáĬŃáĪ®":6835,"Ġáī¦áī³áĬ¡":6836,"ĠáĮĪáī¥áĪ¨áĬ¥áĮįáĭļáĬ£áī¥áĪĦáĪŃ":6837,"'áį¡":6838,"ĠáĭĿáĬĲáīłáĪ¨áĪī":6839,"ĠáĮłáįĪáĪŃ":6840,"áĮ¥áįįáĬ¥":6841,"Ġáī¥áĪĿáĬ¥":6842,"ĠáĬ£áĪĿáĪª":6843,"áį£-":6844,"áĪ±áĪŃ":6845,"ĠáĬ¨áī£áī¢áĬ¦áĪĿ":6846,"ĠáĪ³áĭķáĪª":6847,"ĠáĪµáĪĿáĭĴáī³áīµ":6848,"ĠáĪĿáĪķáĪ¨áīµáĬ£áī¥":6849,"ĠáĪĪáī£":6850,"ĠáĮ¸áĬĴáĪĸáĪĿ":6851,"áĬĵáĬĴ":6852,"Ġáī°áĬŃ":6853,"áĪµáĪ«áĪĵáĪī":6854,"ĠáĬ¥áĭĿáĬĴ":6855,"áĪĵáīĲ":6856,"áįĪáĮ¸":6857,"áĪĪáĪĿáī²":6858,"ĠáĭĺáĮ¸áĬĵáĬĵáĭķáĬ©áĪĿáĬĵáĬķ":6859,"Ġáĭ°áĭµáĪķáĪª":6860,"ĠáĭĪáĪįáĭ°áĪļáĬ«áĬ¤áĪį":6861,"ĠáĬ£áī°áĬ²":6862,"ĠáĬĶáĪŃáĬĵ":6863,"Ġáī°áĭ°áĮĭáĮĭáĪļ":6864,"ĠáīłáĮ½áĪĲ":6865,"ĠáĬ«áĪįáĬ¢áīµáĬķ":6866,"áĪŃáĮĬ":6867,"ĠáĭĿáī°áīĵ":6868,"ĠáĪŃáĮī":6869,"áįīáĬ¥":6870,"ĠáĬķáĮ½áī£áĪĴáī±":6871,"Ġáī¥áĭĿáī°áįĪáĪĭáĪĪáĭ©":6872,"ĠáĬķáĪĿáĮ½":6873,"ĠáĬ¤áī½":6874,"ĠáĪħáĭĭ":6875,"ĠáĪĥáĮĪáĪ®áĪĿ":6876,"ĠáĪĿáĮ¥áīĥáĪĿ":6877,"ĠáĪ°áĬªáĭĶáīµ":6878,"áĪµáĬĴ":6879,"ĠáĭŃáĪ°áĪŃáĪķ":6880,"Ġáĭ¨áįįáĪįáĮ¥":6881,"ĠáįįáĪįáĭŃ":6882,"Ġáī°áĪĺáĭ²":6883,"ĠáĮ¸áĬĴáĪĵ":6884,"ĠáĬŃáĪ«áĭŃ":6885,"áĭ«áĭ²":6886,"ĠáĪĽáĭķáīłáĪį":6887,"Ġáĭ°áīĤáĬ£áĬķáĪµáīµáĭ®":6888,"ĠáĬ£áĪįáĬ£":6889,"ĠáĬ£áĭĺáĪ«áĪŃáī£":6890,"ĠáĬ¥áĬ½áĬ¥áĪį":6891,"ĠáĪĵáĪį":6892,"ĠáĬ£áĭŃáĬ®áĬĳáĬķ":6893,"ĠáĪĺáĭĵáĪµáĬ¨áĪŃ":6894,"ĠáĬķáĪħáī¢":6895,"ĠáĬ£áĪĥáĭ±áī³áīµ":6896,"áĮĪáĬĵ":6897,"ĠáĭĿáī°áĪ¸":6898,"ĠáĪĿáĪĿáĪµ":6899,"ĠáĬŃáĭĪáĪĥ":6900,"ĠáīµáĬ«áĪĭáīµáĬķ":6901,"Ġáĭĵáī¥áĭ°áĪĭ":6902,"áĪŃáĭĭ":6903,"ĠáĪ°áĭ°":6904,"ĠáįĸáĪŃáī±":6905,"ĠáĭĴáĪĭ":6906,"ĠáĭĿáī°áĪ«áĬ¥áĭ¨":6907,"ĠáĪ°áī£áīµáĬķ":6908,"ĠáĬ¢áĪįáĬª":6909,"ĠáĬ£áĪµáī¤":6910,"ĠáĬ¤áįįáĪ¬áĪĿ":6911,"áĪĺáĬĵáĭĬ":6912,"áĪŃáĪķáĬķ":6913,"ĠáĬŃáįįáĪĬáīµ":6914,"ĠáĭįáĪĳáĪµ":6915,"Ġáī°áĪŃ":6916,"Ġáī°áĮ£":6917,"áįĪáĮ¥áĪŃ":6918,"ĠáĬ£áī¥áĪŃ":6919,"Ġáī£áĪŃáĭ«":6920,"Ġáī¥áĮįáĭ°":6921,"ĠáįįáĮ»áĪľ":6922,"ĠáĬ£áĮĪáī£áī£áīµ":6923,"áĮĵáĪµ":6924,"ĠáĪįáĪĿáĭĵáīµáĬķ":6925,"áĮ¸áĪįáī³":6926,"ĠáĭĺáĭŃáĪĿáĪŃ":6927,"áĪĿáĬķáĮª":6928,"áĪĵáĮİ":6929,"áĪŃáĬ¥áĪ°":6930,"ĠáĮ«áĪĽ":6931,"ĠáīµáĪŃáĬ¢":6932,"ĠáĬķáĮįáĪµáī²":6933,"ĠáĪ°áĪĭáĪĽáĭĬ":6934,"ĠáĬ£áĭŃáĪĺáĪµáĪĪáĬķáĬķ":6935,"áĮįáĭļ":6936,"áĪĢáīµ":6937,"ĠáĪ¨áĬºáīł":6938,"ĠáĬ£áī°áĬ£":6939,"áī£áĭįáĭ«áĬķ":6940,"ĠáĭĵáĪĮáī³áīµ":6941,"áī¨áĪŃáī°áĬķ":6942,"ĠáĪĺáīµáĬ¨áĪį":6943,"ĠáĪĺáĭ³áĪįáĭ«":6944,"ĠáĬ£áĮĭáĮ¢áĪĻ":6945,"áĬ¥áĭ³":6946,"ĠáĬ¥áĪĿáĬķ":6947,"ĠáĬ£áĪĽáĭķ":6948,"ĠáĪĿáī¥áĮ»áĪķ":6949,"áĪĺáĪµáĮį":6950,"ĠáĬ£áĬ¥áĮĭ":6951,"ĠáĭŃáĭµ":6952,"ĠáĪĺáĭĵáĪįáīµáī³áīµ":6953,"ĠáĬ£áīµáĭ®áĪĿ":6954,"ĠáĪµáĪįáĮłáĬĵáī³áīµ":6955,"Ġáĭ°áīłáĬĵ":6956,"ĠáĭĭáĪķáĭ²":6957,"áĪ«áĭĿ":6958,"Ġáī¥áĭĵáīķ":6959,"Ġáī°áĬ¸áĪ³áĪ²áīµ":6960,"Ġáī°áįĭ":6961,"áĪ«áĬ½":6962,"ĠáĬŃáĭĭ":6963,"áĬ¨áī°":6964,"ĠáĭŃáĮĪáī¥áĪ©":6965,"ĠáĬ¢áĭ¨":6966,"ĠáĪĺáĮĵ":6967,"ĠáĬ©áĬĲ":6968,"Ġ38":6969,"Ġáī¥áĪĽáĭķáĪ¨":6970,"áĪĺáĪİáĪĿ":6971,"áĭĿáīłáĭĿ":6972,"ĠáĭĺáĮ¸":6973,"Ġ2008":6974,"ĠáĪĺáĭĽáĪĻáĪŃ":6975,"ĠáīµáĬķáįĭáĪµ":6976,"ĠáĭĿáĬķáĮĪáĪ¨áĪī":6977,"áĭµáĪİ":6978,"ĠáĬ£áĪµáįį":6979,"ĠáĬŃáĪŃáĪµáīµáĭ«áĬĵáīµ":6980,"Ġáĭķáĭ±":6981,"ĠáĪĺáĬ¨áĪĭáĬ¸áĪĬ":6982,"áĪķáĭĿ":6983,"ĠáĪĿáīµáĪķáĮįáĮĭáĭĿ":6984,"ĠáĮİáĬĴ":6985,"ĠáĬŃáī¥áĪ®áĪĿ":6986,"áī°áĮĭ":6987,"ĠáĬ¥áī¥áĪ¨":6988,"ĠáĬĵáī£áĭŃ":6989,"áĭ¨áĮ¥":6990,"áĬķáĪ³áī¥":6991,"ĠáĬ£áĬ¸":6992,"áĪ©áĪµáĭ«":6993,"áĬ¨áī³áī°áĪį":6994,"Ġáī±áĪªáĭĿáĪĿ":6995,"Ġáī°áī³áĪĴáĭĻ":6996,"áĮ»áĮ½":6997,"ĠáĭĺáĪĺáĭĿáĮĪ":6998,"ĠáĬ¥áĪĿáī¥áĭĽ":6999,"ĠáĬ£áĪįáĬ®":7000,"ĠáĭķáĪĪáī³áĭĬ":7001,"Ġáīµáĭ°áĪĬ":7002,"Ġáī°áĪĺáĪįáĪ°":7003,"ĠáĬķáĪĺáĮ»áĬ¢":7004,"ĠáĬ¥áĬķáīĭáĭķ":7005,"áĬªáī¡":7006,"ĠáĬķáĪĿáĮ¥":7007,"ĠáĪĿáīµáĪķáī¥áī£áĪŃ":7008,"ĠáīĵáĪĭáīµ":7009,"ĠáĪĿáĪĴáĪŃ":7010,"ĠáĭĿáĭ°áĪįáĭ©":7011,"áĭĵáĭĺ":7012,"áĭİáĪĿáĬķ":7013,"ĠáĪĥáĪĽáĭ°áĬ¤":7014,"áĪĺáī³áīµ":7015,"áĪĽáĭŃáĬķ":7016,"ĠáĮłáįĬáĬ¡":7017,"áĮĵáĭµ":7018,"ĠáĪµáĭ°áīµ":7019,"áīłáĪįáĬ«":7020,"áĬĲáĮĪ":7021,"ĠáĬ¥áĬķáī°áĭĦ":7022,"áī¥áĪŃáĪĥ":7023,"ĠáĬ¨áī°áĬķ":7024,"áĭĳáĭŃ":7025,"áīĽáĬķáīĭ":7026,"Ġáĭ°áĪļ":7027,"áĪĭáĭĬáīµ":7028,"ĠáĬ£áĭŃáĭĪ":7029,"Ġáĭ°áĪŃáī¢":7030,"áĬķáĮ¸áī£áĪ¨":7031,"ĠáĬķáī£áĭķáĪī":7032,"áĪįáĭķáĪį":7033,"ĠáĪĿáĬķáī£áĪ«":7034,"ĠáĬ£áīķáĪªáī¡":7035,"Ġáĭ°áīĴáīķáĬķ":7036,"ĠáĬĲáįįáĪµáĪĦáĪŃ":7037,"áĬĲáī°áĭŃ":7038,"ĠáĬķáĪ°áĪĪáĪµáī°":7039,"áĪĵáĪ³":7040,"ĠáĪĺáĭ°áĪ¨":7041,"ĠáĭĿáĭįáĬķ":7042,"ĠáĭĿáĬĲáīłáĪ¨áĬķ":7043,"ĠáĪĺáĭµáĪ¨áĬ»áīµ":7044,"ĠáĪ¨áĭµáĬ¤áīµ":7045,"ĠáīħáĪįáĭį":7046,"ĠáīĪáĪŃáīłáīµ":7047,"ĠáĪĿáĭķáī£áĪĪáĬķ":7048,"ĠáĪµáĪī":7049,"ĠáĪķáĮīáĪµ":7050,"áī¸áĪĿ":7051,"ĠáĭĦáĬķáĬ«":7052,"áĬķáĬ©áĪĿ":7053,"áī°áĪ«":7054,"ĠáĮĢáĪĺáĪŃ":7055,"áĪįáĬ«áĬķ":7056,"ĠáĬķáī¥áĬ¡":7057,"áī²áĬŃ":7058,"ĠáĭĺáĭŃáī¥áĪĭ":7059,"ĠáĬ¨áī£áī¢áĬ£áĬķ":7060,"ĠáĪĿáĮįáĪĭáĮ½":7061,"áīłáĪ«áĬķ":7062,"áĭķáĭ³":7063,"ĠáĪĺáĪĭ":7064,"ĠáĬŃáĪª":7065,"ĠáĪĿáĪĿáĮ»áĬ¥":7066,"ĠáĭĿáī°áĮĪáĪįáĮ¸":7067,"áĪŃáĬ¥áĭ®áĪĿ":7068,"ĠáĬķáĬ£áĪŃ":7069,"áĪµáĪĿáĭķ":7070,"ĠáĬ¥áĭĭáĬĳ":7071,"ĠáĬ£áī¡áĬĲ":7072,"ĠáĬķáĮ¡":7073,"áĭ´áĪ«":7074,"áĬķáĮ¡":7075,"áĪĿáĮįáī£áĪŃ":7076,"ĠáĬ£áĭ°áĬķ":7077,"áĭ²áĪī":7078,"ĠáĬ¥áĬķáī°áĪµ":7079,"ĠáĬ¨áĪĿáĬ¡áĭįáĬķ":7080,"ĠáįĪáī°áĬĲáī³áīµ":7081,"áĮĭáĭľ":7082,"Ġáī³áĪķáī²":7083,"ĠáĬ£áĮ¸áĮĭáĪļ":7084,"ĠáĬ®áĪĿáįķ":7085,"ĠáĪµáĮķáĪĿáī²":7086,"áī³áī°áĭŃ":7087,"áĮİáĬķ":7088,"áĭµáĪĿáĮº":7089,"ĠáĬ£áī°áĪĵáĪ³áĪ²":7090,"ĠáĭĮáĪµáīµ":7091,"Ġáī°áĪ³áī³áįįáĬĲáīµ":7092,"áĪįáĪĽ":7093,"ĠáĭĪáĮĭáĪķáī³":7094,"áĪĺáĪŃáĮ½":7095,"ĠáĭĺáĪĺáĪįáĬŃáīµ":7096,"ĠáįįáĮ¥áĪ¨áīµ":7097,"áĮ¥áĬ«":7098,"Ġáī´áĪĮáįİáĬķ":7099,"áī³áĪªáĬ½":7100,"Ġáī°áĭĪáĪ°":7101,"ĠáĪĵáĬķáĮİ":7102,"áī³áĪįáĬķ":7103,"áĬ£áĬŃáĪį":7104,"áĮįáī£áĪ©":7105,"Ġáī°áĬ¸áįĬ":7106,"ĠáĭĿáĮįáī¥áĬ¦":7107,"áĮįáĬķáĭĽáī¥":7108,"áīµáĪĽáĪĬ":7109,"ĠáĬ²áĪī":7110,"ĠáĪ°áĬķáĭĵ":7111,"ĠáĬķáĪĵáĭµáĪķáĭ¶áĪĿ":7112,"ĠáĬ£áĮłáīĵáīķáĪĽ":7113,"ĠáĬķáīłáĭŃáĬĳ":7114,"áĭįáĬ¢":7115,"áīłáĮ½áĪĲ":7116,"ĠáĪķáĪ³áī¥":7117,"ĠáĪĪáĭŃ":7118,"ĠáĬ£áī°áĪĵáĪķáĭĽ":7119,"ĠáĪĵáĮĭáĭĿ":7120,"ĠáĪĺáī¥áĪ«áĪħáī²":7121,"ĠáĬ£áĭ±áĪĬáĪµ":7122,"ĠáīĥáĬĵ":7123,"ĠáĪĺáĪµáĪŃáĭķ":7124,"áĮ¥áĪĿáīµ":7125,"ĠáĮ¥áĭĳáĭŃ":7126,"ĠáĬ¤áĪįáĭ«áĪµ":7127,"ĠáĮŃáĭĭáĭ³":7128,"áĪ«áī¢":7129,"áĬķáī±áĪµ":7130,"áĪĪáĪŃ":7131,"ĠáĭĿáĬ¨áĬ£":7132,"áįįáīħáĪ®":7133,"áĬķáĮ½":7134,"ĠáĬŃáĪķáĭĿ":7135,"Ġáī¥áĪ°áįĬáĪĳ":7136,"ĠáĭĺáĬ«":7137,"ĠáĪĵáĮĲ":7138,"ĠáīħáĭµáĪľ":7139,"ĠáĭĿáĪ¨áĬ¸áīł":7140,"áĪįáīģ":7141,"Ġáī¥áĪĥáĬķ":7142,"áĭĵáĪ³":7143,"ĠáĮ½áĭĭáĬ¥":7144,"Ġáĭ°áĭĬ":7145,"ĠáĭĿáī°áĮ»áĪķ":7146,"ĠáĭļáĭĿ":7147,"áĪ°áĭĵáīµ":7148,"áĭĵáĪĿ":7149,"ĠáĬ£áī¢áĪįáĬ«":7150,"Ġáĭĺáĭįáĭ²":7151,"ĠáĬŃáĮĪáĪįáĮ½":7152,"ĠáĪĿáĭįáĭ³":7153,"áĪĺáĪĵáĭ¨":7154,"áĮĪáĮº":7155,"ĠáĬ¨áĭŃáĭĪ":7156,"ĠáĮİáĭµáĬĴ":7157,"ĠáĪŀáĭ«áĭįáĭ«áĬķ":7158,"Ġáĭ°áī¥áĭ³áī¥":7159,"ĠáĬ¢áĭ°áĭŃ":7160,"ĠáĪŃáĭµ":7161,"áĪ°áĪŃáĪĵáĪī":7162,"ĠáĬ¥áĬķáĮĮáĪ«":7163,"38":7164,"Ġáī£áĭķáĪĭ":7165,"Ġáī¥áĪĿáĪħáĪĭáĭī":7166,"áī¥áĬ©áĪĿ":7167,"Ġáī°áī£áĪĤáĪĭ":7168,"áĭįáĪµáĬ½":7169,"ĠáīĢáĭŃáĭ²":7170,"Ġáī°áĭĺáĪŃáĮĬ":7171,"ĠáĬ£áĭĪáĪĥ":7172,"ĠáĪŀáīµáĬķ":7173,"áī´áĬĵ":7174,"áĬ»áĭ®":7175,"ĠáįįáĪ«áĬķáĪµ":7176,"áī³áĪª":7177,"ĠáĪ½áĪķáĬķ":7178,"ĠáĬķáīłáĭŃ":7179,"Ġáī°áĪ½áĬ¨áĪŃáĬ¨áĪŃáī²":7180,"áĪįáĪĭáĭŃ":7181,"ĠáĪ±áįĲáĪŃ":7182,"Ġáī°áĬ½áĪĪáĪĥáĭŃáĪĽáĬĸáīµ":7183,"áĬĲáĪį":7184,"áĭĺáĪİ":7185,"....":7186,"ĠáĬŃáįĭáĪĭáīµ":7187,"áĭĴáĬķ":7188,"áĪµáīµáĪ®":7189,"ĠáįĵáĪŃáĪ°áĪį":7190,"áĬ©áĪĭ":7191,"áĮºáĪī":7192,"ĠáĬ¥áĬĵáī°áī£áĪħáĪĪ":7193,"áī¥áĭ®áĪĿ":7194,"áĮįáĪ«áĪĿ":7195,"áīĵáīķ":7196,"ĠáĬ«áĪįáĬ£áĭŃáĬķ":7197,"ĠáĪĿáįįáĮ£áĪŃ":7198,"ĠáĬ«áĪŃáĭµ":7199,"áĪ½áĬĵáĪį":7200,"áĭŃáĬķáĬ»":7201,"áĪĽáĪĿáĬķ":7202,"ĠáĪĵáī°áīµ":7203,"ĠáĬŃáĭĪáĪµáĭµ":7204,"áīµáĬķáįĭáĪµ":7205,"ĠáĬķáĪĿáī¥áĮ»áĪķ":7206,"Ġáī¥áīĲáĪ¨áī£":7207,"ĠáīµáĪĿáĪħáĪŃáī±":7208,"ĠáĭĿáī°áĪ¨áĬ½":7209,"ĠáĪĵáĮºáĬķ":7210,"ĠáįĬáĪįáĪĿáī³áīµ":7211,"Ġáī°áĮłáīĢáĪĿáī²":7212,"áįįáĪĲ":7213,"ĠáĪ°áī¥áĬ¡":7214,"ĠáĪĽáĪķáīłáĪ«áīµ":7215,"ĠáĭĵáĪŃáĬ©":7216,"ĠáĪĵáĭ°áĮĭáī³áīµ":7217,"ĠáĪµáĭĬ":7218,"áĪ¬áĭµ":7219,"áīłáīķ":7220,"ĠáĬŃáįīáĬ¥":7221,"ĠáĭĺáĬķáĮ¸áī£áĪŃáīķ":7222,"áĭ³áĪķ":7223,"áĪĿáī¦":7224,"ĠáĬķáĪĿáĪĿáĪķ":7225,"ĠáĪĵáĪ³áī£":7226,"áĬ¥áĪĿáĪĽáĬķ":7227,"ĠáīłáĪįáĭİ":7228,"ĠáĭĿáĬ¸áįįáĬł":7229,"ĠáĭĺáĮĪáĭµ":7230,"ĠáĪĥáĬĵ":7231,"ĠáĪĺáĪĵáĭĽ":7232,"ĠáĮĪáīłáĬĵáĭĬ":7233,"Ġáĭ³áĭķáĪ½":7234,"áĭ©áĭİ":7235,"áĮĮáĮĭ":7236,"ĠáĬ¤áĪĪáĬŃáīµáĪ®":7237,"áī°áĭĵ":7238,"Ġáī¥áĮ«":7239,"áĬ¨áĪ³áĪ²áīµ":7240,"ĠáĪĿáĪķáĭĿáĬĲáīµ":7241,"ĠáĪĿáīµáĪķáĪįáĪĭáįį":7242,"áĬŃáĭĴ":7243,"áĮºáĪŃ":7244,"ĠáīħáĪ³":7245,"ĠáĪ«áĬ¥áĭŃ":7246,"áĮ¥áįĪ":7247,"ĠáĮĪáĪµáĮĭáĪµ":7248,"ĠáĪ°áĪİáĪŀáĬķ":7249,"áĭµáĪĭ":7250,"Ġáī°áĪįáĬ¥áĬ¾":7251,"áĪµáīµáĭ®áĬķ":7252,"Ġáī°áĪŃáī³":7253,"áīĲáĪĪ":7254,"Ġáī¥áĪĿáĮ½":7255,"Ġáī¥áĪĿáĪĥáī¥":7256,"áīłáĪ©áĬķ":7257,"ĠáĬ£áĭµáĮĬ":7258,"ĠáĬ¥áĮĥáĪĿ":7259,"ĠáĬŃáĪĵáīµáīµ":7260,"áĭķáĪĪ":7261,"ĠáĭĪáīķ":7262,"ĠáĬ¥áĬķáĭµáĪķáĪŃ":7263,"ĠáĮ½áĪĭáīµ":7264,"ĠáĮīáĭ«":7265,"Ġáī¥áĭĿáīłáĪĪ":7266,"ĠáĪ¨áī¡áĭķ":7267,"ĠáĮĲáĪµáĮĵ":7268,"ĠáĪ³áĬķáĭ±áīķ":7269,"ĠáĬ£áĪĺáĬķ":7270,"áįįáĪµ":7271,"áĬ»áĬ¥áĪĪ":7272,"ĠáĬ£áĬķáĮ¸":7273,"ĠáĪĺáĪ«áĬ½áī¥":7274,"ĠáĭĺáĬ«áĭ¨áĭµáĭİ":7275,"áĪħáĪĪ":7276,"ĠáĪĺáĪµáįįáĬķ":7277,"áĪµáįĭáĪķ":7278,"áĮįáĬĵáĬ¸":7279,"ĠáĪĺáįįáĪ¨":7280,"ĠáĭĵáĪ¶":7281,"áĪħáĭ²":7282,"ĠáĮ¥áĪįáĭ«áĬķ":7283,"ĠáĬķáĪħáĭŃáĭĪáīµ":7284,"ĠáĭĺáĪŃáĬ£áĭŃ":7285,"áĭ¶áĪŃ":7286,"ĠáĪĺáĪµáīĢáĪį":7287,"ĠáĪĿáĪĿáĪĭáĪµ":7288,"áĬĲáīłáĪ®":7289,"áĪĬáĪ±":7290,"ĠáīħáīµáĪĪáīµ":7291,"áĮĢáĪļáĪ©":7292,"ĠáĬķáĪĿáĭķáī£áĭŃ":7293,"ĠáĪĺáĮīáĭ³áĬ¥áī²":7294,"55":7295,"áĮ¥áīķ":7296,"ĠáĭĵáĪĺáīµáĬķ":7297,"áĮĭáĮįáī£":7298,"áĪķáĭİ":7299,"áĪĭáĪ°áĪį":7300,"áĪ½áī³":7301,"áĪįáīĢáĪį":7302,"áī¥áĪ°áĬķáĬª":7303,"áĭĪáĬĴ":7304,"Ġáī¥áĪĿáĭĥáĬĸáĪĿ":7305,"ĠáĭĿáĭĽáĪ¨áī¥":7306,"ĠáĭķáĪĿáī£áī£":7307,"ĠáĬķáĮįáĭľ":7308,"ĠáįĵáĬª":7309,"áĪĿáĪīáĬ¥":7310,"ĠáĪĺáĪķ":7311,"áĭŀáĬķ":7312,"ĠáĭĿáĪĺáĭ°":7313,"ĠáĪĿáīµáī¥áī£áĭķ":7314,"ĠáĬ«áįķ":7315,"ĠáĪ³áĭķáī¤áĬĳ":7316,"ĠáĭĿáĮĪáĪĪáĮ¸":7317,"ĠáĬ¨áī¢":7318,"áĮįáĭĺáĬĵ":7319,"ĠáĭĿáįįáĮ¸áĪĿ":7320,"áĪ¨áĬŃ":7321,"ĠáĪ°áįĪáĪŃ":7322,"ĠáĬ£áī¦áī³áīµ":7323,"áīµáĬĲáīµ":7324,"Ġáĭµáī£áĪŃáĭĭ":7325,"áĬĲáĪª":7326,"áĬ£áī¥áĬ¡":7327,"Ġáī¥áĪĿáĪĿáĮ»áĬ¥":7328,"Ġáīłáī¥áĬ¥áĭĭáĬĳ":7329,"ĠáĬķáĪĿáĮįáĪĭáĮ½":7330,"ĠáĬ£áĪ°áĬķ":7331,"áĪµáĭµáĪ«":7332,"Ġáī¦áĪĿáī£":7333,"ĠáīµáĪŃáĮī":7334,"ĠáĪĿáĭĿáĪŃáĮĭáĪķ":7335,"áĮĪáī¥áĪ«":7336,"Ġáīħáī¡áĪį":7337,"áīłáĪīáĬķ":7338,"ĠáĭĿáĬ¸áĭ±":7339,"Ġáī¥áĭµáĪĿáĪŃ":7340,"ĠáīµáĮ½áī¢":7341,"ĠáĪĺáĪįáĬ£áĬ½":7342,"ĠáĬ£áĮ£":7343,"ĠáĬķáįĭ":7344,"ĠáĪĵáĭī":7345,"ĠáĪĿáĪµáīµáĪĿ":7346,"áĬ¤áĪµáĮĤ":7347,"ĠáįķáĪ®áįĮ":7348,"ĠáĮįáĭĿáĬ£áīµ":7349,"ĠáĬķáĭĪáĭ²":7350,"áįĪáĬĴ":7351,"ĠáĪĺáĪ»áĪŃáĬ½áī²":7352,"Ġáĭĺáĭĺ":7353,"áĮłáĪ©":7354,"áĪµáī°áĪŃáĬķ":7355,"ĠáĮİáĭ°áĬĵáī³áīµ":7356,"ĠáĪĺáīĲáĮ¸áĪįáī³":7357,"ĠáĪĺáĮ»áĪĿáĭµáī²":7358,"áĭµáĪķáĬķ":7359,"áīĢáĬĴ":7360,"ĠáĪĺáĪ°áĪī":7361,"ĠáĬ£áĭµáĪħáī¦":7362,"ĠáĪĵáĪ¨áĪµáī³áĭŃ":7363,"ĠáĭĿáĮĲ":7364,"áĮ»áĪļ":7365,"áīĳáĬķ":7366,"Ġáī¥áĪŃáĬª":7367,"ĠáīĢáĮł":7368,"ĠáĪ®áĪľ":7369,"ĠáĭĪáī°áĪĥáĭ°áĪŃ":7370,"ĠáĪµáĪĪáĭĿáĭ°áĪĪáĬ¹":7371,"ĠáĭĪáĬķáĮĮ":7372,"ĠáĪķáĮįáī³áīµ":7373,"áĬĲáĪµ":7374,"ĠáĬªáĬĸ":7375,"ĠáĭŃáĪħáī¥":7376,"áĬ»áĪª":7377,"ĠáĪµáĪķ":7378,"ĠáĮĭáĪĭ":7379,"ĠáĮ½áĪĳáįĭ":7380,"ĠáĪĺáī¥áĮ½áĭĵ":7381,"Ġáī¥áĪĵáĬķáĪ³áī¥":7382,"ĠáĭĪáĪĪáĭµáĬĵ":7383,"áī¥áī°":7384,"Ġáī¥áĬ¨áĪĭ":7385,"áĭ°áĬĴ":7386,"áĭĿáĬķáĮĭáĭķ":7387,"áĬķáĬ½":7388,"áī£áĪŃáĬķ":7389,"áĪľáīµ":7390,"ĠáĪĽáĬ¥áĪĪáĭ«":7391,"ĠáĪĿáĪĿáĪķáĭ«áĪ½":7392,"áĬķáĮīáĪµ":7393,"ĠáĬ£áĪŀ":7394,"ĠáĬ£áĮī":7395,"áĪŃáĭ°áīµ":7396,"ĠáĪĺáĬķáĮ½áĪŃ":7397,"áĬ¥áĬķáĪĨ":7398,"ĠáĬ£áĪµáĪĽáīµ":7399,"ĠáĪĿáĮ¥áįĭáĬ¥":7400,"ĠáįĭáĪŃáĪĽáĪ²":7401,"áī¥áĭ¨":7402,"áĬ«áĪī":7403,"ĠáĭĪáĮ¥áĪª":7404,"Ġáī£áī¡áĪŃ":7405,"ĠáĮ½áĮĪáĬĵ":7406,"ĠáĬ¨áĪĿáĭĿáĭĵáĮ¸áĬĵ":7407,"Ġáī°áĬķáīĢáĪ³":7408,"ĠáĭĿáī°áĭĪáĪ°áĬĲ":7409,"ĠáĪĺáĮĭáī£áĬ¥áĭ«":7410,"áĭĺáĬĲ":7411,"ĠáĮ«áĬ«":7412,"41":7413,"ĠáĪķáīĸ":7414,"áĪĽáĪĿáĭĳ":7415,"ĠáĪĿáĭµáĪ¨":7416,"ĠáĮĪáĭŃáĪŃáĬĵ":7417,"ĠáĪĺáĭ°áīĢ":7418,"ĠáĪĿáĪķáĪ³áī¥":7419,"Ġáĭ°áĪŃáĪĨ":7420,"ĠáĬ£áĮł":7421,"ĠáĭµáĪ©":7422,"áĭĺáĬĴ":7423,"áĪĥáĪĤ":7424,"ĠáĮĪáĮĢ":7425,"ĠáĬ¥áīµáĪķ":7426,"ĠáĭŃáĮĪáī¥áĪ®":7427,"ĠáĬ£áĭŃáĪĺ":7428,"áī¥áĪŃáī³áīµ":7429,"ĠáĪ»áīķ":7430,"áĪħáī¥áī¶":7431,"áĪĭáĬ¸":7432,"áįĭáįĬ":7433,"ĠáĬ£áįįáīĢ":7434,"ĠáĬķáĪĺáĮĢáĪĺáĪŃáī³":7435,"Ġáĭ©áĬŃáĪ¬áĬķ":7436,"áĭµáĬ©":7437,"ĠáĬ«áī¥áĬ£":7438,"áī¤áī³áīµ":7439,"ĠáĬ£áīĲáĭ²áĪĽ":7440,"ĠáĬ£áĭ°áī³áīµ":7441,"áĪµáĪķ":7442,"áĭ°áĮĭ":7443,"ĠáĭĺáĮ¸áĬĵáĬĵáĭķáĬ©áĪĿáĬĵ":7444,"ĠáĬķáĬ»áĪįáĬ¥":7445,"áĬĸáĪĿáĬķ":7446,"Ġáī¥áĪĥ":7447,"ĠáĬ«áī£áĭŃ":7448,"ĠáĬķáĬ¥áĪµáĬĲáīµ":7449,"áĪ«áįį":7450,"ĠáĬ¨áĮĭáĮ¥":7451,"ĠáĪįáī£":7452,"ĠáĬŃáīµáĪ°":7453,"ĠáĬ¸áĪĪáĭī":7454,"áī°áĬķáĬķ":7455,"Ġ400":7456,"áĬ¥áī°áĭĬ":7457,"ĠáĪĺáĪµáĪĺ":7458,"Ġáī°áĭĽáĪ¨áīł":7459,"áĪķáĪįáįİ":7460,"áī°áĪİ":7461,"ĠáĪĿáĪµáī°":7462,"áįĬáĪ®áĪĿ":7463,"áĭĭáĬķáĮ«":7464,"áīłáĪĪáĬķ":7465,"Ġáī¥áĪĿáĪĿáĭĿáĮĭáī¥":7466,"!?":7467,"ĠáĬ¨áĪĺ":7468,"Ġáī£áĬ¥":7469,"ĠáīħáĪ¨áī¥":7470,"ĠáĪµáĪĪáĭĺáĪĪáĭİ":7471,"áĬ£áī£áĪĭáīµ":7472,"áĬ£áĪķ":7473,"ĠáĬ£áįįáĬķáĮ«":7474,"Ġáī¥áĭįáĪĳ":7475,"áĪ°áĪĪáĪµáī°":7476,"36":7477,"áī¡áĬĴ":7478,"ĠáīĢáĪĺ":7479,"áĮĪáĪįáĮįáĪİáīµ":7480,"ĠáĬķáĪĿáĬ½":7481,"ĠáĬ¦áĪĿ":7482,"áĬ¥áĬķáī°áĭĢáĬĲ":7483,"ĠáĬ£áĭįáĭ²":7484,"Ġ2004":7485,"ĠáĭĿáĭĪáĪ°áĭ°":7486,"áĪŃáĪŃ":7487,"ĠáĭĿáī£áĬķ":7488,"ĠáĮ¸áī¢áī¥":7489,"áĬĸáĬŃ":7490,"ĠáīµáĪ½áĭĵáī°":7491,"áĪĿáĪĿáĪķáĭ³áĪŃ":7492,"ĠáĪħáĮ¹áĮ½":7493,"ĠáĬķáĬ¥áĪµ":7494,"ĠáĮ¥áįį":7495,"ĠáĬ¥áī¥áĪį":7496,"ĠáĬķáī¥áĪį":7497,"ĠáĪĪáĬķáĭ°áĬķ":7498,"Ġáī¥áĪĿáĪīáĬ¡":7499,"áĪ¨áĭ¨":7500,"áĬŃáĪ©":7501,"ĠáĪµáĪĿáĬ¦áĬķ":7502,"ĠáĬ£áīµáĭ«":7503,"ĠáĬ¦áĪİáĪĿáįĴ":7504,"ĠáĮķáĮħáĪĪ":7505,"áī¥áĬ»áĪįáĬ¥":7506,"áĮ¨áĭį":7507,"ĠáīłáĮĥáĬ»":7508,"ĠáĭĭáĪħáĭ®áī³áīµ":7509,"áĪ³áĪĿ":7510,"áĪµáī²áįĭáĬĸáĪµ":7511,"áĪ¨áĪĿáī²":7512,"ĠáĬ¥áĬķáī°áĪĥ":7513,"Ġáī£áī¢":7514,"áĮĥáīµ":7515,"Ġáī¥áīķáĪįáĮ¡áįį":7516,"ĠáĪįáĬ¡áĬ½":7517,"ĠáĪŃáĮįáĮ¸":7518,"ĠáĪ²áĬĲáĪĽ":7519,"ĠáĭĪáĭ³":7520,"áīĥáĭķ":7521,"ĠáĪµáĪĪáĭĺáĭŃáĬ¨áĬ£":7522,"Ġáī¥áĪĿáĭµáĭĭáĪį":7523,"ĠáĭįáĪħáĭ°áīµ":7524,"áīµáĪį":7525,"áĮĪáī£áī¥":7526,"Ġ)áį¡":7527,"ĠáĪĿáįįáĪ«áĭŃ":7528,"áĪĤáĬķ":7529,"ĠáĪ³áĪĿáĪ¶áĬķ":7530,"áĪ½áĬ¡":7531,"ĠáĪ±áĭ³":7532,"Ġáĭ¨áī¥áĪĭáĬķ":7533,"áĪĺáĪĿáĪħáĪŃ":7534,"ĠáīłáĪĥ":7535,"Ġáī¥áĭĿáĪĵ":7536,"ĠáĬĵáīµáĬĵáĬ¤áĪį":7537,"ĠáįįáĮ¡áĪŃ":7538,"05":7539,"áĪħáĮī":7540,"ĠáĭįáĮī":7541,"ĠáĪįáĬ¢":7542,"ĠáĭĿáĪħáī¦":7543,"ĠáĮ½áĬķáĭĵáīµ":7544,"áī¥áī£":7545,"Ġáī¥áĭļ":7546,"áĭĵáĬ«":7547,"áĪ°áĪİáĬĵ":7548,"áĪªáĪĻ":7549,"ĠáīĭáĬķáīĭáī³áīµ":7550,"áī³áĪķáĪª":7551,"ĠáĬ£áī¥áī¶áĪĿ":7552,"ĠáĭĺáĭŃáĪĺ":7553,"Ġáī¥áĭįáĪķáĭ±":7554,"ĠáĭŃáĮł":7555,"ĠáĭĵáĪŃáĬª":7556,"ĠáįĪáĬķáīħáĪį":7557,"34":7558,"ĠáĭŃáĭķáĭµáĪĿ":7559,"áĪĺáĮ½áĪĵáįį":7560,"ĠáĪ°áĪ«áĭĬáīµáĬķ":7561,"áĬķáĪĵ":7562,"ĠáĬĲáĬĵ":7563,"áĬ©áĪİáĪĿ":7564,"áī´áĪŃ":7565,"Ġáĭ³áĪµ":7566,"áī³áī¶áĪĿáĬķ":7567,"áĪ³áī°áįįáĭİ":7568,"áīłáĪŃáĬ«":7569,"ĠáĭĽáĭŃáĭµ":7570,"áĬĴáĪµ":7571,"Ġáī°áĬ½áĪĭáĭŃ":7572,"áī»áĭŃáĬĵ":7573,"ĠáĭĵáĭŃáĬĳ":7574,"áĭĺáĪŃáĪĭáĬķáĭµ":7575,"áĮ½áĬ«":7576,"Ġáī¥áĭĿáĪŃ":7577,"áĮ¡áĬķ":7578,"ĠáĭĿáī°áī£áĪħáĪī":7579,"ĠáĪĿáĪĥ":7580,"áĪħáĪ«":7581,"ĠáĬ¥áĬĵáĭĺ":7582,"áĭĪáĭ³áĭ°áĪŃ":7583,"ĠáĬŃáĮįáīłáĪ¨áĪī":7584,"ĠáĬ¥áĪĻáĬķ":7585,"áĮįáĭ«áīµ":7586,"ĠáĪĵáĪĭáĭĬ":7587,"ĠáĭķáĪ¨áįį":7588,"ĠáĮ¥áĬķáī²":7589,"ĠáĬ®áī³":7590,"áīłáĭŃáīµáĬķ":7591,"ĠáĪĽáĭŃáī°áĪĺáĬĵáĭŃ":7592,"ĠáĪķáĪĻáĪĽáīµ":7593,"ĠáĮİáĭ³áĭŃáįį":7594,"Ġáī¥áĪķáĪĽáĪĿ":7595,"áĭ«áĪĿ":7596,"ĠáĪĿáĪµáĮįáĬĵ":7597,"ĠáĪĥáĪįáĭ©":7598,"áĮīáĭŃ":7599,"ĠáĮŃáĪŃ":7600,"Ġ09":7601,"ĠáĪµáĭīáĬ¥":7602,"ĠáĪĬáī¥áĭ«":7603,"ĠáĬķáĬ¥áĮįáĭļáĬ£áī¥áĪĦáĪŃ":7604,"32":7605,"áī¥áī¦":7606,"ĠáĪ°áĪĮáĭ³":7607,"ĠáĬ£áĭŃáĭ°áĪĪ":7608,"ĠáĪĵáĪĭáĭį":7609,"ĠáĭĿáĮ¸áĬķáĪĵ":7610,"áĮĭáĮĪáĪª":7611,"ĠáĭĺáĭŃáĪķáĮĭáĭĬ":7612,"áĮ½áĭİ":7613,"ĠáĭĿáĪ°áĭĵ":7614,"Ġ2006":7615,"áĪ®áĪŃ":7616,"áĮ¥áīĢáĪĿ":7617,"ĠáĪĺáĬķáĪ½áĪ®":7618,"áĪ½áĮ£áĭĬ":7619,"ĠáĪĪáĪĿáĪĪáĪĿ":7620,"áĪĺáĪĺ":7621,"ĠáĪĺáĪ°áĭįáĬ¢":7622,"ĠáĪĺáĮ½áĬĵáĭķáīµáī³áīµ":7623,"ĠáĪĺáįįáīµáĪĴ":7624,"ĠáįĪáĪĭáĪļ":7625,"áĪĽáĬ¥áĬ¨":7626,"áīĥáĪĪáĪµ":7627,"ĠáĬ®áĪļáī´":7628,"áīłáĮ½áĪĸ":7629,"áĪĵáĭµáĪ½":7630,"áĮºáĪĻ":7631,"Ġáī°áĪĺáĪ¨":7632,"ĠáĬŃáĬ¢áĪİáĪĿ":7633,"ĠáĬķáĪĿáĭįáĪĵáĪµ":7634,"Ġáī£áĬ¥áī³áī³áīµ":7635,"áĪĿáĪįáī²":7636,"ĠáĭŃáĪµáĪĿ":7637,"áįĪáīµáĬķ":7638,"áįĪáĮ¥áĪ®":7639,"ĠáĮįáĪªáĬ½":7640,"ĠáīµáĮįáī£áĪ¨":7641,"áĮ¸áĪĵ":7642,"ĠáĮ¸áĪĭáĬ¥":7643,"ĠáīµáĪŃáĮķáĪĿ":7644,"áĪ¨áĮĪ":7645,"ĠáĬ®áĪĮ":7646,"ĠáĬĲáī¥áĪ³":7647,"ĠáĭĿáĪĵáĭĺáīµ":7648,"ĠáĬ¨áĪ³áĪ²áīµ":7649,"áīĥáīķ":7650,"ĠáĮ»áĭķáĪŃáĬķ":7651,"ĠáĬ¢áĬķáĭ±áĪµáīµáĪª":7652,"áī°áĪ«áīµ":7653,"áĭµáĭ³áĬ¥":7654,"Ġáī°áįĪáĪį":7655,"áĬĴáĬĳ":7656,"ĠáĪķáĬķáĮ»":7657,"Ġáī¤áī¶áĪĿ":7658,"ĠáĮĪáĮ¾áĪĿ":7659,"ĠáĪĵáīłáĬķ":7660,"Ġáī¥áĪµáĬĲ":7661,"ĠáĪĽáī´áĭİáĪµ":7662,"ĠáĭįáĪķáĮħ":7663,"ĠáĬĳáĬŃáĪĮáĪ³áĭĬ":7664,"ĠáĪ»áĪĿ":7665,"áī¥áĪĪáĬ©áĪĿ":7666,"ĠáĪĺáĬ¨áĪ«":7667,"ĠáĮįáĭļáĬ¡":7668,"áĪ®áīµ":7669,"ĠáīµáĪĺ":7670,"áĭ±áĪį":7671,"Ġáī¥áĪĵáĮºáĪ©":7672,"áī°áī°":7673,"ĠáĮĮáĪ©":7674,"áīĲáīµáĪī":7675,"áįĮáī³":7676,"áĮĪáĮ¥":7677,"ĠáĭĿáī°áĬ¸áįį":7678,"ĠáĪĺáĪŃáĭĵáīµ":7679,"ĠáĬ«áĪķáĪ³":7680,"áĪµáī°áĪĽáīķ":7681,"ĠáĬ£áĭ°áĬ¡":7682,"áĬķáĭķ":7683,"ĠáĬ¥áĭļáĬ¦áĪĿ":7684,"Ġáĭĺáī°áĬ£":7685,"áĬ©áĬ»":7686,"áĪ«áī³áīµ":7687,"ĠáĬ¨áĪĪ":7688,"Ġáīµáī¥áĪİ":7689,"Ġáĭ²áĭ«":7690,"ĠáĭĿáĭ°áĪĪáĭ¨":7691,"ĠáįįáĮ»áĪĺáī³áīµ":7692,"áĭ¥áĭ«":7693,"ĠáĬķáĭħáĪİáĪĿ":7694,"áĪĭáīµáĬĴ":7695,"ĠáĬĲáĭŃáĪ©áĭİ":7696,"ĠáĮŃáĬķáīĢáīµ":7697,"ĠáĭĪáĪĥáī¥áī²":7698,"ĠáĭķáĭµáĪļ":7699,"ĠáĬķáĭ°áĮĪ":7700,"áĬĲáīĲ":7701,"áĪ¨áī¥áĪĵ":7702,"Ġ55":7703,"ĠáĭķáĬķáīħ":7704,"áĭļáĬ£":7705,"ĠáĬŃáī±áĪŃ":7706,"Ġáī³áĭķáĪĬ":7707,"áĪĺáĪ¬áīµ":7708,"áĮĪáĭµáī³áīµ":7709,"ĠáĬ¨áĭķáĪį":7710,"áĪĳáĪį":7711,"ĠáĬ£áĪįáĪĽáĭĿ":7712,"ĠáĭŃáīłáĪį":7713,"áĪĿáĪµáĬŃáĪŃ":7714,"ĠáĭĿáĪĿáĭµáĬĵáī³áīµ":7715,"ĠáĬ¥áĬķáĭ¶":7716,"ĠáīµáĪĺáĪµáĪį":7717,"ĠáīģáĪĿ":7718,"áĪ°áĬķáīłáīµ":7719,"áīªáī½":7720,"áĭįáĭµáĭµáĪŃ":7721,"Ġáī¥áĮŃ":7722,"ĠáĬ£áĭŃáīĢ":7723,"ĠáĭĿáĮĪáīłáĪ©":7724,"Ġáī°áĭĪáĭ³áĭ³áĪŃ":7725,"ĠáĬ£áĭ³áĪį":7726,"ĠáĮģáī£":7727,"ĠáīłáīĴáĭĳ":7728,"áī¥áĪ®áĪĿ":7729,"ĠáĪķáĮī":7730,"Ġáįįáīĳ":7731,"ĠáĬķáĭĭ":7732,"ĠáĬŃáĮĪáī¥áĪ®":7733,"áĪĽáĭ²":7734,"áįįáĬ¥":7735,"áĮ£áĮ¥":7736,"áī³áĪķáī²":7737,"ĠáĬķáĪĿáįįáī³áĪķ":7738,"ĠáĮħáĮįáĬķ":7739,"ĠáĬ¥áĬķáī°áĪ¨áĬºáī¡":7740,"áĬ¥áī°áĭĪ":7741,"áĭĿáĬ£":7742,"ĠáĭĿáĭĪáĪĥ":7743,"Ġáĭ«áī³áĭĬ":7744,"áįĪáĮ¥áĪ¨":7745,"ĠáĮįáĪ«áĪĿ":7746,"ĠáīĢáĮ¸áĪĪ":7747,"áĮ£áī¥":7748,"ĠáĬ£áĮ¥áīĥáĭĴ":7749,"Ġáĭ°áĪĥ":7750,"ĠáĬ£áĪĺáĪĵáĭ°áĪŃáī²":7751,"áĪĵáĭŃáĪĬ":7752,"ĠáĭĿáĭĪáĪµáĭµ":7753,"ĠáĬŃáīµáĬķ":7754,"ĠáĪĥáĮĪáĪ«":7755,"Ġáī°áĭĭáĪħ":7756,"Ġáįįáīĵáĭ°":7757,"áĮ½áī£áĪķ":7758,"Ġáī¥áĪĿáĭĥáĬĵ":7759,"ĠáĬ£áĪµáįįáĪĥ":7760,"áĪŃáĭŃ":7761,"áĭµáĭµáĪŃ":7762,"áĪĺáī±":7763,"áĬ£áĭŃáīµ":7764,"ĠáĭįáĪ½áĮ¥":7765,"ĠáĪļáĬ¥áīµáĬķ":7766,"áĪ³áĪŃ":7767,"ĠáĬ©áĪįáĬĵ":7768,"ĠáĪ½áī³":7769,"ĠáĪĿáī¥áĪħ":7770,"Ġáįĳ":7771,"ĠáĭĺáĭŃáĪĵ":7772,"ĠáĭķáĮ½áįĬ":7773,"áī¥áĪĪáĬĵ":7774,"Ġáī¥áĪįáĪ½":7775,"áĪĽáĬķáĬķ":7776,"ĠáĬ¢áĭ®":7777,"ĠáĪĺáĪ³áĮ¢":7778,"ĠáĪĽáĭķáĬ¨áĬķ":7779,"ĠáĭŃáĭħáĬķ":7780,"ĠáĪķáĪ«áĭŃ":7781,"Ġáī°áīĲáī¢áĪī":7782,"ĠáĬĸáī³áĪª":7783,"ĠáĬķáī£áĪħ":7784,"ĠáĬŃáī¥áĪĭ":7785,"áįĪáĪĭ":7786,"Ġáĭ°áĪĬáĬ»":7787,"áĪĦáĪį":7788,"áī¥áĪ®áīµ":7789,"áĪŃáįĬ":7790,"áĪ°áĬĴ":7791,"ĠáĪ¨áĬ½":7792,"ĠáĪĿáĭķáĪ«áī£áĭĬ":7793,"áĭ°áīĲ":7794,"ĠáĪ¸áĬĲ":7795,"ĠáĪĵáĭµáĪķ":7796,"áĬ¡áĭŃ":7797,"ĠáĪĽáĪĽ":7798,"ĠáĮĢáĪ«":7799,"ĠáĭĺáĪĺáĬĲ":7800,"ĠáĬĵáīµ":7801,"Ġáĭķáĭ°áĬĵ":7802,"ĠáĭµáĪķáĪªáīµ":7803,"áĬĲáįįáĪ²":7804,"ĠáĪŀáī£áĭŃ":7805,"ĠáīĢáĮ»áĪįáĬĲáīµ":7806,"áĬ¥áĬķáī°áĭĺáĭŃáīĢ":7807,"84":7808,"ĠáĭĿáĭįáĬķáĬķ":7809,"áĭķáĪī":7810,"ĠáĭĪáĮºáĬ£":7811,"áĪĪáĬª":7812,"áĪĺáĬĵáĬķ":7813,"áĭįáĪĽ":7814,"ĠáĪĺáĪµáĪĪáĬĴ":7815,"Ġáī°áĬ¸áī³áī°":7816,"Ġáī°áįĪáĮ¢áĪ©":7817,"ĠáĬ£áĭµáĪĽáĭĴ":7818,"ĠáĪµáĭĳáĭ²":7819,"ĠáĬ¨áĭĭáĬ½áī¥áī²":7820,"ĠáĭĭáĪķáĭļ":7821,"ĠáĬķáī¤áīµ":7822,"Ġáī°áĮĪáĪį":7823,"áĭĪáĮ¥":7824,"áī³áĭŃáĬķ":7825,"áĮ½áīłáīµ":7826,"áīĢáĭ³":7827,"ĠáįĪáĪ¨áĪµ":7828,"áĮłáīķáĪĭáĪĭ":7829,"ĠáĮ£áĭįáĪĭ":7830,"ĠáĮīáĭµáĪĪáīµ":7831,"ĠáĭŃáĪĵ":7832,"ĠáĬ¦áĪ®":7833,"Ġáī¥áĭķáĭµáĪĺ":7834,"áĬ¥áĭĺáĬķ":7835,"Ġáī°áĪ°áĬķ":7836,"ĠáĪĵáĮĪáĭĽ":7837,"áĬ°áĭŃáĬĳ":7838,"ĠáĬ£áīłáĭ¨":7839,"áĪĵáĬķáĪ³áī¥":7840,"ĠáĮ¥áĪŃáĭļ":7841,"ĠáĬ¨áĬĵ":7842,"ĠáĬŃáĬķáĭ®":7843,"áĪ»áĭįáĪį":7844,"ĠáĪ³áĪĿáĬķ":7845,"ĠáĪŃáĬ¥áĪ°áĭŃ":7846,"Ġ]":7847,"áī¥áīķáī²":7848,"áįĪáĬĵ":7849,"áĭĺáī¦":7850,"áĪĺáĪĭ":7851,"ĠáĭĿáĭĵáī¢":7852,"ĠáĭĺáĪĺáĭĿáĮĪáīł":7853,"áī¥áĪµáĪĿ":7854,"áĭ°áĪİ":7855,"áĬŃáĪĿ":7856,"áī¤áī³áĭĬ":7857,"ĠáĬŃáĪĺáĪµáĪį":7858,"Ġáī°áĬ£áĪĽáĬķáĬĲáīµ":7859,"ĠáĪĺáĭĺáĬĵáĮįáĭĴ":7860,"áĮįáĭŀáĪĿ":7861,"ĠáĬ¥áįĪáĪįáĮ¥":7862,"ĠáĬ£áĭŃáĭ°áĪįáĬķ":7863,"ĠáĭĿáĭ°áĪį":7864,"áĭŃáĬķáĬ«":7865,"ĠáĮ¾áĪŃ":7866,"ĠáĬ¥áĭ°áĪĬ":7867,"áĮłáīµ":7868,"ĠáĪĴáĭĿáĬ«":7869,"áĮĲáĭŃáī³":7870,"ĠáĪ°áĪªáĪĳ":7871,"áī¥áĪŃáĮįáĮ½":7872,"ĠáĬķáĮĪáĭĽ":7873,"Ġáĭįáĭµáī£áīµ":7874,"ĠáĭĿáĪķáīłáĪŃ":7875,"ĠáĬ£áĭĭáĮħ":7876,"ĠáĬ£áĭŃáĬ¨áĬ£áĪįáĬ©áĬķ":7877,"ĠáĪ°áĪĽáĭķ":7878,"áĬ¨áī¡":7879,"áĮĭáĪª":7880,"Ġáī°áĭ³áĪįáĭ©":7881,"áĭĵáī³":7882,"áĭĽáĭŃáĭµ":7883,"Ġáįİáī¶":7884,"ĠáĭĪáĪĪáĬķ":7885,"Ġáī¢áĬķáĭ«áĪĿ":7886,"ĠáĪĺáĭĵáĪĭ":7887,"ĠáĪ°áīłáĭŃáīµáĬķ":7888,"ĠáĬŃáīµáĭĪ":7889,"ĠáĬ£áĪĺáĮĭáĮįáī£":7890,"ĠáĪ°áĪĽáĭ«áĭĬ":7891,"ĠáĪĺáĭ°áīĢáĪ²":7892,"ĠáĭĺáĭŃáĬ¨áĬ£áĪį":7893,"ĠáĭĿáĪĵáĪįáįį":7894,"ĠáĬŃáĪµáī°áīµ":7895,"ĠáĪĺáĪĪáĬŃáĭĴ":7896,"ĠáĬ£áĭŃáĬ¨áĬ£áĪĪáīµáĬķ":7897,"ĠáĬ£áįī":7898,"áĮ½áĪ¨":7899,"áĪļáī±":7900,"ĠáĬ£áĭŃáĬ°áĬĳáĬķ":7901,"áĮ¨áĭŃáī²":7902,"Ġáī°áĭĭáĪµ":7903,"Ġ2007":7904,"ĠáĬ¢áĬķáī°áĪŃáĬĲáīµ":7905,"ĠáĪĬáīĥáĭįáĬķáī²":7906,"áĭ«áĬĳ":7907,"áĬ»áĬ¥":7908,"áĬ£áī¥áĪŃáĪĥ":7909,"ĠáįĬáįĭ":7910,"ĠáĪĿáĬŃáĪįáĬ»áĪįáĬķ":7911,"áī¥áĬ¥":7912,"ĠáĬķáĪŃ":7913,"áĭĵáĭį":7914,"ĠáĭĿáī°áĪĺáĪį":7915,"ĠáĬŃáĪįáĪ°":7916,"ĠáĬ¨áī£áī¢áĬ¡":7917,"áįķáĪ®":7918,"ĠáĪ³áĪįáĪµáī²":7919,"ĠáĭĿáī°áĬ£áĪ³áĪ°áĪŃ":7920,"áĪĺáīµáĬķ":7921,"ĠáĬ£áĮ¸áĭĭ":7922,"ĠáĬŃáī¥áĪŃáĬķ":7923,"ĠáĭŃáĮ½áīł":7924,"ĠáįĵáĪĭáĪµ":7925,"Ġáī¥áĭĪáĬª":7926,"ĠáĬŃáī¥áĪŃáī²":7927,"ĠáĪ°áĪĭáĪ³":7928,"Ġ000":7929,"áĬķáĭĵáĭŃ":7930,"ĠáĮ¥áĪĴ":7931,"ĠáĪ°áī¥áĬ£áĭŃáĬķ":7932,"ĠáĪĿáīĳ":7933,"áĮ½áĬ£áĪī":7934,"ĠáĬ£áĬķáīł":7935,"ĠáĪħáĭŃáĭĪáīµáĬ«":7936,"ĠáĪ°áĪļáĭĲ":7937,"áĬ£áĭĿáĭ©":7938,"ĠáĭĺáĬ«áĭŃáĭ¶":7939,"áĬ½áĬ»áĪŃ":7940,"ĠáĮ¦":7941,"ĠáĭĿáĪħáĪįáĭİ":7942,"áĪĴáīµ":7943,"Ġáī´áĭµáĪ®áĪµ":7944,"ĠáīĨáĪįáĭĵ":7945,"ĠáĪľáĭ³áĬ£":7946,"ĠáĪĿáī¥áĪ«áīĵáĭĬ":7947,"ĠáīµáĪ«áĪĿáįķ":7948,"ĠáĮįáĭ°áĭŃ":7949,"áĪ¶áĪĿáĬķ":7950,"ĠáĪĺáīĲáĪ¨áīµ":7951,"ĠáĬ£áĬĲáĬķ":7952,"áĬ¨áīł":7953,"ĠáĬĵáī¥áĬķ":7954,"Ġáī¥áĭĿáĭĢáĬĲ":7955,"Ġáĭ°áīģáĬķ":7956,"áĭŃáī¥":7957,"ĠáĭĵáĪĭáĪļ":7958,"áĬ«áī¥áĬ¡":7959,"áĪµáĪĪáįį":7960,"ĠáĬ¥áĪµáī²áįĭáĬĸáĪµ":7961,"ĠáĪĺáįį":7962,"áĮįáĪ²":7963,"ĠáĮĪáĭ³áĪĿ":7964,"áīłáĪ¨áĬ¸":7965,"áĭµáĬ©áĪĿ":7966,"Ġáĭĺáĭĭ":7967,"áĪ°áĬĵáĭŃ":7968,"ĠáįįáĪŃáĭ«":7969,"áīħáĭµ":7970,"ĠáĬ¥áī°áĬ«áĭŃáĭ¶":7971,"Ġáĭ²áīª":7972,"ĠáĮ¥áĬķáī³áĭĬ":7973,"ĠáĬ£áĮĪáĬķáĭļáī¡":7974,"áĮįáĭ³":7975,"ĠáīµáĪĿáĪħáĪŃáīµ":7976,"áĬĲáĭĿ":7977,"áĪĬáĬ¦áĪĿ":7978,"áĬ»áī¥":7979,"Ġáī°áĪĵáĮĬ":7980,"ĠáĬ¦áĪŃ":7981,"Ġáī°áĭĪáĪĬáĭ±":7982,"áĪĪáĭ©":7983,"ĠáĬ¨áĭŃáī°áĪĵ":7984,"ĠáĭĽáĭļ":7985,"ĠáĭĿáī°áįĪáĮ¥áĪ¨":7986,"Ġáī¥áĪĤ":7987,"áĮ¨áĪ¨áī³":7988,"ĠáīĨáĮ¸áĪ«":7989,"áī£áĭįáĬķ":7990,"ĠáīĢáĭĭáĪļ":7991,"áĪįáĬ«áĭ®":7992,"ĠáĮĪáīłáĬĵáīµ":7993,"ĠáĬ£áĪŃáĮĢáĬķáī²áĬĵ":7994,"áī¥áĬ£áĬķ":7995,"ĠáĪŀáī°":7996,"ĠáĭµáĪķáĪ¨":7997,"áĮĪáĪ©":7998,"áĭįáĮ½áĬ¥":7999,"Ġáĭĵáī£":8000,"ĠáįįáĪįáĪµáįįáĬĵ":8001,"ĠáīłáĮ»áĪķáī²":8002,"Ġáī°áī°áĪĵ":8003,"ĠáĬ«áī¥áĬ¦áĪĿ":8004,"ĠáĭĵáĪĺáī±":8005,"ĠáĭĭáĬĴáĬķ":8006,"ĠáĬ£áĪĿáĪį":8007,"áĪĺáĬķáĬ¥áĪ°áĭŃ":8008,"áĪµáĬ½":8009,"áīĢáĬķáĭ²":8010,"ĠáĪµáĬĲáĪµáĪŃáĭĵáīµ":8011,"ĠáĮįáī¥áĪ«áĭĬ":8012,"ĠáĪĥáĭŃáĪĽáĬĸáī³áĭĬ":8013,"áĪĺáī¥áĭĽáĪķáīµ":8014,"áīĲáĪĿ":8015,"áī¤áī±":8016,"ĠáĮĥáĪįáī£":8017,"ĠáĭĵáĬķáĬ¬":8018,"ĠáīłáĪĭáĭŃ":8019,"Ġáĭķáī±áī¥":8020,"ĠáĮĪáĭĽáĭŃ":8021,"ĠáįĵáĪªáĪµ":8022,"áĭµáī²":8023,"ĠáĪĬáĭ®":8024,"áĪŃáĭ¶":8025,"áĭĺáĪĺ":8026,"ĠáĪ½áĬ®":8027,"ĠáĭĿáĮ¸áĬķáĪķ":8028,"Ġáī³áĪªáĬ»":8029,"ĠáĭĿáĪŃáĭĿ":8030,"ĠáĪķáĭ«":8031,"ĠáĮ½áĭķ":8032,"áīħáĭ±áĪµ":8033,"Ġ2000":8034,"ĠáĭĿáįĪáĮł":8035,"ĠáįįáĪµáĪĥáĮ½áĭ®áĬķ":8036,"áī°áĪ°":8037,"ĠáĭŃáĬĲáī¥áĪŃ":8038,"áĪŃáĬ¥áĭŃ":8039,"ĠáĬ£áĪķáĪĬáįī":8040,"ĠáĭµáĬ¹áĪĿ":8041,"ĠáĭĺáĭŃáīĢ":8042,"áĮ£áĪķ":8043,"ĠáĬŃáĬ¥áĪĪáīµáĬķ":8044,"Ġ39":8045,"Ġ120":8046,"ĠáĪĥáī¥áī³":8047,"ĠáĬ£áĭŃáĪµ":8048,"ĠáĪĺáĪµáĭĭáĬ¥":8049,"áĪŃáĭµáĬ¦":8050,"áĬ£áĪµáĪĺáĪ«":8051,"ĠáĬ®áĪĿáĪ½áĬķ":8052,"Ġáī¥áĮ»áĭŃ":8053,"áĪŃáĭİáĪĿ":8054,"Ġáī°áĪĺáĪ«áĮº":8055,"ĠáĪĺáīłáīĨ":8056,"áĪĬáĪķ":8057,"áĪŃáĭ«áĬķ":8058,"áĪĪáĪĭ":8059,"ĠáĬķáĭĿáīĲ":8060,"ĠáĮİáĪŃáĭŀ":8061,"ĠáĬ£áĪĺáĪªáĬ«áĭĬ":8062,"ĠáĬĲáīłáĪ®":8063,"Ġáĭ³áĪķáĪ¨":8064,"ĠáĮ¸áĮīáĪª":8065,"ĠáĭĵáīĤ":8066,"áĪ«áī±":8067,"áĪĵáīł":8068,"Ġáĭ³áĮįáĪĿ":8069,"ĠáĬķáĪµáĪ«áĪķ":8070,"áĪ«áĮį":8071,"ĠáĮįáįį":8072,"áĪĪáĭĪáĪī":8073,"Ġáī¥áĪ°áĪª":8074,"áĪįáĮ¥áįį":8075,"ĠáĪĿáĭķáī£áĭŃ":8076,"ĠáĭĵáĪĪáĪĿáĬķ":8077,"Ġáī°áĪ°áĪĽáĪļ":8078,"ĠáĬŃáĮĪáī¥áĪ¨":8079,"ĠáĭŃáĭĢáĬĳ":8080,"ĠáĬ¥áĬĵáĭĪ":8081,"ĠáĬ£áīĳáĪŃáĭ°áīµ":8082,"áī¥áĪĿáĬ½áĬķáĭ«áīµ":8083,"áĮ¥áĭĵ":8084,"ĠáĮ½áĪĭáĪį":8085,"ĠáĪ³áĭķáī¤áĬĵáīµ":8086,"áĮ½áĪĻ":8087,"Ġ44":8088,"ĠáĮĲáĭŃáī³áĭŃ":8089,"áīłáĪŃáĬŃáīµ":8090,"áĪĪáĭĪáĬķ":8091,"áį¢'":8092,"áĪķáĪĽáĪĿ":8093,"ĠáĪµáĪĽ":8094,"ĠáĬ¥áĬķáī°áĭĪ":8095,"ĠáĭĵáĪĺáĮ½":8096,"ĠáĪĿáĮ½áĪĵáįį":8097,"Ġáī³áĪķáī°":8098,"ĠáĬ¥áĬĵáĮł":8099,"ĠáĪĿáĭµáĪŃáĬķ":8100,"ĠáĬŃáĭĪáĪĥáī¥":8101,"ĠáĮ½áĪįáĬ¢":8102,"ĠáĭĺáĭĿ":8103,"ĠáĬķáĭĿáī¥áĪį":8104,"áĪĵáĭ°áĪ°":8105,"ĠáĬĲáĮĭáĪ½":8106,"ĠáĭĿáĪĭ":8107,"áĭµáĭ«áĬķ":8108,"ĠáĬ¨áĮĭáĮ¥áĪĿ":8109,"ĠáĭĿáīłáīķ":8110,"Ġáī°áĪ«áĬ¥áĭ¨":8111,"Ġáī°áīĸáĮºáĪ©":8112,"ĠáĭŃáĬ½áįĪáīµ":8113,"áĭįáĭİ":8114,"Ġáĭĺáī¢":8115,"áĭĪáĭ°áĬķ":8116,"áīħáī³áīµ":8117,"Ġáī°áĪĺáĪĥáĪ®áĬķ":8118,"ĠáĮ½áįįáĪĴ":8119,"áĪ³áĭįáĭ«áĬķ":8120,"ĠáĪĺáĬķáĮįáĪµáī±":8121,"ĠáĭŃáĭ°áĪĬ":8122,"ĠáĭĵáīķáĪĬ":8123,"ĠáĪĵáĪ°áĬķ":8124,"ĠáĬ¥áĬķáĭ²":8125,"ĠáīĢáĭ²":8126,"áī¸áĪįáĪ²":8127,"áĮ½áĬĵáĭķ":8128,"ĠáĪĿáĭĿáĮĪáī£":8129,"áĪ²áīµ":8130,"Ġáĭ²áĬĵ":8131,"áĬķáĭ°áĪµ":8132,"ĠáĬĸáĪŃ":8133,"ĠáĮ¸áĭĵ":8134,"ĠáĬ£áī¢áĪĪ":8135,"ĠáĭįáĮ½áĬ¢áī³áĭĬ":8136,"Ġáī°áĪĪáīªáĭ¥áĬķ":8137,"ĠáĬŃáĭ³áĭįáĬķ":8138,"ĠáĬ£áĭ²áĪµ":8139,"áĮĭáĪĬ":8140,"áĪ³áī°áįĭ":8141,"ĠáĪ½áĪĽáĮįáĪĪáī³áīµ":8142,"ĠáĪĺáĭĵáĪŃáįİ":8143,"ĠáĬķáĬĲáįįáĪ²":8144,"ĠáīµáĪįáĪĤ":8145,"ĠáĬ¢áĪįáĬ©áĪĿ":8146,"ĠáĬ«áīłáĭŃ":8147,"áįĪáĭŃ":8148,"áĮ»áĭĭ":8149,"áĮ»áĮº":8150,"ĠáįįáĭĪáĪ³":8151,"áĮĪáĪĿáĮĭáĪĿ":8152,"ĠáĭĪáĪŃáĪĵáĭĬ":8153,"ĠáĭµáĬ½áĬĲáīµ":8154,"Ġáī¥áĪĽ":8155,"ĠáĬŃáīµáĬĲ":8156,"ĠáįĬáĭ°áĪĭáīµ":8157,"Ġáī°áĪ¨áĭ²áĬ¡":8158,"Ġáī°áĭĪáĬ¨":8159,"ĠáĬ£áĭŃáĬ¨áĬ£áĪįáĬķ":8160,"ĠáĪ°áĪį":8161,"áĬŃáĬ£áĪį":8162,"áĬ£áĪĿáĬĳ":8163,"ĠáĮįáĭ±áĪ³áīµ":8164,"áĭĸáĬķ":8165,"ĠáĪĿáĮīáĭ³áĪį":8166,"ĠáĬŃáĪ³áĭµ":8167,"áĭ«áĪĪ":8168,"áīĲáĪį":8169,"Ġ01":8170,"Ġáī¶áĪĽáĪµ":8171,"ĠáĪĥáĮĵ":8172,"áįĸáĪŃ":8173,"áĪĥáĪįáĭ©":8174,"ĠáĬ£áĬ¥áĭ³áĭį":8175,"ĠáĭŃáĬ¹áĬĳ":8176,"ĠáĭķáĪŃ":8177,"ĠáįķáĪİáīµ":8178,"ĠáįĴáĬ¤áĪµáĮĤ":8179,"ĠáĮłáīķáĪĭáĪĭ":8180,"áī¥áĪŀáīµ":8181,"áĬ©áĪį":8182,"ĠáĬ¤áī¨áĪŃáī°áĬķ":8183,"ĠáĬ¥áĬĵáī°áĪĵ":8184,"ĠáĬ£áĬķáī³":8185,"ĠáĬ£áĪķáĪĿáĪįáī²":8186,"Ġáī¥áĮįáĭľ":8187,"áĪĿáĪįáīµáĬķ":8188,"ĠáĭĿáĪĽáĭķ":8189,"áĭķáĭī":8190,"ĠáĭĺáĬª":8191,"áĬ«áĬ½":8192,"áĪŃáĬ¥áĭŃáĭİ":8193,"Ġáī£áī¢áĪİáĬķ":8194,"áĪĪáĭª":8195,"áĭĪáī°áĪī":8196,"ĠáĬ£áĭµáĪĵ":8197,"ĠáĪħáĬķáĮ»áī³áīµ":8198,"ĠáĮĪáĬķáĭĺáī¥áĬķ":8199,"ĠáĪ¨áĬ£áĬ¹":8200,"ĠáĭĺáĭŃáĪĿáĪħ":8201,"ĠáĭľáĪĽ":8202,"ĠáĬŃáĬĲáĮįáĪ¨":8203,"ĠáĭŃáīł":8204,"áĪ½áī²":8205,"áĪ±áĪĿ":8206,"áĭŃáĭĪ":8207,"ĠáĬŃáĪĺáĪŃ":8208,"Ġáī£áĭ¶":8209,"ĠáĪķáĮĭáĭįáĭ«áĬķ":8210,"áĭ¶áĪĿáĬķ":8211,"áįĪáī°áĬĲ":8212,"áĬĵáĭį":8213,"áĬ£áĭįáĬķ":8214,"ĠáĬķáĬ¸áĭįáĬķ":8215,"áĪĽáī±":8216,"ĠáĮįáĭ³áĪĿ":8217,"ĠáĪķáĭµ":8218,"ĠáĬ£áĪįáī³áĪķáĪª":8219,"ĠáĬ«áī¥áĬķ":8220,"ĠáĬ£áĭ¨áĬĵáĭŃ":8221,"ĠáĬķáĮ¹áĪħ":8222,"ĠáĬ£áĮĭáĭŃáĪ½":8223,"ĠáĬĲáĮ¥áĪª":8224,"ĠáĭĿáĪĺáĪįáĬ¦":8225,"áīĥáĪŃ":8226,"ĠáĭĺáĪĪáĬ¹áĪĿ":8227,"ĠáĬ¨áĪĺáĭŃáĪ²":8228,"áĪĽáĪįáĬ¡":8229,"ĠáĪ¬áĭµáĭ®":8230,"ĠáĭĿáī°áĪĭáĭķáĪĪ":8231,"ĠáīĢáĪ²":8232,"ĠáĮ¥áī¡áīķ":8233,"ĠáĪĺáĮ½áĪĶáīµ":8234,"Ġ150":8235,"áĬ¥áĬ©áĪĿ":8236,"Ġáī°áĪ¨áĮĭ":8237,"ĠáĭĺáĪĽáĭķ":8238,"ĠáĭĺáĭŃáĪ°":8239,"ĠáĭĿáī°áĪ¨áĬ½áī¡áĪī":8240,"ĠáĭĿáĪĵáĪ°":8241,"ĠáĬ¨áĪĿáĭĺáĪĪáĭİáĪĿ":8242,"Ġáī£áĪķáĪªáĬķ":8243,"ĠáĪĺáīµáĬ¨":8244,"ĠáĪĿáĬĵ":8245,"ĠáĪĵáĪļ":8246,"áįĪáĪįáī²":8247,"áī¥áĭİáĪĿ":8248,"áī°áĪª":8249,"áĬ£áĪİáĪĿ":8250,"ĠáĬ½áĪįáī°":8251,"ĠáĬ£áĪĿáĪĭáĬ½áĬ«":8252,"áīħáĪŃáĮº":8253,"áĪŃáĭĵáīµ":8254,"áĭ«áĭ¨":8255,"áī¾":8256,"áĭŃáĮ¥":8257,"áī£áĪĭáīµ":8258,"ĠáĬŃáĬ½áĬ¥áĪį":8259,"ĠáĬ¨áĪĿáĭĿáīĲ":8260,"ĠáĪħáĭĿáī¥":8261,"áĬĲáĬĵ":8262,"ĠáĬŃáĪĺáĪį":8263,"ĠáĭĿáī°áĭ³":8264,"ĠáĮ¸áĮķ":8265,"Ġáĭ°áĪŃáĪģ":8266,"ĠáĪ³áĪĿáĪ«áĭĬáīµ":8267,"ĠáĬķáĪĿáīµáĮįáī£áĪŃ":8268,"áĪ«áī¶":8269,"ĠáĬŃáī°áĪĵ":8270,"ĠáĭĪáįĪáĪ«":8271,"ĠáĪµáĪŃáĬĵáĭŃ":8272,"ĠáīħáĪįáĭįáĪĭáĭį":8273,"ĠáīłáĪªáĬ½":8274,"Ġáī°áĬ¸áī³áī³áĪĬ":8275,"Ġáī°áĪĽáĪķ":8276,"áĭ±áĭİ":8277,"ĠáĬ£áīķáĪªáī¦áĪĿ":8278,"áĬ£áĭį":8279,"áĪĺáĪªáĬ«":8280,"ĠáĪĥáĪµáĭ«":8281,"ĠáĬ¥áĬķáĭµáĭ¨":8282,"ĠáĬķáĮİ":8283,"ĠáĭĿáī°áĪ°áĪĽ":8284,"ĠáĪ°áĬĵáĭŃáīµ":8285,"ĠáĬ£áĬ¥áīµ":8286,"áĪ¨áĮĭáĮĪáĮº":8287,"ĠáīĬáĮłáī£áĭĬ":8288,"ĠáĭĿáīłáĮ½áĪĳ":8289,"ĠáĪ±áĪŃ":8290,"ĠáĬ£áĮłáĬķáīĤ":8291,"áĭĵáĭĪáīµ":8292,"ĠáĬŃáīµáĮį":8293,"ĠáĬķáĮ¥áįĪáī³áīµáĬķ":8294,"Ġáĭ«áĬ¥áīĨáī¥":8295,"ĠáĪĿáĮįáĪĭ":8296,"Ġáī£áĬķáĭ´áĪ«":8297,"Ġáĭ¨áī¥áĪįáĬ«áĬķ":8298,"áĪµáįĸáĪŃáīµ":8299,"ĠáĬ¨áĪŃ":8300,"ĠáĪĺáĪ°áĮĭáĮĪáĪª":8301,"ĠáĪĿáĮ¥áīĥáĭķ":8302,"ĠáĭĪáĮįáĭĴ":8303,"ĠáĪµáĪĪáĭ«":8304,"áĭ±áī¥":8305,"ĠáĮĪáĭĽáĭįáī²":8306,"áĪĸáĬķ":8307,"áī´áĭİáĪµ":8308,"áī¢áĪī":8309,"ĠáĪĿáĪµáīµ":8310,"ĠáĬ£áĭŃáĭĪáĪ°":8311,"áĭ°áĬķáīķ":8312,"Ġáī°áĪĮáįİáĬķ":8313,"ĠáĬ£áī°áĭĪáīµ":8314,"ĠáĪļáĪ³áĭŃáĪį":8315,"ĠáĬķáĬ¤áĪŃáīµáĪ«":8316,"Ġáī£áĮĢáīµ":8317,"ĠáĭĿáĪ°áĭĵáīł":8318,"ĠáĪĺáĮ½áĬĵáĭķáī³áĭĬ":8319,"75":8320,"ĠáĬŃáĪ®":8321,"ĠáĭµáĪĻáīķ":8322,"ĠáĪĺáĭĭáī²":8323,"áĬ¥áĭĭáĬ¥":8324,"áī¡áĪī":8325,"ĠáĮłáĪĬ":8326,"Ġáĭ°áĪĿáīł":8327,"ĠáĬ£áĪħáĮīáĪŃ":8328,"ĠáĭŃáīłáĮ½áĪķ":8329,"ĠáĬŃáīµáĭĪáĮ½áĬ¥":8330,"ĠáĭĵáīķáĪĻ":8331,"ĠáĬ¤áĪįáĪ³":8332,"ĠáĬªáĭĢáĬĳ":8333,"ĠáĬ£áĬ«áĭ³áĪļ":8334,"ĠáĪĺáĪŃáĮĪáĮº":8335,"ĠáĭĿáī°áĪ¨áĮĭáĮĪáĮ¸":8336,"ĠáĪ³áĭŃáĬķ":8337,"áĬ°áĪµ":8338,"ĠáĭĿáīĲáĬĲáĭ¨":8339,"áĪĭáĭįáĬĲáīµ":8340,"ĠáĬ¢áĪ³áīķ":8341,"áĬķáĭĺ":8342,"áī³áī³áīµ":8343,"ĠáīĤ":8344,"áĭĿáĭĢáĬĲ":8345,"ĠáĪħáĭĿáī¢áĬķ":8346,"ĠáĭĵáĪ°áĪŃáī°áĭį":8347,"ĠáįįáĪ½áĬ½áī³":8348,"ĠáĪĿáĬ»":8349,"áįįáĮ¸áĪĿ":8350,"ĠáĭĿáī°áĭĪáĪįáĭ°":8351,"Ġáī¥áīķáĭĵáī±":8352,"ĠáĭĺáĪĺáĭµ":8353,"áī¥áĪĪáĬª":8354,"ĠáįįáīķáĪ«áĭĬ":8355,"Ġáĭµáĭ®áĪĿ":8356,"Ġáī°áĭĵáĭĭáī²":8357,"áĮ¸áĮĭ":8358,"ĠáĬ¢áĭ¶áĪĿ":8359,"áĪĭáĪķ":8360,"áĮ»áĮ»":8361,"ĠáĭĺáĪĪáĬĵáĭ®":8362,"ĠáįĪáīĲ":8363,"ĠáĬķáĭĺáĪĪáĬ£áĪĪáĪĿ":8364,"ĠáĬ¥áī°áĪĺ":8365,"ĠáĪĺáĮĪáĪ»":8366,"ĠáĬŃáĪ¸":8367,"áĮ¸áĮĪáĪĿ":8368,"áĪĺáĪµáĮįáĬķ":8369,"áĬŃáī°áĪ«áīµ":8370,"ĠáĪĺáĬ¥áī°áĭĬ":8371,"áĭ²áĪ©":8372,"ĠáĪŃáīµ":8373,"ĠáĪ¨áĭļáĬķ":8374,"Ġáī¥áĬ£áĪī":8375,"áĪªáĬ¹":8376,"áĬŃáĪķ":8377,"ĠáĪĨáĪĭáĬķáĭµ":8378,"ĠáĪĿáĭįáĪĵáĪµ":8379,"áĮ½áĭķáĪ©":8380,"áĬŃáĪĪáī¥":8381,"ĠáĪµáĬķáĬŃáĪįáĬĵ":8382,"Ġáī¥áĮ¾áī±":8383,"ĠáĬ¨áĪ²":8384,"Ġáī°áĮĢáĪļáĪ©":8385,"áĮĪáĭŃ":8386,"áīĢáĭŃ":8387,"ĠáĪŀáĪ«áĪį":8388,"ĠáīħáĭµáĪµáīµ":8389,"áĮŃáĪ®":8390,"áī°áĭĪáĪ°áĬĲ":8391,"ĠáĬ£áĪĽáĬķ":8392,"áĭ°áĪ©":8393,"ĠáĮĪáĪ¨":8394,"Ġáī°áĪµáįĭáĭĿáĮĬ":8395,"ĠáīĿ":8396,"ĠáĭŃáĬ¾áĬĳ":8397,"ĠáĭĪáĪįáĭ°áĪĽáĪŃáĭ«áĪĿ":8398,"áĪĿáĭļ":8399,"ĠáĬ£áĪĽáĬ¢áīµ":8400,"ĠáĭĪáĮºáĬ¦áĪĿ":8401,"áĬŃáī°áĪŃáĭ«":8402,"ĠáĬ£áĪĺáĪµáĮĬ":8403,"33":8404,"ĠáĭĵáĪĪáī£":8405,"ĠáĭŃáĮįáī£áĭŃ":8406,"áīłáĪŃáĮį":8407,"ĠáĪįáĪĻ":8408,"ĠáĬŃáīµáĬ¨áĭŃáĭµ":8409,"ĠáĭĿáĪ¨áĬ£áĭ©":8410,"áĭ°áĭ±":8411,"áīĵáĭŃ":8412,"áĭĻáĬķ":8413,"Ġáĭ°áĪµáī³":8414,"ĠáĪĬáī£":8415,"ĠáĭĿáĮ¥áīĢáĪµ":8416,"áĬŃáĪ²áĬ®":8417,"ĠáĪįáī¥áĬ»":8418,"ĠáĬķáĪ¶áĪĿ":8419,"ĠáĪĵáĮĬ":8420,"áĭ²áĬ£":8421,"áĬ¥áĪ°áĭ«áīµ":8422,"Ġáĭĵáĭįáĭµáī³áīµ":8423,"ĠáĪĵáĪĿáĭµ":8424,"ĠáĭĪáī³áĪĥáĭ°áĪ«áĭĬ":8425,"áĪµáĭĴ":8426,"áįĪáĭ°áĪ¨áĪ½áĬķ":8427,"Ġáĭ°áĭ¨":8428,"ĠáįķáĪ¨áĪµ":8429,"áĪĺáĪ°áĪį":8430,"ĠáĪ®áī¤áĪį":8431,"ĠáĬ»áī¥áī²":8432,"áĮ½áīłáī³áĭĬ":8433,"ĠáīłáĭĵáĪĭáīµ":8434,"áĭ°áĭį":8435,"áĭĺáīł":8436,"ĠáĭįáĪ±áĬķ":8437,"ĠáĪļáĪĬ":8438,"áīªáĭ«":8439,"ĠáĭĪáĪĪáĭµ":8440,"ĠáĪĺáĪĬáĬ¡":8441,"áī¡áĮ¥":8442,"ĠáĪ¨áĬ¸áīł":8443,"ĠáįįáĪ½áĬ½":8444,"áĪĺáĮ¹":8445,"áĭ°áĬĲ":8446,"ĠáĮĪáīłáĪ©":8447,"áīĵáĪį":8448,"Ġ42":8449,"ĠáĪĺáĮįáī¥áī³áīµ":8450,"áĪķáīµáīµ":8451,"ĠáĬķáĪĺáĪŃ":8452,"ĠáĬĵáĭŃáī°áĬķ":8453,"ĠáĭĿáī°áĬĲ":8454,"ĠáĬ£áīµáĪª":8455,"áĮįáī²":8456,"áĬ¥áĬķáĭ³":8457,"ĠáĪĺáĭĵáīµ":8458,"ĠáĭĺáĮ½áĬķ":8459,"ĠáĪĿáīķáī£áĪį":8460,"áĪĥáĪ«":8461,"ĠáĪĥáĭĭáĪħ":8462,"ĠáĭĿáĪĵáĪį":8463,"ĠáĭĪáĪĪáĭ¶áī³áīµ":8464,"áī¢áĬķ":8465,"Ġáī¥áĭĻáĪĥáĬķ":8466,"ĠáĬĲáī¥áĪ¶áĪĿ":8467,"ĠáĭµáĪįáĭ¨áīµ":8468,"ĠáīªáĪĭ":8469,"ĠáĬ£áĬ«áĭŃáĭ±":8470,"ĠáĮģáī¬áĬķáī±áĪµ":8471,"áĭµáĬł":8472,"áĭ³áĬ¥áĬķ":8473,"ĠáĪįáĭĳ":8474,"Ġáī¥áĭĺáĪĺ":8475,"Ġ2005":8476,"ĠáĪĺáĪĵáĭĻáīµ":8477,"áĮ¥áĪ¨áīµ":8478,"áĪ¨áĬ£áĭ¨":8479,"07":8480,"ĠáĪ°áĪīáĪµ":8481,"Ġáī³áĭķáĪĬáĪĿ":8482,"áīĢáĪµ":8483,"ĠáĪĮáĪĭ":8484,"ĠáĭĿáĭĪáĪ¨áĭ°":8485,"ĠáĬŃáĪµáĭķ":8486,"ĠáĬŃáĪªáĪµ":8487,"Ġ48":8488,"ĠáĪĿáĪįáĭįáĭĭ":8489,"ĠáĮ¥áĪŃáĮ£":8490,"ĠáįĮáĪµáī²áī«áĪį":8491,"áįĪáīµáĭİ":8492,"ĠáĬ¥áĪµáĪ«áĬ¤áĪįáĬķ":8493,"Ġ[":8494,"áĮĭáĬĴ":8495,"ĠáĭĺáĪŃáĮĬ":8496,"ĠáĬŃáĭ³áĭįáĬķáī²":8497,"ĠáĪįáĭķáĪĮ":8498,"áĬ£áĬķáĬķ":8499,"áĪĺáīĲ":8500,"ĠáĭįáĭĴáĪī":8501,"ĠáĬ£áĭįáĮºáĬ¡":8502,"Ġáī°áĮ¸áĭĬáĭĳ":8503,"ĠáĮĪáīłáĬĲáĬĽ":8504,"ĠáĭĵáĪĽáĭĬáĪį":8505,"áīłáĭ©":8506,"ĠáĪĿáī°":8507,"áĭķáĪĭáĪĽ":8508,"ĠáīĢáĭ«":8509,"ĠáĪ»áĭį":8510,"ĠáĪĵáĭĪáĪįáī²":8511,"áĪ¨áĭŃáī²":8512,"Ġáĭ³áĭĬ":8513,"ĠáĬķáĬ£áī¦":8514,"199":8515,"Ġáī°áĪĺáĪ¨áīķáī²":8516,"ĠáĬķáīł":8517,"ĠáĬķáī£":8518,"áĮŃáĭĭ":8519,"ĠáĮĲáĪ¨":8520,"ĠáĬ¨áĪ¨":8521,"áĪ°áĪĭáĪµ":8522,"áĪªáĭ«áĪį":8523,"ĠáĬĵáĭŃáĭĽ":8524,"ĠáĬ®áĪİáĪĿ":8525,"ĠáĬ¥áĬĵáĬĲ":8526,"ĠáĪ°áĬķáĭĵáįĪ":8527,"ĠáĭŃáĭĵ":8528,"ĠáĪĵáĪĻáĪ»áĭŃ":8529,"ĠáĮ¸áĪİ":8530,"áī¥áĪŃáĪħ":8531,"\"áį¡":8532,"Ġáī¥áīĽáĬķáīĭ":8533,"áĭķáī³":8534,"áĬŃáĪ³áĬķ":8535,"áĬ¨áĭ¨":8536,"ĠáĪĿáĪĿáĭĿáĮĭ":8537,"ĠáįįáĪ¨áī³áīµáĬķ":8538,"ĠáĬ¤áĬŃáĪµáįĸ":8539,"áĬ¥áĭĽáĭĿ":8540,"ĠáĬ¤áĭįáĪ®áĮ³áĬķ":8541,"ĠáĬ£áī¥áĪ«":8542,"Ġáī°áĪµáįī":8543,"Ġáī°áĭĪáĪ°áĬ½áī²":8544,"áĬķáįĪ":8545,"áĬĵáĮ¸":8546,"áĮ»áĬĵáīµ":8547,"ĠáĬ¨áĪĿáĭĿáĪķ":8548,"ĠáĬ£áĪµáĪĺáĪ®áĪĿ":8549,"áĪ¨áī²":8550,"áĮĪáĪ±":8551,"ĠáīłáĭŃáĬĳ":8552,"ĠáĬķáĮįáĭµáĬķ":8553,"Ġáī°áĮ¸áĮĬ":8554,"Ġáī¥áĭ°áīĤ":8555,"ĠáĪĺáĬ½áįĪáī²":8556,"Ġáĭįáīħáĭ«áĬĸáĪµ":8557,"áĪŃáīµáĬķ":8558,"áĮºáĪĳ":8559,"ĠáĭĿáĮ¸áĪĵ":8560,"ĠáĭĪáĪĭáĭ²áīµáĬĵ":8561,"ĠáįĬáĪĬ":8562,"áĪµáĮĭ":8563,"áĪ«áī³":8564,"áĭķáĭĪáīµ":8565,"áĪĵáīĤ":8566,"ĠáĬ£áĪķáĪĿáĪįáīµáĬķ":8567,"ĠáĬŃáī¥áĪİ":8568,"áĪ³áĪ°áĪį":8569,"Ġáī¥áĬ¸áįĬáĪį":8570,"Ġáī¢áĬķ":8571,"ĠáĭĵáĮ¸":8572,"Ġáī¥áĪĿáĬŃáĭ«áĭµ":8573,"ĠáĪĿáīģáĪŃ":8574,"áĪ³áĭŃáĬķ":8575,"ĠáįĪáĪįáĪ²":8576,"Ġáī£áĪŃáĭķ":8577,"ĠáĬŃáĬķáĭµáĭļ":8578,"ĠáĭķáĮįáīłáīµ":8579,"ĠáĭĪáĪĪáĭ±":8580,"ĠáĬĵáĪħáĪª":8581,"ĠáĪŀáĭ«áĬķ":8582,"ĠáĪĺáĪĵáĭĽáĭŃ":8583,"Ġáĭ®áĪĥáĬĵ":8584,"áĮ½áĪŃáī³áīµ":8585,"Ġáī¥áĪĺáĬķáĮįáĪµáī²":8586,"Ġáī¥áĪĿáĪĿáĪįáĪĭáĪµ":8587,"áīĦ":8588,"áĭ³áĪī":8589,"ĠáĬ£áĭŃáī°áĪŃ":8590,"ĠáĪĥáīł":8591,"áī³áĪķáĭĺ":8592,"áī£áĭ°":8593,"ĠáĬķáĭĵáĬº":8594,"ĠáĬķáĪµáĪĪ":8595,"ĠáĬ£áĪįáĭĴáĪī":8596,"áīĪáīµ":8597,"ĠáĮįáĪį":8598,"Ġáī¥áĪµáĪ«áĪķ":8599,"áĬ¥áĬ©":8600,"ĠáĪµáĭĴáī¡":8601,"ĠáĭĿáī°áĭĪáĪµáĭ°":8602,"ĠáĬŃáĬķáĪķ":8603,"ĠáĬ£áĪµáĬĵáĬķ":8604,"ĠáĪĿáįįáĮ»áĪĿ":8605,"ĠáĬķáįīáĭķ":8606,"Ġáī°áĬĵ":8607,"áī¥áĪ¨áĬĴ":8608,"ĠáĭĿáīĲáĬķ":8609,"ĠáĬ£áĭŃáĬ¨":8610,"ĠáĬŃáīµáįĪáĪįáĮ¥":8611,"ĠáĪµáĪĪáĭĿáĮłáįį":8612,"ĠáĬªáīķ":8613,"áĪ¨áĬ½áī¦áĪĿ":8614,"ĠáĬŃáĮįáĪĪáĮ½":8615,"ĠáĬ«áĬĵáĭ³":8616,"ĠáĭĿáĬĲáĬ£áĭµ":8617,"ĠáĪŃáĪµ":8618,"ĠáĭĿáĮĪáĭ°":8619,"ĠáĪĺáĭĽáĪĻáĪŃáī±":8620,"ĠáĪĥáĪª":8621,"áĭµáĪįáĭ®":8622,"ĠáĪ¨áī¥áĪĵáī³áīµ":8623,"ĠáĬ£áīµáĬŃáĪįáī²":8624,"ĠáĮ¸áĮĭáĪĿ":8625,"áī¥áīķáĭĵáīµ":8626,"ĠáĬ£áĭŃáĬ®áĬķáĬ©áĬķ":8627,"áĮ»áĭĪáī°":8628,"ĠáĪĺáĪ¨áĮĭáĮĪáĮº":8629,"ĠáĪ°áĭį":8630,"Ġáī°áĬ½áĪĪáĪĽáĪŃáĭ«áĪĿ":8631,"ĠáĬ£áĭĪáĭ³áīµ":8632,"áī¥áĪ«áĭŃ":8633,"áīĨáĪµ":8634,"ĠáĮĮáĬĵ":8635,"ĠáĪĺáĮºáĬł":8636,"áĮ½áĬĵáĭķáī²":8637,"ĠáĪĽáĬ¥áĬ¨áĪĭáĭŃáĬķ":8638,"áĪĺáĭŃáĬķ":8639,"ĠáĭĿáī°áĭĺ":8640,"ĠáĪĪáĭŃáīµáĬķ":8641,"ĠáĬ£áĬ«áĭª":8642,"ĠáīµáĪĿáĪħáĪŃáī²áĬķ":8643,"áĪŃáĮįáĪŃ":8644,"ĠáĪĺáĭµáĪĥáĬĶ":8645,"ĠáĬŃáĬķáĭµáĬ¡":8646,"Ġáī°áĬķáĪµ":8647,"ĠáĭµáĪīáĭį":8648,"ĠáĪµáįĸáĪŃáī³":8649,"Ġáī¥áĪĿáĭįáĪ³áĭµ":8650,"ĠáĮłáĪĪáī£áīµ":8651,"ĠáĬ¥áĪĿáĬķáī¶":8652,"ĠáĪģ":8653,"ĠáĭĿáĪµáĪĿ":8654,"áĭµáĪ»áĭŃ":8655,"áĪĺáīķ":8656,"ĠáĬŃáĮ¥":8657,"Ġáī°áĭĽáĪª":8658,"ĠáĭĿáīĳáĮ¸áĪ©":8659,"áĪĪáĭ®":8660,"ĠáĭĪáĭµáĬĵ":8661,"ĠáĮ½áī¥áīķáī²":8662,"ĠáĪµáĭµáĪ«áī¤áī³áīµ":8663,"áĪĵáĪĭáĪį":8664,"áĬŃáī¶":8665,"ĠáĬ£áĭŃáĪĵ":8666,"ĠáĬ£áĪĪáĬ¹áĪĿ":8667,"ĠáĭĺáĪ«áĬ¥áī²":8668,"áįĭáĭŃáĬĲ":8669,"áĪ¬áĬĵ":8670,"áĪĭáĪĪáĪ±":8671,"ĠáĬ£áĭĺáĭĿáī²":8672,"ĠáĬķáĪµáĪĿ":8673,"ĠáĪĴáĭĺáĭ®":8674,"ĠáĬŃáĪµáĪŃ":8675,"áĬ¾áĬĲáīµ":8676,"ĠáĪĺáĪ°áĪ¨áī³":8677,"Ġáī°áĪĵáī²":8678,"Ġáī¥áĪĺáĬķáįĪáĪµ":8679,"áĮ¥áīłáīłáĬĽ":8680,"áĪµáĬª":8681,"áĭ«áī¥":8682,"áĬĳáĪµ":8683,"Ġáī°áĪµáįĭáĬ£áĪĪáĪĿ":8684,"ĠáĪĻáĪ³":8685,"Ġáī°áĭĪáįĭáĭŃáĬĲáīµáĬķ":8686,"46":8687,"áĪįáĬ¡":8688,"ĠáĬ¨áĪĽáĭķ":8689,"ĠáįĭáĪį":8690,"ĠáĭĿáĭĵáĭŃáĬĲáī±":8691,"Ġáī¥áĮłáīķáĪĭáĪĭ":8692,"ĠáĭĺáĭŃáī°áĬ£":8693,"ĠáĬ£áĮįáĪ«áī¥áĬķ":8694,"ĠáĪĺáĪįáĬŃáĭĳ":8695,"ĠáĪ¨áĮĬ":8696,"ĠáĭŃáĪķáĮįáĭĿ":8697,"ĠáĭĿáī°áĪĵáĪĪáĭĪ":8698,"ĠáĬ£áīłáĪŃáĬª":8699,"áĬ¥áĪĿáīłáĬ£áĪŃ":8700,"ĠáĪĿáĪµáĮĭáĬĵáĬĵ":8701,"ĠáĭĤáĪī":8702,"áĬĲáĬĲ":8703,"áĮķáĪµ":8704,"áĪĺáĪĵáĪĭáĪįáįį":8705,"ĠáĬ£áĮ¸áī¢áīĳ":8706,"ĠáĪķáĮįáĬķ":8707,"ĠáĬķáĪĿáīħ":8708,"ĠáĭĿáĪŀáī±":8709,"áĭµáįį":8710,"ĠáĭĪáĭ®":8711,"ĠáīµáĬ¸":8712,"ĠáĪŃáĬ¥áĭ©":8713,"ĠáĭĿáī°áĪ°áĬĲáĭ¨":8714,"ĠáĭĽáĬķáī³áī³áīµ":8715,"ĠáĬĲáĮĭáĪ²":8716,"ĠáĬ£áĪµáī¤áĬ®":8717,"áĬ£áĭĽ":8718,"ĠáĪĺáĪ®áĪŃ":8719,"ĠáĬĲáī¢":8720,"ĠáĮįáī¥áĮ»":8721,"ĠáĭĿáī°áĪĽáĪħ":8722,"Ġáĭ¨áĬķ":8723,"ĠáĭĿáĪĵáĪµ":8724,"Ġáī°áĭĽáĪ¨áī¥":8725,"ĠáīĲáīµáĪª":8726,"ĠáĮ¸áĪĵáįįáī²":8727,"áĭĿáĬ¸":8728,"Ġáī°áīĲáĭŃáĪ©":8729,"áĬ¥áĭĿáĭŀ":8730,"ĠáĮīáĭ³áĭ©":8731,"09":8732,"ĠáĭŃáĪ¨áĬ£áĭ©":8733,"áĪĿáī¥áĪŃ":8734,"ĠáĪĵáĪ«áĪĿ":8735,"ĠáĪĺáĪĪáĪĪáĭª":8736,"ĠáĪĵáĪª":8737,"ĠáĮĪáĪĺáĭµ":8738,"áĪŃáĭ«áĪĿáĬķ":8739,"ĠáĬķáī¥áĪ¨áīµáĬķ":8740,"ĠáĭĺáĪ¨áĮĭáĮįáĮ½":8741,"áĪ°áĪįáĮ£áĬĴ":8742,"ĠáĬŃáīµáĭµ":8743,"ĠáĭĿáĬ£áĪĺáĪ°áĪĭ":8744,"ĠáĭĿáĬķáĮĪáĪŃ":8745,"ĠáĬ£áĮķ":8746,"ĠáĪµáī¶":8747,"ĠáĪľáĪĭáī³áīµ":8748,"Ġáī£áĪŃáĪ°áĪİáĬĵ":8749,"Ġáĭĵáĭ³":8750,"ĠáĭĵáīłáĭŃáīµáĬķ":8751,"áĮłáĭį":8752,"áīĢáĬķ":8753,"ĠáīħáĮ¥":8754,"Ġáī¥áĭĺáĪĪáĭİ":8755,"Ġ1990":8756,"ĠáĭķáĮ¡áīķ":8757,"áĬ»áĬ¸áĪª":8758,"ĠáĪħáĪŃáĪĺáīµ":8759,"ĠáĬ£áĪ«":8760,"áĪĺáĪ¨áīķáī³":8761,"ĠáĬķáĪĿáĪķáĭ«áĪį":8762,"áĬ£áĪĪáīµ":8763,"ĠáĬŃáĬķáīħ":8764,"ĠáĪħáĭĿáī¥áĬĵ":8765,"ĠáĪĿáĭķáī¡áĪį":8766,"áĪĺáĪįáĪĽ":8767,"ĠáĪĮáĪµáī°áĪŃ":8768,"áĮĪáī¥áĪ®áĪĿ":8769,"ĠáĭįáĪīáĭµ":8770,"ĠáĮ¨áĬĵáįįáĪŃ":8771,"áĪįáĬŃáĭ«áĪµ":8772,"ĠáĪĿáĪŃáĬ©áĪµ":8773,"ĠáĪľáīµáĪŃ":8774,"ĠáĬ£áĭŃáĬķáĬ½áĬ¥áĪįáĬķ":8775,"ĠáĬ«áĭ³áĪµáī°áĪŃáĬķ":8776,"áĬ½áĪįáī²":8777,"ĠáĬĲáĮĪáĪ«áīµáĬķ":8778,"áĮĭáĬķáĭ³":8779,"Ġáĭ³áĮįáĪĺ":8780,"ĠáĬ£áĪĿáĪįáĬ¾":8781,"ĠáĭĿáįĪáĪŃ":8782,"áĪ¨áĭ°":8783,"ĠáĪĿáĬŃáįį":8784,"ĠáĪµáī´":8785,"ĠáįĪáĪĬáĮł":8786,"áįĭáĪŃáīķ":8787,"ĠáĮĪáĭ²áĪĿ":8788,"áĭįáĭķáĪİ":8789,"ĠáĭĵáĪ»":8790,"áĪĥáĭµáĪĿ":8791,"áĬ©áĬĲáī³áīµ":8792,"ĠáĭĿáĬĲáĮ¥áįī":8793,"ĠáĪĿáĬķáī£":8794,"ĠáĪĵáĭµáĪķáĭµ":8795,"ĠáĪ¨áĬºáī£":8796,"Ġáī°áĪĺáĬ²":8797,"ĠáĪĺáĮ»áĭĪ":8798,"ĠáĪĺáĪµáĪĺáĪ«áīµ":8799,"Ġáĭ°áĪĿáĬķ":8800,"ĠáĭĿáī°áĬ»áĭ¨":8801,"áĪŃáī²áĬķ":8802,"ĠáĪ½áĮī":8803,"ĠáĬĲáĮĪáĪµáī³áīµ":8804,"áĪŃáĭ©":8805,"ĠáĪħáī¡áī¥":8806,"ĠáĬ¨áĪĿáĭĺáĭ¨":8807,"ĠáĬ©áī£áĬķáĭ«áī³áīµ":8808,"ĠáĭĿáī°áĪ¨áĬ½áī¥áĪī":8809,"ĠáĪŃáĮįáĮ¸áĬĽ":8810,"ĠáĬ£áĭįáī¶áī¡áĪ³áīµ":8811,"Ġáī¥áĪĽáĭŃ":8812,"áĮĪáī¥áĪª":8813,"Ġáįįáīĵáĭ±":8814,"áĬ¥áĬķáĮįáĪĬáĭĿ":8815,"Ġáī¥áĭ²":8816,"áĪ°áĪ¨":8817,"ĠáĪķáĬĲ":8818,"áĪ°áī¥áĬ©":8819,"Ġáī°áĪ«áĬº":8820,"áĭŃáĪ«":8821,"áĭĪáĬªáĪį":8822,"ĠáĭĿáī°áĪĵáĭ°áĪ°":8823,"áĪŀáĪĿáĬķ":8824,"ĠáĬķáĪĿáĭĥáĬķ":8825,"ĠáĬ£áĭĿáĪĽ":8826,"ĠáĭĺáĭŃáĬ¨áĬ£áĪĪ":8827,"áįħ":8828,"Ġáĭĺáīĳ":8829,"ĠáĬŃáīµáĪµ":8830,"áĮĪáĭĿáĬ¥":8831,"ĠáĪĿáĪ³áĪĮ":8832,"ĠáĭīáĬķ":8833,"áĭŃáīķáĮ½áĪį":8834,"ĠáĬ«áĭ³áĪµáī°áĪŃ":8835,"Ġáī°áĭįáĪħáī¦":8836,"ĠáĭĿáī°áįĪáĪįáĭ¨":8837,"ĠáįĭáĬĳáĬ¤áĪį":8838,"ĠáĮįáĬķáī£áĪŃáĬķ":8839,"ĠáĬ¥áĬ¨áĭŃ":8840,"ĠáĪ°áĪįáĮłáĬķáī²":8841,"ĠáĬķáĪĿáīģ":8842,"Ġáī°áĪ°áĮĭáĮĬ":8843,"áī¥áīµ":8844,"áĬ£áĪİ":8845,"ĠáĪĿáĪĵáĭĿ":8846,"áĭĵáĪĬ":8847,"ĠáīµáĪª":8848,"ĠáĪ¨áĬ£":8849,"ĠáĬ£áīĿ":8850,"áĮĪáĭ³áĪµáĬĲáīµ":8851,"Ġáĭķáī¤áīµ":8852,"ĠáĭļáĮįáīłáĪŃ":8853,"ĠáĪĿáĭĿáĭĽáĪĿ":8854,"ĠáīģáĮ½áĮ½áĪŃ":8855,"ĠáĪĽáĪ½":8856,"áīĲáĭŃáĪķ":8857,"áĪĮáįİ":8858,"ĠáĭĿáĬ¸áĭ°":8859,"ĠáĪĿáĮ½áĭĭáīµ":8860,"ĠáĬĲáįįáĪ°":8861,"ĠáĪĿáĮ½áĭĭáĭķ":8862,"Ġáī¥áĪªáĮ£áĬķ":8863,"ĠáįįáĪįáĪµáĮ¤":8864,"Ġáī°áĪĺáĪµáĮĪáĬķ":8865,"ĠáĪ¨áĪµáĬĴ":8866,"ĠáĮĪáĭĽáĭį":8867,"ĠáĬķáĮ¥áĭķáĬĵ":8868,"Ġáī¥áĪįáī¢":8869,"ĠáĪĺáĪ³áĪĪáĮ¥":8870,"Ġáī°áĮłáīĴáĪ±":8871,"ĠáĬ£áī±áĪĿ":8872,"ĠáĬķáĭ¨":8873,"áĮĪáĭ¶áĪĿ":8874,"ĠáĮ©":8875,"ĠáĪĺáįĭáĪŃáīķ":8876,"áĭķáĭ²":8877,"Ġáī¥áĭĿáĮĪ":8878,"ĠáĬķáĭĵáīłáĭŃáī²":8879,"ĠáĮĢáĪļáĪŃáĬ«":8880,"ĠáĬ£áĭµáĪĭáĭŃ":8881,"ĠáĭĺáĪ¨áī£áĬ¡":8882,"ĠáĬ¥áĬĵáīłáĪįáĬ«":8883,"ĠáĭµáĪįáĭ¨":8884,"áĮłáĪ«áĮ¥áĪŃ":8885,"ĠáĬ£áĬ«áĪĭáīµáĬķ":8886,"áį¡'":8887,"áĭĵáĭĺáī¥":8888,"Ġáĭ°áĭŃáĪĬ":8889,"ĠáīĢáĪĭáĭŃ":8890,"ĠáĪĵáĭŃáĪį":8891,"áĮłáĪī":8892,"ĠáĬ£áĬķáĪµ":8893,"Ġáī°áįĪáĮºáĪĻ":8894,"ĠáĬ£áĬ¥áĪĿáĪ®áĬ£áĭĬ":8895,"Ġáī¥áĬ¤":8896,"áĬ£áīłáĭŃ":8897,"áĪĺáĭ°áī¥":8898,"ĠáĬķáĪŀ":8899,"ĠáĬĵáī³":8900,"ĠáĪķáī³áĪĿ":8901,"ĠáĪĺáĬķáĮĲ":8902,"ĠáĮ½áįī":8903,"áĮīáĪĽáīµ":8904,"ĠáĬ¤áĭįáĪ®áĮ³áĭĬ":8905,"ĠáĬ£áī°áĪĵáĪ³áĪ²áī¡":8906,"ĠáĪ°áĮĪáĬķ":8907,"áī¥áĪ¨áī°":8908,"áĪįáĬ¨áī¶":8909,"ĠáĮĮáĮĭáī³áīµ":8910,"Ġáī°áĪĭáī¥áĭ®áĪĿ":8911,"áĪĬáĭĳ":8912,"ĠáīµáĪħ":8913,"Ġáĭ°áĪįáĭ©":8914,"ĠáĬķáįĪáĪįáĮ¥":8915,"ĠáĭĪáĪĥ":8916,"ĠáīµáĬ¸áĭŃáĭµ":8917,"ĠáĭļáĪĿ":8918,"Ġáĭĳáįį":8919,"ĠáĬķáīķáĪĵáīµáĬķ":8920,"ĠáĬ¥áĬĵáĭĵáīłáĭ¨":8921,"áĪĺáĪĪ":8922,"Ġáī°áīĽ":8923,"ĠáĪĵáĮ¥":8924,"áīĢáĪĭ":8925,"ĠáįĪáĪĪáĮį":8926,"ĠáĪĿáĪĿáĪ«áĪķ":8927,"ĠáĬŃáĭįáĪ°áĭµ":8928,"Ġáī°áĭĵáĭĬáī±":8929,"ĠáĪ°áī¥áĬ¡áīµ":8930,"Ġáī¥áĮĪáĭĽáĬ¥":8931,"ĠáīµáĬ¹áĬķ":8932,"ĠáĬ¨áĪĿáĭĺáĭŃáī¥áĪī":8933,"ĠáĪĥáī¥áī°áĬ£áī¥":8934,"ĠáĬŃáĪĵáĪįáįį":8935,"Ġáī°áĪ°áĪªáĭĳ":8936,"ĠáĬĵáĮ½áĬĲáīµáĬķ":8937,"ĠáĭĿáĭĵáĭŃáĬĲáī³":8938,"áĪĿáĭµáĪª":8939,"ĠáĮ¸áĬĴáĪĲ":8940,"ĠáĭĺáĮłáīĵáĪįáĪį":8941,"ĠáĭĺáĭŃáĪµ":8942,"ĠáĬĵáī¥áī¶áĪĿ":8943,"ĠáĪŃáĬł":8944,"áĬ¥áĬķáīĭ":8945,"áī¥áĬ¦áĪĿ":8946,"áĪªáĪķ":8947,"ĠáĬ«áĪ«":8948,"áĪĥáĪªáīµ":8949,"Ġáīµáī¥áĭĵáīµ":8950,"Ġáĭ¨áĭįáĪĥáĬķáĪµ":8951,"Ġáī¥áĭĽáĭķáī£áĬ¡":8952,"Ġáī¥áĭįáĪ½":8953,"ĠáĪĵáĬķáĪ³áĬ¥":8954,"ĠáĬ£áī°áĭī":8955,"Ġáī¥áĪĿáĪĿáĪįáĪĭáĪµáĬķ":8956,"ĠáĭĿáĮ¥":8957,"ĠáĭĪáĪ¨áĭ°":8958,"ĠáĬ£áĬ¥áĭĽ":8959,"ĠáĬ¥áĪĽáĪĺ":8960,"áī¶áī³áīµ":8961,"áĬŃáĪ«":8962,"áĭ¨áĭ®":8963,"áĪĭáĭŃáīµ":8964,"ĠáĪĺáĮºáĬ£":8965,"ĠáĪĦáĪĪáĬķ":8966,"ĠáīłáĭŃáĬĲáĭŃ":8967,"Ġáī¥áĪ¨áī³áĭĬ":8968,"ĠáĬķáĮĵ":8969,"áĪ°áĪİ":8970,"ĠáĪĿáĪµáĭĿ":8971,"ĠáĪįáĭ°":8972,"ĠáĪĺáĭĵáĪįáīµáĬķ":8973,"áī£áī¥áĪĭ":8974,"áĬķáī³áĪį":8975,"Ġáī¥áĮ»áĭķ":8976,"ĠáĬ£áī¥áĭĺáĬķ":8977,"Ġáĭµáįĭáĭķ":8978,"áīłáĪŃáĬĵ":8979,"ĠáĪļáĪįáĭ®áĬĵáīµ":8980,"ĠáĬŃáįĪáĮ¥áĪŃ":8981,"ĠáĬŃáįĪáīµ":8982,"Ġáī°áĮ¨":8983,"ĠáĪµáĪ¨":8984,"ĠáĬ£áĭŃáĬŃáīµ":8985,"ĠáįĪáĪ¨áĬķáĪ³áĭĬ":8986,"ĠáĬ¥áĭĭáĬĵáĭĬ":8987,"ĠáĭķáĪĽáĪĽáīµ":8988,"áĪµáĪĬ":8989,"ĠáĬķáĪĿáĪĥáī¥":8990,"ĠáĬŃáīµáĬ¨":8991,"ĠáĬŃáīµáĪ°áĪŃáĪķ":8992,"ĠáįĪáĮ¢":8993,"ĠáĪ½áĭĪáĭ°áĬķ":8994,"ĠáĪĺáĪµáĪŃ":8995,"ĠáĬ£áĪĿáĪĭáĬ½áĬĵ":8996,"Ġáī¥áī¥":8997,"áĪĬáįĭ":8998,"ĠáĭĵáĪĮ":8999,"áī£áĬķáĭ³":9000,"áĮ¥áĬ¤":9001,"ĠáĭĺáĭŃáĪŃ":9002,"ĠáĪ°áīłáĭŃáī±":9003,"ĠáĬ¤áĪµáĭ«":9004,"áĮ¸áĬķáĪĵ":9005,"áĭĽáĪ¨áīłáĪī":9006,"ĠáĪĽáĭ«áĭĬ":9007,"Ġáĭļáīķ":9008,"ĠáĭļáĮĪáī¥áĪŃ":9009,"Ġáī¥áĪĺáĮłáĬĳ":9010,"ĠáĪ¨áĬ½áĪ²":9011,"ĠáĬ£áĮĢ":9012,"ĠáĬķáĪľ":9013,"áįįáĪ½":9014,"áĬ¸áĭŃ":9015,"ĠáĬķáĭĿáĭ«áĭ³":9016,"ĠáĬķáĭĺáĪĪáĭİ":9017,"áīµáĪŃáįİ":9018,"ĠáĪĺáĭĭáĬ¥áĪį":9019,"ĠáīħáĪ³áĬĲáīµ":9020,"ĠáĬ¨áĪĿáĭĿáĪĵ":9021,"ĠáĬŃáįįáīµ":9022,"ĠáĬŃáįįáĮ½áĪĿ":9023,"ĠáĪĺáĮłáĬķáīĢ":9024,"ĠáĬĸáĪħ":9025,"ĠáĭĿáĭĢáĬĵ":9026,"ĠáĬķáĪĿáĭµáĪĵáĬķ":9027,"áĪ¨áĭ©":9028,"áĪªáĭ«":9029,"ĠáĬĵáĭŃáĭŀáĪĿ":9030,"ĠáĭĺáĭŃáĭĪ":9031,"Ġáī¤áīµáĬ«":9032,"áĬĽáĬķ":9033,"ĠáĮ¥áīłáī¥áĬķ":9034,"áĮ¤áĪ«":9035,"ĠáĪļáĭĽ":9036,"ĠáĬĲáĭŃáĪ©áĬĴ":9037,"Ġáī°áĬ¸áĭ²":9038,"Ġáĭ®áĬĵáī³áĬķ":9039,"ĠáĪĺáĪŃáĪĥáĭĬáīµ":9040,"Ġáī¥áĪļ":9041,"áĮ£áī³áīµ":9042,"ĠáĬķáĬ¥áīµ":9043,"ĠáĬ¥áĪµáĪ«áĬ¤áĪĭáĭįáĭ«áĬķ":9044,"ĠáĬ£áĬ½áĪŃáĭ«":9045,"ĠáĪ²áīªáĪį":9046,"ĠáįĵáĬªáĪµáī³áĬķ":9047,"áī¥áĭĭ":9048,"áĬĵáĬĵ":9049,"ĠáĪĿáĮķ":9050,"áĮĭáĬ¥áī²":9051,"áĪļáīµ":9052,"ĠáīĢáĮ¸":9053,"áĮĪáĪįáĮ»":9054,"ĠáĮĪáĭ²áįįáĬ«":9055,"ĠáĪīáīĥáĪµ":9056,"áīłáĭĿáĪķ":9057,"Ġáī¥áĬ£áĮĭáĬ¡":9058,"Ġáī¥áĪĤáĭĪáīµ":9059,"Ġáī¥áĭħáĪī":9060,"ĠáĭĿáĪ°áĪĭáĪ°áĪį":9061,"ĠáĬķáĪĻáĪ´":9062,"ĠáĪ°áįĬ":9063,"ĠáĬ©áĪŃáĬĵáĭķ":9064,"ĠáĪĿáĬ½áĬ£áĪį":9065,"ĠáĪĿáī¥áĪħáĪĥáĪį":9066,"áīħáī¥":9067,"Ġáī¥áĬ£áĭµáĪ«":9068,"Ġáī£áĭķáĪİáĪĿ":9069,"ĠáĪĵáĮĪáĭĽáīµ":9070,"áĪĪáĪĬ":9071,"áĪĽáĮ¥":9072,"áĪįáĭĳáĪį":9073,"ĠáĭĺáīłáĪŃ":9074,"áĪĥáĪĥ":9075,"ĠáĭŃáīķáĪ¨áī¡":9076,"ĠáĪĿáīħáĭŃ":9077,"ĠáĭĺáīĥáīłáĪŃáĬ©áĪĿáĬĵ":9078,"ĠáĬ¨áĭķáĭĿ":9079,"áĭĪáĪ¶":9080,"ĠáĭŃáĭĽáĪ¨áī¥":9081,"áī¤áī°":9082,"ĠáīłáĪ¨áĪ«":9083,"áĭµáĪ½áī°":9084,"ĠáĪ°áĬ£áĬķ":9085,"ĠáĭµáĬ³áĬķ":9086,"ĠáĬ£áĬ«áĭ«áĭ²":9087,"áī³áįĮ":9088,"áĪ¨áĭª":9089,"ĠáĪĺáī¸áĪĿ":9090,"ĠáĬ¸áĬĲ":9091,"ĠáĬ¨áĭŃáĭ¶áĪĿ":9092,"áĬ«áī¥áī¶áĪĿ":9093,"áīłáĪĬ":9094,"ĠáĬŃáīµáīĢ":9095,"áĭĵáĭŃáĬĲáīµ":9096,"Ġáī¥áĭĿáī°áĬ»áĭ¨áĭ°":9097,"áĭĪáĪµáĭ±":9098,"Ġáī¥áĭĿáĪŃáĭĿáĪŃ":9099,"áĮ»áĭĭáī³áĭŃ":9100,"áĪĿáī³áīµ":9101,"ĠáĬĵáī¥áĬ£":9102,"ĠáĮĪáĪĪáĮ¸":9103,"ĠáĪĵáĪĿáĪĭáĭŃ":9104,"Ġáĭĺáī°áī£áī¥áĭķ":9105,"ĠáĪħáĭŃáĭĪáīµáĬķ":9106,"áī°áĬĲ":9107,"ĠáĬ¨áĬ«áĭŃáĭ±":9108,"áĭķáĭµáĪĺ":9109,"ĠáĭĿáī°áīł":9110,"ĠáĬ¨áĭŃáĬķ":9111,"Ġáī¥áĪķáĪįáįĬ":9112,"áĭĭáī±":9113,"ĠáįįáĪ©":9114,"Ġáĭ°áīĤáī°áī£áĭķáīµáĭ®":9115,"ĠáĬ£áĭ«":9116,"áĭĢáĬĵ":9117,"ĠáĭĿáĪķáĮįáĭĻ":9118,"ĠáĬ´áĬķáĬĵ":9119,"áĪł":9120,"áĪĪáī¥":9121,"áĭ°áĪĪáĬķ":9122,"áĬ®áĪļ":9123,"ĠáĭĿáĪĳáĪį":9124,"ĠáĪĵáĪĪáįĪ":9125,"áī°áĬķáĪµ":9126,"ĠáĬĲáĭĺáĬķ":9127,"ĠáĭŃáĪĺáĪŃ":9128,"ĠáĬ£áĭŃáįĪ":9129,"áĮ¦áĪµ":9130,"áĪµáī³áįį":9131,"áĪĭáīķ":9132,"ĠáīłáīłáĭŃáĬĳ":9133,"áīłáīł":9134,"áĪĽáĭķáĬĲáīµ":9135,"áĪ¨áĭ®":9136,"áĪķáĮĬ":9137,"Ġáī®":9138,"ĠáĮ¸áĮ¸":9139,"áĪįáĬĵáĭ®":9140,"ĠáĪ°áĬĲáĭ³":9141,"áĪĭáī¶":9142,"áĪĽáĪĽ":9143,"áĭĬáĬķ":9144,"ĠáĬŃáĬķáĭ³":9145,"ĠáĮĭáĮį":9146,"Ġáī°áĪ³áĭĴ":9147,"Ġ1991":9148,"ĠáĪĥáĭĭáĪŃáĭ«áīµ":9149,"áĪĺáĭįáīµ":9150,"ĠáĪĥáĪĪáĭĭ":9151,"ĠáĬ¥áīµáĪĿ":9152,"áĪĭáĬķáĭµáĬķ":9153,"ĠáĬ£áī£áĪ»áĭįáĪį":9154,"ĠáĪĿáīķáĭ«áĪŃ":9155,"ĠáĭĺáĭŃáĬĲáīłáĪ®":9156,"áįķáĪĬ":9157,"áĪ«áĭ²áĭŀ":9158,"áĪ¨áī¢":9159,"ĠáĪĵáīļ":9160,"áĪ½áĪĿ":9161,"áĮīáĬķ":9162,"ĠáĪĪáĮĪ":9163,"Ġáī¥áĭķáĪĿ":9164,"áĭ°áĮİ":9165,"ĠáĭĺáĪµáī°":9166,"ĠáĪĵáĭŃáĪįáĬķ":9167,"ĠáĭĿáĪĵáĪĪáįĭ":9168,"áĭŃáĭĭ":9169,"ĠáĭŃáĪ¨áĬł":9170,"ĠáĪħáĪīáĭį":9171,"ĠáĮ¥áīłáī£áĭĬ":9172,"ĠáĬķáĮ¡áįį":9173,"ĠáĬ«áĪħáĬĵáīµ":9174,"áĭľáĬĵ":9175,"Ġáī°áĭĪáĭ²":9176,"áĭĺáĭįáīµáĪŃ":9177,"ĠáĪĿáĪĿáĪµáĪ«áīµ":9178,"áĪĿáĪ³":9179,"áĭĿáī¥áĪį":9180,"áĪĥáĪµ":9181,"ĠáĭķáĪŃáĬŃáĬĲáīµ":9182,"ĠáĬ£áĪĪáĭĪáĬķ":9183,"ĠáĪĴáĭĺáĬķ":9184,"áĪ¨áĭµáĬ¡":9185,"áĪªáĪĿ":9186,"áĭ³áĪªáīµ":9187,"Ġáī¥áĪĵáĭĬ":9188,"áĪ«áĬ¥áĭ¨":9189,"ĠáĬ£áīĭáĪª":9190,"áĪŃáĬ©":9191,"ĠáĬŃáĮİ":9192,"áĮįáĪ®áĪĿ":9193,"áĬªáī¦áĪĿ":9194,"ĠáĭĿáĪĿáĪįáĬ¨áī¶áĪĿ":9195,"ĠáĬ£áīĥáĭįáĪĽ":9196,"ĠáĪĺáĭĺáĬ»áĬ¸áĪª":9197,"ĠáĬ«áĪľáĪ«":9198,"áĬ£áī¥áĪŃáĪĥáĪĿ":9199,"ĠáĬ¨áĪĪáĭĭ":9200,"ĠáįĪáĮ»áĪļ":9201,"Ġáī°áĬ»áĬ¢áĪī":9202,"ĠáĭŃáĮħáĪĿáĪŃ":9203,"áĮĵáĪĿ":9204,"Ġ195":9205,"ĠáĪĿáĪķáĭ«áĪį":9206,"áĪĥáĭ°áĪ«áīµ":9207,"ĠáĬķáĪĿáįįáĮ£áĪŃ":9208,"áį§\"":9209,"áĪŃáĮ½":9210,"áĪ¨áīķ":9211,"áī£áĪĪ":9212,"ĠáĬŃáĮħáĪĿáĪŃ":9213,"ĠáĬŃáĪ°áĪĿáĭķ":9214,"ĠáĬŃáĪĵáĪµáī¥":9215,"Ġáĭ°áīĢáĬķ":9216,"ĠáĭĿáī°áĮłáīķáĪ±":9217,"áĪĽáĬ¥áĬ¨áĪĭáĭŃ":9218,"áĭµáĪ«áĭŃ":9219,"ĠáĬŃáī¥áĪ¨áīµ":9220,"áĪĭáĭ©":9221,"ĠáīĽ":9222,"ĠáĭĺáĭŃáĭį":9223,"áīĨáīµ":9224,"ĠáĬ«áī£áĬĵ":9225,"ĠáĪŃáĭµáĬ¢áīµ":9226,"áĪ«áĬŃ":9227,"ĠáĬķáī³áĪķáī²":9228,"ĠáĪĵáĪĺáĪįáĪĽ":9229,"Ġáĭ¨áĮłáīĵáĪįáĪį":9230,"ĠáĬ£áĪµáĪļáĪ©":9231,"ĠáįįáĪįáĪįáĭ«áīµ":9232,"Ġáī¥áĮĪáĪĪ":9233,"ĠáĮĢáĪļáĪŃáĬĵ":9234,"ĠáĭļáĭĿáĭįáī°áĪŃ":9235,"Ġáī¥áĬ£áĪīáī³":9236,"áīłáī±":9237,"ĠáĪĺáĪĥáĭŃ":9238,"áĪĭáĪįáĭ«":9239,"Ġáĭĺáīµ":9240,"áĪ»áĭį":9241,"áĪ«áĬ¸áī¡":9242,"ĠáĪ½áĮįáĪ«áīµ":9243,"ĠáĪĥáĭĭáĪħáĭį":9244,"ĠáĪĿáīį":9245,"ĠáĭļáĬĲáī¥áĪ©":9246,"ĠáīģáĪ¸áīµ":9247,"ĠáĬ£áĪĺáĪĪáĬ»":9248,"áĮ¦áĬķ":9249,"ĠáĬĲáīłáĪŃáĬ©":9250,"ĠáĬ£áĬķáī¥áī¥":9251,"ĠáĭĿáĭĪáĪĪ":9252,"ĠáĬµáĪĪáĬķ":9253,"ĠáĬ¨áĪĿáĭĺáĪİáĬķ":9254,"Ġáī»áĭŃáĬĵáĬķ":9255,"áĬĲáįįáĪĴ":9256,"ĠáĬ¨áīł":9257,"ĠáīĢáĭ°":9258,"Ġáī¦áĪĿáī¥":9259,"ĠáĮĪáĪĿáĮĪáĪĿ":9260,"ĠáĪµáĪįáĮ£áĬĳ":9261,"ĠáĪŃáĬ¢áĬĵ":9262,"áī¥áĮ¢":9263,"áĭļáĪį":9264,"ĠáĪķáĪįáĪĿ":9265,"ĠáĬŃáīµáĪħ":9266,"áĪ¨áīµáĪī":9267,"Ġáī¥áįįáĮ¹áĪĿ":9268,"ĠáĭµáĬķáĬ³áĬķ":9269,"ĠáĬ£áĪįáĬ®áĪĭáĭĬ":9270,"ĠáĭĿáī¥áĪĪáĬ«":9271,"áĬ¨áĪĿáĭĿ":9272,"ĠáĬ¨áĪĿáĭĺáĭŃáīµ":9273,"ĠáĪĿáīµáĬ¥áīµáī³áĭį":9274,"ĠáĬ£áī°áĭĵ":9275,"áĭĭáĭķáī³":9276,"áĮĭáĮĪáĭĿ":9277,"áĪĻáĪµ":9278,"ĠáĬ£áĭŃáĬ°áĬķ":9279,"ĠáĭĿáĪ¨áĬ£áĭ¨":9280,"ĠáĭĿáīłáĮ½áĪĵáĬĵ":9281,"áĪ¨áĭ³":9282,"ĠáĬ¨áĪĿáĮ½áĬ¥":9283,"ĠáĪĿáĪµáĪįáĮ£áĬķ":9284,"ĠáĪĿáĪŃáĭ³áĬ¥":9285,"ĠáĮĪáĮĢáĪ¨áīµ":9286,"Ġáī¥áĪķáĪŃ":9287,"áĬĿ":9288,"ĠáĬ£áĬºáĪī":9289,"ĠáĬĲáĭŃáĪĽáĪŃ":9290,"áĪ¨áĪ½áĬķ":9291,"Ġáĭµáįĭ":9292,"ĠáīĢáĪŃáĬĴ":9293,"ĠáĭĪáĭ²áīĳ":9294,"ĠáĭĿáĭĺáĪŃáĮį":9295,"ĠáĮłáįĬ":9296,"ĠáĭĺáĪŃáĬ¥áĭĿáĮĬ":9297,"ĠáĮİáĪ¨áī£áī¥":9298,"áĪĺáĭļ":9299,"áĮ½áĭ©":9300,"ĠáĪµáĪĪáĭĿáĭ°áĪĪáĭ¨":9301,"ĠáĭĿáĪĿáĪ«áĪķ":9302,"ĠáĪĺáĪĪáĪ°áīµ":9303,"ĠáĬ£áĮ½áĬĴ":9304,"áĪ¨áĪ¨":9305,"ĠáĭķáĪŃáīĤ":9306,"áīĢáī¥":9307,"ĠáĮĵáĪĭ":9308,"ĠáĪĦáĬĸáĬŃ":9309,"ĠáĭµáĪįáĭ±áĪį":9310,"ĠáĭĺáīķáĪ¨áī¦":9311,"Ġáī°áĪ¨áĮĭáĮĬáĮ¹":9312,"ĠáĮĪáĮ¸":9313,"Ġáīµáĭį":9314,"ĠáĪĪáī¢":9315,"áĬ°áĪ°":9316,"ĠáĪĿáįįáī³áĬķ":9317,"áĬ¨áī³áī°áĪī":9318,"ĠáĪĺáĪ¨áī¥":9319,"ĠáĮłáīĵ":9320,"ĠáĪĿáĭķáī£áĪĪáī³áīµ":9321,"Ġáī¥áĪĿáĭįáĪħáĪĥáĭµ":9322,"ĠáīĢáĪªáī£":9323,"ĠáĬ¥áĬķáĮįáĪĬáĭĽáĭĬ":9324,"ĠáĬĵáįį":9325,"áĪħáĪŃ":9326,"ĠáĪĿáĪŃáĬ«":9327,"ĠáĭĿáĬ£áĪĿáĬķ":9328,"áĪĪáĬ»áĭĬ":9329,"áī°áĪĺáĪ³áĪ³áĪĬ":9330,"áĮįáĭĺáĬ«":9331,"áī¥áĬ¸áĪĺáĭŃ":9332,"ĠáĭĿáī°áīłáĮĪáĪ°":9333,"áĪ»áĭķ":9334,"ĠáĮķáĭµ":9335,"ĠáĬ«áī¥áĭŀáĪĿ":9336,"ĠáīħáĮ½áīłáī³áĭĬ":9337,"áĪ°áĪŃáĪĵ":9338,"áĪ°áĪŃáĪĲ":9339,"ĠáĪķáĪŃáĪ²":9340,"áĭĭáĪħáīł":9341,"Ġáī¥áĬĵáĮ»":9342,"Ġáī³áĪķáī°áĭĭáĭŃ":9343,"áĪĺáī³":9344,"áĮ¥áīħáĭķ":9345,"áĮ¸áī£áĪŃ":9346,"ĠáĭįáĪģáĭµ":9347,"áī£áī¥áĭ«áĭĬ":9348,"áĭķáĬķáīħ":9349,"áĪĺáĬķáĬ¥áĪ°áĭ«áīµ":9350,"ĠáĬķáĭ®":9351,"áĪķáĪĬ":9352,"áįĪáĪª":9353,"Ġáĭļáĭį":9354,"ĠáĪ¸áĭŃ":9355,"ĠáĬ£áī¦áĬ£":9356,"ĠáĪĵáĪįáĭ®áīµ":9357,"ĠáĬªáĬķáĭ®":9358,"ĠáĬĥ":9359,"ĠáĮįáĪª":9360,"ĠáĪĿáĪµáĬ¦áĪĿ":9361,"ĠáĬ°áĬķ":9362,"ĠáĭĵáĭŃáĬĲ":9363,"ĠáĪķáĪĽáĪĻ":9364,"ĠáĭĿáī¥áĮĪáĪµ":9365,"áĪĬáĮį":9366,"áĬ¹áĭİ":9367,"ĠáĬķáĬ½áĪįáī²":9368,"Ġáī¥áīķáĬķ":9369,"áĬĵáī¥áī²":9370,"ĠáĮįáĮīáĭŃ":9371,"ĠáĬ«áī¥áĭĽ":9372,"áĬłáĭŃáī²":9373,"Ġáī¥áĪĵáĬķáī²":9374,"áī¥áĪĺáĬķ":9375,"ĠáĬķáĬ¨":9376,"ĠáĬķáĭĿáĬ¾áĬĲ":9377,"ĠáĬķáįįáīķáĪª":9378,"ĠáĪĵáī²áī±":9379,"áīĢáĭŃáĪķ":9380,"ĠáĪļáĪµ":9381,"áĮĵáĭŃ":9382,"áĮĪáī¥áĪŃáĬ¤áĪį":9383,"ĠáĪŀáĭŃáī±":9384,"ĠáĪĺáĮ¹":9385,"áĭĵáĪĺáīµ":9386,"ĠáĬ£áīĲáĭ²áĪĺ":9387,"Ġ247":9388,"Ġáįįáīĵáĭ°áĬĽ":9389,"áĬ£áī°áĭĪ":9390,"áĮįáī¡":9391,"ĠáĪĺáĭ°áī£áīµáĬķ":9392,"ĠáĪ°áĭĵáīµáĬķ":9393,"ĠáĬ¨áīķáĪŃáī¥":9394,"ĠáĬ¸áĭ°":9395,"ĠáĬ£áĬ«áĪĭáī±":9396,"Ġáī°áĪ¨áįį":9397,"ĠáĬķáĬ¸áī°":9398,"áĬĲáĭ®":9399,"ĠáĪįáī¦áĪĿ":9400,"áĮİáĭ°áĬĵ":9401,"ĠáĪįáĪĿáĭµáī³áīµ":9402,"ĠáīĨáįİ":9403,"áĪĬáĪµáĬ«":9404,"áĪ¨áĪ»":9405,"áĬĲáĬ«":9406,"ĠáįĪáĪĪáĮ¥":9407,"ĠáĬ¸áī°":9408,"ĠáĪĵáĭ«áĪĭáīµ":9409,"áĭĭáĬķáĭ³":9410,"ĠáĭķáĪĭáĪĽáĬ¡":9411,"Ġáī°áĭĪáĭ³áĭ³áĪŃáĬĲáīµ":9412,"ĠáĪĿáĪįáĭįáĭĭáĮ¥":9413,"Ġáī°áĪĥáĬķ":9414,"ĠáĪ°áĪ¨áīµ":9415,"ĠáĪĿáĪµáĪį":9416,"ĠáĬ£áĪĿáĪ²":9417,"ĠáĬ£áĪĽáĪį":9418,"ĠáĭĪáĪįáĭ°áĪµáĪĭáĪ´":9419,"ĠáĭĺáĭŃáĪĿáĬ½":9420,"Ġáī°áĮłáĬķáīĢ":9421,"ĠáĬ¥áĪĿáī£áĭ¨":9422,"áĪĺáĮ»":9423,"áĭĿáĭ®áĬķ":9424,"Ġáī³áĪķáīµáĬķ":9425,"áĮĪáī¡":9426,"áĭĿáĬ«":9427,"áĮįáĭŀ":9428,"áīĥáī¥áĬķ":9429,"ĠáĪŃáĮįáĬ£áīµ":9430,"ĠáĪ½áĬķáī²":9431,"Ġáĭ¨áĪĽáĬĵáĭŃ":9432,"ĠáĪĿáīħáĪŃ":9433,"áīķáĪĪáīµ":9434,"Ġáī£áĬķáĭ³":9435,"Ġáī¥áĬ£áĬ«":9436,"Ġáī¥áĭµáĭµ":9437,"Ġáī¥áĬŃ":9438,"ĠáĭķáĪµáĪ«":9439,"Ġáī°áĪĺáĬµáĪ®":9440,"áĮ¥áīĥáĮ¥":9441,"áī²áĪİáĪĿ":9442,"ĠáĪµáĮį":9443,"áĪĥáī±":9444,"Ġáĭ¨áĬ«áĭŃáĭµ":9445,"ĠáĬ¨áĭŃáĪ°":9446,"áī°áĪŃáĬķ":9447,"áĭ°áĪĵáĪŃ":9448,"ĠáĮ¸áī¥":9449,"ĠáĬ£áĭįáĪª":9450,"ĠáĬ¥áĬķáī°áĭĺáĭŃáī°":9451,"ĠáįķáĪĭáĬĶáīµ":9452,"ĠáĬ£áĪ»":9453,"ĠáĬ¨áīłáĪ³":9454,"áĪ©áĭİ":9455,"ĠáĬ£áĮĭáĪŃ":9456,"ĠáĬ£áĭķáĪĬ":9457,"ĠáĮįáĭľáĬ£":9458,"Ġ43":9459,"ĠáĬ£áĬ¥áĪĿáĪ®áĬ¡":9460,"áĬĲáĭĽ":9461,"áĪ«áĮħ":9462,"ĠáĮ½áĪĴ":9463,"ĠáĬŃáįįáĮłáĪŃ":9464,"ĠáīįáĪ©áī¥":9465,"Ġáī¥áĭķáĭ³":9466,"Ġáĭ°áĮĬáĪĻ":9467,"ĠáĪĥáĬĴ":9468,"Ġ46":9469,"ĠáĬ½áįį":9470,"ĠáĬ£áĪ°áĬĵáĭ³áĬ¢":9471,"ĠáĪµáī¥áĪĴ":9472,"áĬĵáĭįáĬķ":9473,"ĠáĭŃáĪ½":9474,"Ġáĭ°áĭ«áĬĳ":9475,"áĪµáī²áĭ«":9476,"áĭµáĪķáĪªáĬ¡":9477,"áĪĿáĬ¡":9478,"Ġáī¥áĬ¥áĪĿáĬĲáīµ":9479,"ĠáĬ¤áĪĿ":9480,"ĠáĬķáĪĿáĭµáĬķ":9481,"ĠáĭĪáĪ²áĬ¾áĪĿ":9482,"ĠáĭķáĬķáīħáįĭáīµ":9483,"áĬķáīķ":9484,"ĠáĬķáĬĵáĮ½áĬĲáīµ":9485,"ĠáĮ½áĪ¬":9486,"ĠáĭĪáĮ»áĬ¥áī°":9487,"ĠáĬ£áĪĺáĪªáĬ«áĭįáĭ«áĬķ":9488,"ĠáĪĿáĬ¥áĪĭáĭŃ":9489,"Ġáī°áĪ¸áĪĬ":9490,"áĮ¥áĭķáĪĿ":9491,"ĠáĪĿáīĬ":9492,"ĠáĭĪáĪįáįĬ":9493,"ĠáĬ£áĪİáĬķ":9494,"ĠáĪĺáĪŃáīł":9495,"ĠáĭĪáĪĪáĭ°":9496,"ĠáĭĺáĭŃáĬŃáĬ¥áĪī":9497,"ĠáīħáĬĳ":9498,"áĪ»áĪį":9499,"áĬ³áĪµ":9500,"ĠáĪĿáĪĿáĪĭ":9501,"áī¥áĪĭáĪĬ":9502,"ĠáīħáĬķáĬ¢":9503,"ĠáĪĺáĪ»áĪŃáĬ½":9504,"ĠáĬŃáĬ£":9505,"áĪĵáĮ¥":9506,"áĮ½áĮĪ":9507,"ĠáĪ³áĪļ":9508,"ĠáĪĿáĮįáī¢":9509,"ĠáīĢáĪªáī¦áĪĿ":9510,"áī¥áīķáĭµáĪļ":9511,"ĠáĭĿáĪŀáī°":9512,"áĮ½áĬ¥áĬķ":9513,"Ġáĭµáįį":9514,"ĠáĬŃáĬ¸áĭīáĬķ":9515,"Ġáī¥áĮįáĭ°áĬ¡":9516,"ĠáĬ£áįįáīĢáĪŃáī²":9517,"ĠáĬ¦áĪİáĪĿáįĴáĬŃ":9518,"áĭµáĪįáĬķ":9519,"áĭĪáī°áīµ":9520,"ĠáīµáĬĲ":9521,"ĠáĬķáĪĿáĪį":9522,"ĠáĪ¨áī²":9523,"ĠáĭĭáĭĽ":9524,"ĠáĪķáĪŃáīĥ":9525,"ĠáĬŃáĪ°áĮĭáĮĪáĪŃ":9526,"Ġáī°áĬķáīĢáĪ³áīĵ":9527,"áĪĬáĪĭ":9528,"Ġáī£áĪķáī²":9529,"Ġ41":9530,"ĠáĪľáĮĢáĪŃ":9531,"ĠáĪĺáĬķáĮįáĪµáīµáĬ£áī¥":9532,"ĠáĬ¥áĪ±":9533,"áĮłáĬĲ":9534,"ĠáĮĪáĭĽáĬ¢":9535,"ĠáĪ¨áĬºáī¦áĪĿ":9536,"ĠáĪĺáĮłáĬķáīĢáīķáī³":9537,"ĠáĬĲáīķáĪŃáī¥":9538,"áĪĬáĪĳ":9539,"ĠáīµáĪķáī¥áĪŃ":9540,"ĠáĬĲáī¥áĭª":9541,"Ġáī°áĮ¸áĭĭáĭĴ":9542,"ĠáīħáĪįáĪµ":9543,"áĪĥáĬķáĮ½":9544,"ĠáĭķáĮ¥áīĤ":9545,"ĠáĭĿáī°áī£":9546,"ĠáĭķáĮ«":9547,"ĠáĬ¥áĪĿáĬĲáīµáĬķ":9548,"ĠáĬ®áĪŃáįĸ":9549,"áĪĭáĪ´":9550,"áīĲáīĲ":9551,"ĠáĪĽáĬ¥áī¶áīµ":9552,"áī°áĪŃáĪµ":9553,"áĭĵáĪ³áĪ±":9554,"ĠáĬŃáĮ½áīł":9555,"áĮĭáīµ":9556,"ĠáĮįáĪī":9557,"áĭĽáĬķáī³":9558,"ĠáĬªáĭµ":9559,"ĠáĬ¥áīµáĬ¸áĭįáĬķ":9560,"áī¤áīµáĬķ":9561,"ĠáĭĺáĭŃáīµáĬ½áĬ¥áĪį":9562,"ĠáĭĿáĪµáĪ«áĪķ":9563,"ĠáīĢáĮłáĪįáĭ«":9564,"ĠáĬ¨áĪĿáĭĿáĬ¸áĭįáĬķ":9565,"ĠáĪ±áī³áįĮ":9566,"áĪŃáĪ³áĭķáĬķ":9567,"ĠáĭĪáĪ«":9568,"áĪ¸áĬķ":9569,"ĠáĪħáĮ»áĬĵáīµáĬķ":9570,"ĠáĪĵáĪĬáįİáĪĿ":9571,"ĠáĬŃáĭįáĬķáĬĲáīµ":9572,"ĠáĬ£áĬ¥áī²":9573,"áĬ«áĪµáĪį":9574,"ĠáĭµáĪŃáī¥":9575,"áĪ¨áĬª":9576,"ĠáĪ°áĭ²":9577,"áĬ£áī¥áĭĽ":9578,"áįĸáĪĪáī²":9579,"áįĪáĪįáĮ¡áĬķ":9580,"áĪĭáĮīáĪį":9581,"áĮĭáįį":9582,"ĠáĬ¥áī°áīĲ":9583,"áī°áĪĵáĪ³áĪµ":9584,"Ġáī¥áĪ©áĪŃ":9585,"Ġáī£áĪį":9586,"ĠáĬ£áįįáĮĭáĬĴ":9587,"ĠáĬ£áĬ¥áĪĽáĬķ":9588,"áī¥áĪĪáĪī":9589,"ĠáĭĿáįĪáĮłáĪ¨":9590,"ĠáĭĪáĬķáĮĮáĪį":9591,"áĮ½áĪĭ":9592,"ĠáĬ¢áĪĽ":9593,"ĠáĭķáĪŃáĭµ":9594,"ĠáīħáĭµáĪµáī²":9595,"ĠáĪµáĬķáĮŃáĪ®":9596,"ĠáĬ£áĭŃáĬ¨áĬ£áĪīáĬķ":9597,"ĠáĬŃáĭķáĭĪáīµ":9598,"áįĪáĪĬ":9599,"ĠáĭķáĪ½":9600,"áīĵáĭµ":9601,"ĠáĬ£áī£áĪĭáī±":9602,"ĠáĪĵáĪ³áī£áīµáĬķ":9603,"áĬŃáįįáĪĬ":9604,"áĬĵáīķ":9605,"áĮ¥áīĥáĪĿ":9606,"ĠáįĸáĪĪáī²áĬ¨":9607,"áīµáĪĺáīµ":9608,"áĪµáĬº":9609,"áĬ£áĭĿ":9610,"áĮįáĭĽ":9611,"ĠáĬ¨áī°áĮį":9612,"áīłáĪĭáĪ¸":9613,"áī«áĬķ":9614,"ĠáĪĵáĪĪáįĭ":9615,"ĠáĬŃáī¥áĪ¨áĭĪáĪ°áĬķ":9616,"Ġáĭ¨áĭµáĪįáĭ®":9617,"ĠáĮłáī£áĭ«áīµ":9618,"ĠáĪĿáĬŃ":9619,"áĭ³áĪİ":9620,"áĭľáī¥":9621,"áĮĮáī³":9622,"áĭ´áĪį":9623,"áĬ²áĪµ":9624,"ĠáĭĵáĪļáīĿ":9625,"ĠáĭŃáĪĺáĪµáĪĪáĬĴ":9626,"ĠáĪķáĪĻáĪĿ":9627,"ĠáĪĺáĮ¥áīĥáĭķ":9628,"ĠáĮ¸áĮ¥":9629,"ĠáīĢáĮ¥áī³áĭĬ":9630,"ĠáĬµáĬĲáīµ":9631,"Ġáĭ«áīĨáī¥":9632,"ĠáĪ¨áĬºáīłáĭ®":9633,"ĠáĪĽáĪħáĮ¸áĬķ":9634,"áīłáĬ£":9635,"áīłáĭ«":9636,"áĬ½áĪį":9637,"ĠáĬ£áĪİáĭİ":9638,"áīłáĪįáĭİ":9639,"ĠáĬķáĭĵáĪĺáī³áīµ":9640,"ĠáĪµáĪŃáĭĵáī³áīµ":9641,"ĠáĮ¥áīķáĪ²":9642,"ĠáĬ£áĭµáĬĵáīĸáīµ":9643,"áĬ£áĪĪáĬķ":9644,"ĠáĬŃáĪŃáĬ¥áĭ®":9645,"áĮĪáĪŃáĮįáĪµ":9646,"Ġáĭķáĭ³áĮĭáī³áīµ":9647,"ĠáĬķáĪĿáįįáĮ»áĪĿ":9648,"ĠáĬķáĪĥ":9649,"áĪĭáĮ¢":9650,"ĠáĬ«áĪ³":9651,"áī¦áĪĭ":9652,"Ġáī£áī£":9653,"ĠáĬŃáīµáĭĽáĪ¨áī¥":9654,"ĠáĬ£áĬķáĭµ":9655,"ĠáĭĿáĬ¾áĬĲáĪī":9656,"áī³áĬ¡":9657,"áĭµáĬĳ":9658,"áĭĭáīµáĬķ":9659,"áĮĤáĬķ":9660,"áĬ¨áĭįáĬķáĬķ":9661,"ĠáĬ£áĭŃáĬĲáīłáĪ«áĬķ":9662,"áĬ«áįį":9663,"áĮĭáĮłáĪĺ":9664,"ĠáĮĲáĭµáĬĴ":9665,"ĠáĪĵáĭ²áĪ½":9666,"ĠáĭĿáĭ³áĪİ":9667,"ĠáĬ£áĪ¶":9668,"áĪįáĭİáĪĿ":9669,"áĬŃáĪī":9670,"áī¥áĪīáĮ½":9671,"ĠáĮłáĬķáīħáī³áīµ":9672,"áī£áĪī":9673,"áĬĲáīłáĪ«":9674,"Ġáī°áĮİ":9675,"ĠáĭĪáĬĵáĬĴ":9676,"ĠáĮ¸áĪĬ":9677,"ĠáĪĵáĭ°áĪ«":9678,"ĠáĪ³áĪķáī²":9679,"ĠáĮĪáī¥áĪ¨áīµáĬķáĪ³áĬ¤":9680,"ĠáĪĵáĪĬáįĭ":9681,"áĪİáĪµ":9682,"áĬŃáĭİáĪĿ":9683,"áĮ¥áĭĲ":9684,"áĪ©áĪī":9685,"ĠáĭĺáĭŃáĮį":9686,"ĠáĬªáĪķ":9687,"Ġáī¥áĪĵáĮĪáĭĿ":9688,"áĬ«áĭ¨áĭ±":9689,"áīĭáĪ¨":9690,"ĠáĪĻáĬĴ":9691,"ĠáĪ®áĭŃ":9692,"Ġáī°áĮłáĪŃáĬĴ":9693,"ĠáĭĿáĭįáĪ°áĭµ":9694,"ĠáĭĿáīłáĭĿáĪĸ":9695,"Ġáī¥áĭĪáĮĪáĬĲáĭŃ":9696,"ĠáĬŃáīµáĭķáĭĪáīµ":9697,"ĠáĮ½áĭµáīĤ":9698,"ĠáĬ®áĪĿáįķáĭ©áī°áĪŃ":9699,"áĪĵáĪµáĬķ":9700,"ĠáĬ¥áĬķáī°áīµ":9701,"ĠáĬ¤áĪĮ":9702,"2018":9703,"ĠáĪķáĪŃáīĥáĬķ":9704,"ĠáĭĿáī°áĭĭáĪħáī¦":9705,"ĠáĮİáī¦áī³áīµ":9706,"ĠáįįáĮ¥áĬĲáīµ":9707,"áĮ½áĮ»áĪŃáĬķ":9708,"áĮĭáĬĲáĪ½":9709,"ĠáĬ£áĬ«áĭªáĭ±":9710,"ĠáīµáĪĿáĪħáĪŃáī³":9711,"ĠáĬ®áĪĿáįĴáĭ©áī°áĪŃ":9712,"Ġáī¥áĬ¹":9713,"áĬ£áī²":9714,"áĪ¨áĬ½áīłáĬķ":9715,"ĠáīµáĪĿáĪħáĪŃáī°áĭŃ":9716,"áĪ¨áįĪáĬķ":9717,"60":9718,"áĪ¨áįī":9719,"ĠáĭŃáĪŃáĬ¨áī£":9720,"ĠáĭĵáĮ¢":9721,"Ġáī£áĮ¤áĪ«":9722,"ĠáĬŃáīµáĪŃ":9723,"ĠáĭĿáīłáĪĥ":9724,"Ġáī¥áĪĵáĭ«áĪį":9725,"áĬĵáĪįáĭµ":9726,"ĠáĭĿáįĪáĮ¸áĪĺ":9727,"ĠáĭĿáĮĪáī¥áĪŃáĭİ":9728,"ĠáĬ£áĪµáĪļáĪ©áĪī":9729,"áĪĺáĪĥáĪ®":9730,"áĪ°áĬ«":9731,"Ġ..":9732,"áĪ»áĪĿáįķáĭ®áĬķ":9733,"ĠáĭĭáĭĴ":9734,"ĠáĬ£áĬĲáĪµ":9735,"ĠáĪµáĪŃáĪĸáĪĿ":9736,"ĠáĪ»áīķáĪİáīµ":9737,"ĠáĭĿáĮ»áĭĪáīµ":9738,"ĠáĭŃáĪ¨áĬ£":9739,"ĠáĭµáĪī":9740,"ĠáĪĤáī¦áĪĿ":9741,"áĪµáĭķáī¦":9742,"áįĮáīµ":9743,"ĠáĭĺáĪķáĪĪ":9744,"ĠáĬ£áĪįáī³áĪķáĪªáĪŃ":9745,"áĬĵáĪī":9746,"áĪįáĬ¨áī°":9747,"ĠáīłáĮºáĪĸáĪĿ":9748,"ĠáĪĺáĭĲáīĢáĬĴ":9749,"ĠáĪ«áĪħáĭĭ":9750,"47":9751,"ĠáĪĺáįĪ":9752,"áĪİáī²":9753,"áĭĺáĭŀ":9754,"ĠáĬ¨áĭŃáĬ¨":9755,"ĠáĬ¬áĬķ":9756,"ĠáĬķáĪĿáĪĿáĪĭáĪµ":9757,"ĠáĬ£áĬ¼áī£áī³áīµ":9758,"áĬŃáĪ³áĬķáĭ°áĪŃ":9759,"áĪįáĪķ":9760,"áī³áĪ½":9761,"áī£áĪ«áīµ":9762,"áĭĺáĪĺáĬķ":9763,"ĠáĪĽáĪį":9764,"ĠáīłáĭĽ":9765,"ĠáĬ¥áīµáĮĪáī¥áĪ®":9766,"ĠáĬķáĮįáĪµáĬĲáīµ":9767,"ĠáĭķáĪĭáĪĽáī³áīµ":9768,"ĠáĭįáĪ½áĮ¥áĬ»":9769,"Ġáī¥áī¥áĭĻáĪķ":9770,"ĠáĪĵáĭĿ":9771,"ĠáĭķáĬķáĮ¸":9772,"ĠáĪĿáĬķáĮ»":9773,"ĠáĬ£áīĲáĭ²áĪĿáĬĵ":9774,"ĠáĬķáĬķáĮīáĪµ":9775,"ĠáĭĺáĬ«áĭŃáĭµáĭİ":9776,"Ġáī¥áĪ°áī¥":9777,"ĠáĪĿáĪĵ":9778,"ĠáĭĪáĪµ":9779,"ĠáĬ£áĬ¥áĪĿáĪ®áĭŃ":9780,"ĠáĮ¾áĪĿ":9781,"ĠáĭįáĭĳáĭŃ":9782,"áĪĽáĭĬáīµ":9783,"ĠáĪļáĬĴáĪµáī°":9784,"ĠáĪĺáĪŃáĭĵáĭĬ":9785,"ĠáĬķáĭĪáĪĪ":9786,"ĠáĬŃáĮ»áĭĪ":9787,"áĪĽáĪĪáīµ":9788,"áĮĪáīłáĪ©":9789,"áĬŃáĪ³":9790,"áĬŃáĬķáĭ²":9791,"áī¦áī³áīµ":9792,"ĠáĪĿáĭĥáĬķáĬ«":9793,"ĠáĭĿáĭĪáĪŃáĭµ":9794,"ĠáĪķáĪĽáĪĽáīµáĬķ":9795,"ĠáĪĥáĭĭáĪŃáĭ«":9796,"ĠáĬ¥áĬķáī°áĭĦáĬķáĬ«":9797,"áĮĪáīł":9798,"ĠáĪ°áĬ£":9799,"ĠáĮĪáĮ¸áĭŃ":9800,"áĪ°áĪŃáĪĸ":9801,"2017":9802,"ĠáĪĺáĭĽáĮįáī¥":9803,"Ġáī°áĮłáīĴáĪŀáĪĿ":9804,"ĠáĬ¥áī£":9805,"áĭ±áĪ»áĭŃ":9806,"áī¥áĪ¨áĪĭ":9807,"ĠáĭļáĪĺáĮ½áĬ¥":9808,"ĠáĬ£áĪĺáĭĿáĮĭ":9809,"2014":9810,"ĠáĪĿáīµáĬ¥áĪĿáĪĽáĬķ":9811,"ĠáĪĴáĭĿáĬĵ":9812,"Ġáĭķáĭ±áĪĽáīµ":9813,"ĠáĬ¥áĪĺáīµ":9814,"áĪĺáĭĵáĪį":9815,"Ġáī¥áĪĿáĪħ":9816,"áĪ«áĪķáī²":9817,"Ġáī£áĪħáĪĭáĭįáĬķ":9818,"áĭĺáĪŃáĮĪ":9819,"áī¡áĬĵ":9820,"ĠáīłáĮ½áĪĳ":9821,"Ġáĭ¨áĪķ":9822,"áĬĵáīµáĬĵ":9823,"Ġáī°áĭĪáĪįáĭ°áī¥áĪŃáĪĥáĬķ":9824,"Ġáī°áī°áĬ«áĬ¥áī²":9825,"ĠáĭĺáĭŃáĬķáī¡áĪŃ":9826,"áĬ¸áīµáĪį":9827,"48":9828,"áĬķáĪª":9829,"ĠáĭĺáĪĽ":9830,"ĠáĬ«áĬĵ":9831,"ĠáīµáįĪáĪįáĮ¦":9832,"ĠáįĪáĭįáĪ²":9833,"áī¤áī³":9834,"ĠáĬŃáįįáĮ¸áĪĿ":9835,"ĠáĮįáĭĿáĭ«áĭĬ":9836,"ĠáįįáĪ«áĬķáĬŃ":9837,"ĠáĬ£áĭ²áĬ¡":9838,"ĠáīµáĬķáĪ³":9839,"ĠáĬ£áīµáĭ¨":9840,"ĠáĮĵáĪī":9841,"áĪĺáĪ°áĪ¨áī±":9842,"áĪįáĭ«áĬĵ":9843,"ĠáĪĺáĮİ":9844,"áĭĪáĭµ":9845,"ĠáĪµáī°":9846,"áĭ®áĪŃáĬŃ":9847,"Ġáīħáī¥":9848,"ĠáĭĿáĪĵáĮ¸áĪ¨":9849,"áĪĺáĪ«áĪĴ":9850,"áĭĵáĭĿáĭĿ":9851,"Ġáī¥áĮĢ":9852,"áįĪáĪİ":9853,"ĠáĭµáĪĭáĭŃ":9854,"Ġáī°áĪ¨áĬºáī¦áĪĿ":9855,"ĠáĬ£áĮĪáĪįáĮįáĪİáīµáĬķ":9856,"áī¡áĪµ":9857,"áĪ½áĭ«":9858,"Ġáī¥áĭķáĪ«áĭŃ":9859,"ĠáĭīáĪ½áĮ¢":9860,"ĠáĪĺáĬ«áĬĲ":9861,"ĠáĬķáĪ¨áī¥áĪĵ":9862,"áįĭáĬĲ":9863,"áį£\"":9864,"ĠáĭĿáĬ£áĪĿ":9865,"ĠáĬ¥áĬĵáī°áīĲ":9866,"ĠáĬ£áīķáĪĵ":9867,"áĬķáĮ¥":9868,"áĬĲáĭĬáĪķ":9869,"ĠáĬ¨áĭķ":9870,"ĠáĭĿáĪĺáĪµáĪĪ":9871,"ĠáĬ¨áī£áī¢áĬĵ":9872,"ĠáĭĵáīķáĪĿ":9873,"Ġáī°áĬ£áĪ²":9874,"ĠáĪĭáĭķáĪįáĬķ":9875,"ĠáĬŃáĭĽ":9876,"áīĥáĭĬ":9877,"ĠáĮ½áĮįáĭ«áīµ":9878,"ĠáĬ¥áĭ«áĪ±":9879,"áĪĪáĪĪáĭŃ":9880,"ĠáĬŃáĪĭ":9881,"ĠáĭŃáī¥áĪĪáĬĴ":9882,"Ġáī¥áĭĿáĬ¥áĭĿáĭŀ":9883,"ĠáĬŃáĭĪáĪĥáī¦":9884,"áī¥áĪĵáīĤ":9885,"ĠáĭĿáĪŃáĬ¨áī¦":9886,"ĠáĪĺáĪĭáĬ¥áĬ½áī²":9887,"Ġáī°áĪµáįİáĪĿ":9888,"áĪŃáī¶áĭ¶":9889,"ĠáĬ¥áĪķ":9890,"Ġáī°áĪĺáĪĪáĪµ":9891,"áĭµáĪįáĭ¨":9892,"áĪĽáĬķáī¸áĪµáī°áĪŃ":9893,"ĠáĮħáĮįáĬĵ":9894,"ĠáĬ¥áĬĵáĭĪáĪ°áĬ¸":9895,"ĠáĬ£áī¥áĬĲáī³áīµ":9896,"áĪĿáįķáī°áĬķ":9897,"áīĽáĪĿ":9898,"ĠáĭĺáĪŃáĬł":9899,"Ġáī¥áĭĺáĭŃáĪĿáĬ½":9900,"ĠáĭĿáīĥ":9901,"áĪĵáĪķ":9902,"áĮĵáĭķ":9903,"Ġáī°áĪ°áĪĬáįī":9904,"Ġáī°áįĪáī²":9905,"ĠáĬķáī°áĬ¸":9906,"ĠáįķáĪĭáĪµáī²áĬŃ":9907,"ĠáĪµáĪĪáĭĿáĭ°áĪĪáĬĵ":9908,"Ġáī°áĮłáīĥáĪĿáĬĲáīµ":9909,"Ġáįł":9910,"ĠáĬŃáĪ¨áĪĿ":9911,"áĮ½áĪĿáī²":9912,"ĠáĮ¸áĪĥáĭ¨":9913,"áīµáĪķáī²":9914,"ĠáĭĿáĮĪáīłáĪŃáĭİ":9915,"ĠáĭĶ":9916,"ĠáĪĺáĪĺáĪ¨áīķáī³":9917,"ĠáĬŃáĪĵáĪµ":9918,"Ġáĭĺáĭ¨áĪĪáĭĪáĪī":9919,"áĪ°áĪĽáĪĽáĭķ":9920,"áĭĵáī±":9921,"áĪµáĪ«áĬķ":9922,"ĠáĬŃáī¥áĪĪáĬ«":9923,"ĠáīµáĪŃáī¥":9924,"ĠáĪĿáĬķáĪĿ":9925,"ĠáĭĺáĭŃáī°áĭ°áĪįáĭ¨":9926,"áĮįáĭľáĬ¡":9927,"áĭ°áī¡":9928,"ĠáĬ£áĪµáī´áĪŃ":9929,"ĠáĭĭáĪŃ":9930,"ĠáīłáĮºáĪĵ":9931,"ĠáĬ«áĪįáĬ¢áī³áīµ":9932,"ĠáĭįáĪ«áĭŃ":9933,"ĠáĬķáĭįáĭµáĭµáĪŃ":9934,"ĠáĬĲáĮĭáĭ¶":9935,"ĠáĬ¦áĪ®áī³":9936,"ĠáĭŃáī¥áĪĥáĪį":9937,"áįĪáĪĪáĭŃ":9938,"áĮ»áī¥":9939,"áīłáĪŃáĬķ":9940,"ĠáĬ¥áīµáĭį":9941,"Ġáĭ°áīĢáīķáī²":9942,"Ġáī¥áĪĿáĬķáī£áĪ«":9943,"ĠáĬ£áĮłáĪĽáĪĿ":9944,"ĠáĪĬáī£áĬĸáĪµ":9945,"áĪĬáī¨áĪŃáįĳáĪį":9946,"Ġáĭ°áĮĭ":9947,"Ġáĭ°áĮĢáĬķ":9948,"ĠáĭĪáĪ²áĭ¶áĪĿ":9949,"áĬ£áĪįáī¦":9950,"áī°áĬ½áĪĪ":9951,"ĠáĪķáĮ¹":9952,"Ġ1998":9953,"áĮįáĪ«áįį":9954,"áĪµáĭī":9955,"ĠáĭĵáĭŃáĬĲáĭŃ":9956,"ĠáĪĺáĭµáĪķáĬķ":9957,"áĬĲáī¶áĪĿáĬķ":9958,"áĮĭáĮĭáĭļ":9959,"65":9960,"Ġáĭĵáĭ¶áĪĿ":9961,"áĪļáĬĳ":9962,"Ġáī°áĪªáįĭ":9963,"áīĪáĪį":9964,"áĬ£áī±áĪĿ":9965,"áĭĽáĭĺáĪĺ":9966,"áĪįáī¡":9967,"ĠáĪµáĬ¢áĬĳ":9968,"ĠáĪĳáĮ»":9969,"Ġáī°áĭĭáĪµáĬ¦":9970,"áĪįáĮĭáĪį":9971,"áĭĵáĪ¨":9972,"ĠáĮİáĭŃáī³":9973,"ĠáĪ»áĭµáĪ»áĭŃ":9974,"ĠáĬ£áĬ¥áĪĿáĪ®áĬĵ":9975,"ĠáĭĪáĪįáĭ³áĭŃ":9976,"áī¥áĮĪáĪµ":9977,"áĮ¥áįĭ":9978,"ĠáĮ¥áĬķáī³":9979,"áĮĬáĪĻ":9980,"áĬ°áĪŃ":9981,"ĠáĭĿáĪĺáĮ½áĬ¡":9982,"ĠáĬķáĭ°áīĢ":9983,"áīµáĭ®áĬķ":9984,"ĠáĪĽáĬ¥áī¶":9985,"áĬ£áī¦áĭŃ":9986,"ĠáĭĿáĪĿáĪµáĮĪáĬķ":9987,"ĠáĬŃáĮĪáī¥áĪ«":9988,"áĮīáĭµ":9989,"áĭĺáĬĵáĮį":9990,"áĪĿáĬ¥áĬķ":9991,"ĠáīĢáĪ¨áīł":9992,"ĠáĬķáĭĿáĪĿ":9993,"áĪ¨áĬ¸áī¡":9994,"ĠáĭĪáĪįáĭ°áĬ£áī¥":9995,"áī¥áĬª":9996,"ĠáĭĿáĪµáĪŃ":9997,"Ġáī¥áĪĿáĪĿáĪµ":9998,"áĪĺáĬķáĬķ":9999,"ĠáĬ£áī¢áĪįáĬĵ":10000,"ĠáĬŃáī¥áĪŃáī³áīµáĬķ":10001,"áĪ«áĪ¨áī¥":10002,"ĠáĪĵáĪĵ":10003,"ĠáĪįáī¥áĬĵ":10004,"áīħáĮ¥áīĥáĮ¥":10005,"ĠáīłáĪĪáĪµ":10006,"Ġáī¥áĪįáĪĴ":10007,"ĠáĬŃáĪĬáĪĽ":10008,"Ġáī¥áĪĿáĪŃáĬ£áĭŃ":10009,"ĠáĭĿáĪĺáĪµáĪī":10010,"ĠáĬ£áī¤áĪį":10011,"Ġáī¥áĪŃáĬ¥":10012,"áĮ»áĭį":10013,"ĠáĬŃáīµáĬ¨áįį":10014,"ĠáĭĿáĪĺáĮ»":10015,"ĠáĬ£áĪŃáĪ°áĬķ":10016,"Ġáī¥áĪ°áĪĪáĪµáī°":10017,"ĠáĬŃáĪµáĪ«áĪķ":10018,"áī¥áĪĪáĭŃ":10019,"áĪ«áī¡":10020,"áĪĭáī£áīµ":10021,"ĠáĬķáĪĺáīłáĪį":10022,"ĠáĭµáĬķáĪ½":10023,"ĠáĬ£áī³áĬ½áĪįáī²":10024,"áĪįáĭ±":10025,"ĠáĬ¨áĪĺáĪĵáĪĭáĪįáįİ":10026,"áĭ³áĬ¢":10027,"áĬ½áĪī":10028,"ĠáĬŃáīµáĪŃáĬ¢":10029,"ĠáĭĿáī¥áĪįáĭİ":10030,"áĮħáĪĿáĪ©":10031,"áīłáī³áĭĬ":10032,"áĪĭáĭ²":10033,"ĠáĬ£áĭŃáĪŃáĪ³áĭķáĬķ":10034,"ĠáĪĬáīĢ":10035,"áĪĵáĬķáĪ³áĬ¥":10036,"ĠáĬ£áĬ«áĭ¨áĭµáī²":10037,"áįł":10038,"ĠáĬķáīłáĭĵáĪį":10039,"ĠáĭĿáī°áĪ³áī°áįī":10040,"ĠáĪĥáĪĪ":10041,"ĠáįįáĮ¡áĪ«áīµ":10042,"ĠáĬ¥áĪĻáĬĵáīµ":10043,"áī³áī¶":10044,"ĠáĭµáĪĿáĪŃ":10045,"áīģáĬķ":10046,"Ġ75":10047,"áĬ£áĪŃáĪ°áĬĵáĪį":10048,"ĠáĬ£áĪµáī°áī¥":10049,"ĠáĬ«áĪŃáĪĺáĪį":10050,"ĠáĬķáĭµáĪķ":10051,"ĠáĬķáĪ¨áĬ½áī¦":10052,"Ġáįįáī±":10053,"ĠáĮ¸áĪĭ":10054,"ĠáĬŃáīµáĮĪáī¥áĪ®":10055,"áĪ¨áĬķáī¶áĪµ":10056,"ĠáĪµáĪŃáīĤ":10057,"ĠáĬ¨áįĬáī±":10058,"ĠáĭĿáīĲáĬķáĭĲ":10059,"42":10060,"áĪ°áĪĪáīµ":10061,"áĪ³áĪµáĬķ":10062,"áĭ®áĪĿáĬķ":10063,"ĠáĪ©áĪµáĭ«áĬķ":10064,"ĠáĪĵáĪįáĭ®áīµáĬķ":10065,"ĠáĭĺáĮĪ":10066,"ĠáĭŃáīĲ":10067,"áĭ¶áĬŃáī°áĪŃ":10068,"ĠáĭįáĭµáĭµáĪ«":10069,"áĭĿáĮĪáī¡":10070,"ĠáĬķáĭĳ":10071,"áĪħáĬĵáīµáĬķ":10072,"Ġáĭ¨áĪĽáĬķ":10073,"ĠáĮ½áī£":10074,"ĠáĬ°áĭŃáĬĲáĬķ":10075,"áĪħáĮīáĪ«áĭĬ":10076,"Ġáī°áĬ¸áī³áī°áĪįáī²":10077,"ĠáĬķáĬĵ":10078,"Ġ65":10079,"Ġáī°áĪŀáĬŃáĪ®":10080,"ĠáĪĺáĮĵáĪ°":10081,"Ġáī°áĬ¸áįĬáī±":10082,"ĠáĭĺáĭŃáĬ¨áĪĿ":10083,"ĠáĬ£áĭŃáīµáĪķ":10084,"ĠáĪĺáĭĽáĪĻ":10085,"ĠáĪĿáĬ¥áĬ«áī¥":10086,"ĠáĪĿáĬŃáīµáī³áĪįáĬķ":10087,"Ġáī°áĪ°áĮĭáĮĬáĪ©":10088,"ĠáĭĿáĮ¨":10089,"ĠáĬŃáĬĵ":10090,"ĠáĪĵáĪ¨":10091,"áīķáĪĬ":10092,"ĠáĭķáĪŃáĭ²":10093,"Ġáī¦áĪİ":10094,"áĮ¥áĪį":10095,"ĠáĪħáĬķáĭ³":10096,"áĪŃáīµáĪĺáĬķ":10097,"áĬĽáī³áīµáĬķ":10098,"Ġáī°áīĲáī¢áĪİáĪĿ":10099,"ĠáĬ£áĮ¸áĭĭáĭįáī³":10100,"áĭ«áĭįáĭ«áĬķ":10101,"Ġáī°áĪĺáĪĥáĪ«áĭŃ":10102,"Ġáīħáĭ±áĪ³áīµ":10103,"ĠáĪĺáĬ£áĭĿáĬķ":10104,"ĠáĬŃáĪĵáĪį":10105,"Ġáī¥áīĳáĮ½áĪª":10106,"áĪŃáĮĬáĪµ":10107,"Ġáī¥áĬ¢áĭµ":10108,"Ġáī´áĪĪáįİáĬķ":10109,"ĠáĪķáĬķáĮ»áĮ½":10110,"ĠáĭĺáĬ½áĬ¥":10111,"ĠáĬ¸áĪĺáĭŃ":10112,"áĮħáĪĺáĪŃ":10113,"áĬŃáĪ³áĭķ":10114,"ĠáĭĺáĪĪáĬ£áĪĪáĪĿ":10115,"ĠáĬķáĭµáįĬ":10116,"ĠáĮ½áĭķáĬĲáīµ":10117,"ĠáĭĿáī°áĪ³áī°áįįáĭİ":10118,"ĠáĬ£áĭŃáĪ¨áĬ£":10119,"ĠáĪĵáĭµáĮī":10120,"Ġáī°áĪ¨áįĪ":10121,"ĠáĭĺáĮĭáĮłáĪŀ":10122,"ĠáĬĸáī³áĪªáĬķ":10123,"ĠáĪĿáĬŃáįįáįĭáĪį":10124,"áĬ¥áĪµáĪ«áĬ¤áĪį":10125,"áĬĴáĬ«":10126,"ĠáĪ¨áīĤáīķ":10127,"ĠáīħáĭµáĪĺáĭŃ":10128,"áĭŃáĪĿ":10129,"áĪĽáĪ¨":10130,"áĭĺáĪ¨áī£":10131,"Ġáī°áĪĺáĪĵáĪĭáĪĪ":10132,"ĠáĪĺáĬķáĮįáĪµáī³áĭĬ":10133,"ĠáĬłáĪİáĬ¹":10134,"áĭµáĬĲ":10135,"áĬ£áīĲáĭ²áĪĻ":10136,"ĠáĪĺáĭµáĪĥáĬĴáī³áīµ":10137,"ĠáĬ£áī¥áĪŃáĪĢáīµ":10138,"ĠáįįáīĳáĪ«áīµ":10139,"ĠáĬ¨áĪĺáĭĿáĮįáī¥":10140,"ĠáĬŃáĪİ":10141,"áĭķáī¥áĪį":10142,"áĮįáįį":10143,"áĬŃáī²":10144,"áĮ¸áĪĭáĬ¢":10145,"ĠáĪķáĮĭáĮĭ":10146,"ĠáĪŀáĪ³":10147,"ĠáĪĿáĭķáĪ©áĭŃ":10148,"ĠáĬ£áĬ¥áĪĿáĪ®áĬ»":10149,"áĪĺáĭĵáĬ«":10150,"ĠáįįáĪ¨áĭĪáĭŃáĬĴ":10151,"ĠáīµáĪĿáĬĴáīµ":10152,"áĪĿáĪįáĬŃ":10153,"áĪµáĭİ":10154,"ĠáĬĲáĪŃáĪµ":10155,"ĠáĭĪáĬ»":10156,"áĭĽáī¢":10157,"ĠáĮ½áī¡":10158,"áĪĭáĬķáĭ³áĭĬ":10159,"ĠáĬ£áī£áĮĬáĭķ":10160,"ĠáĪĻáĪī":10161,"ĠáĬ£áĭŃáĬĲáīłáĪ¨áĬķáĬķ":10162,"ĠáįĪáĮºáĪŀáĪĿ":10163,"ĠáįİáĪŃ":10164,"áī¥áĭĵáī°":10165,"ĠáīĦ":10166,"ĠáĪµáī±":10167,"ĠáĮįáĬ¥áĭĿ":10168,"ĠáĪĺáĭ°áī£":10169,"ĠáĭĺáĮĭáĮł":10170,"ĠáĬŃáĪħáĪįáĭĭ":10171,"01":10172,"áĬĲáĭ©":10173,"áĭĪáĪŃáĭµ":10174,"ĠáĭĪáĬĴ":10175,"ĠáĮ¸áĪį":10176,"ĠáĬ¥áĬķáī°áĭĺ":10177,"ĠáĮĭáĭľáĮ£áī³áīµ":10178,"ĠáĭķáĬķáĮ¨áĭŃáī²":10179,"Ġáī°áĭĺáĬŃáĪ®":10180,"ĠáĪĺáĪĺáĪĬáĪ±":10181,"ĠáĪĿáĮħáĪĽáĪ©":10182,"áįĪáĪĪáĪĽ":10183,"ĠáĬ©áĪĭáīµáĬĵ":10184,"áĬ³áĪŃ":10185,"áĮĵáĬķ":10186,"ĠáĬķáĬ£áįį":10187,"ĠáĭĵáĪµáĪ«áĭŃ":10188,"Ġáī¥áĪįáĪ½áĭįáĬĵ":10189,"áįįáĬĵáĬķ":10190,"ĠáĬ¥áĬķáīµáĪŃáįİ":10191,"ĠáĬŃáĬķáĬŃ":10192,"ĠáĬ£áīµáĪĴáĭĽ":10193,"ĠáĮ¥áĪŃáĮ£áĪ¨":10194,"áĪĪáī±":10195,"áĬĲáĮ½áĪŃ":10196,"ĠáĪĺáĬĵáįį":10197,"áĭ®áĪª":10198,"ĠáĭŃáīķáĪ¬áī³":10199,"ĠáĪµáĪŃáĪĵ":10200,"ĠáĬŃáĪĿáĪį":10201,"ĠáĬ£áĪĺáĭĿáĮĭáī¢":10202,"áĭ¨áĪª":10203,"áīłáĪŃáĪħ":10204,"áĪ°áĪĭáĪ°áĪį":10205,"áĭĪáĬ¨":10206,"ĠáĪĵáīµ":10207,"Ġáī¦áĬ½áĪª":10208,"ĠáĪĿáĪĿáĪį":10209,"ĠáĭĵáīķáĪŀáĪĿ":10210,"áĬŃáĬķáĭ°áĭŃ":10211,"ĠáĭķáĭµáĪĺáĬ¡":10212,"áīħáĪµáīĵáĪµ":10213,"ĠáĪĺáĬ½áĭĺáĬķ":10214,"ĠáĬĲáīĲáįĮáī³":10215,"ĠáĬķáĭĭáĬķáĮ«":10216,"ĠáĬŃáĭĵáī¢":10217,"ĠáĪķáĭŃáĭĪáīµ":10218,"ĠáĬ£áĬ½áĪ«áĬķ":10219,"ĠáĬķáĪĿáĪĿáĭķáī£áĪį":10220,"Ġáī°áĭĪáĪįáĭ°áĪĺáĭµáĪħáĬķ":10221,"ĠáĪĺáĪ°áĪ¨áī³áĭįáĭ«áĬķ":10222,"áĪĽáĪ«":10223,"áĭįáĬĲáīµáĬķ":10224,"áĪªáĬ®":10225,"ĠáĬ£áīĲáĪļ":10226,"ĠáĬ£áĭŃáĬŃáĬ¥áĪīáĬķ":10227,"ĠáĭŃáĪĵáīµáīµ":10228,"ĠáĭĪáįĪ":10229,"ĠáĮĪáĪŃ":10230,"ĠáĪĺáĬķáįĪáĪµáĬķ":10231,"ĠáĮ¥áīłáī£áīµ":10232,"ĠáĪµáĭĭáĪ¨áĭĿ":10233,"Ġáī°áįĪáĮ¥áĪ®áĬ£áĭĬ":10234,"áīłáĬª":10235,"ĠáĪĵáīłáĪ¨":10236,"áĬ®áĪ°":10237,"áįĬáĪįáĭµ":10238,"ĠáĬ£áĭ°áĬ£":10239,"áĮįáĪĿáĮĭáĪĿ":10240,"áĭĪáĪĪáĭµ":10241,"Ġáī¥áĮ¥áĬķ":10242,"áĪ°áĪª":10243,"Ġáīħáĭ«":10244,"ĠáĮŃáĪŃáĪĸ":10245,"áĪ¨áĭ«":10246,"Ġáĭ°áįĬ":10247,"áī¤áĪĭ":10248,"áĭħáĪ²":10249,"ĠáĪŃáĬ¥áĭŃáī¶áī³áīµ":10250,"Ġáī°áĪŃáĬ¥áĭ®áī³áīµ":10251,"ĠáĪķáī¥":10252,"ĠáīħáĪį":10253,"áĮĬáĭµ":10254,"áĮīáĪ°áĬķ":10255,"ĠáĬ£áĬĲáĮº":10256,"Ġáī¥áĬ£áĪ½áĪĵáīµ":10257,"ĠáĪĿáĭµáĮįáĮĭ":10258,"ĠáĮĢáĪļáĪ¨áĬķ":10259,"ĠáĬ»áĪħáĬķ":10260,"ĠáĪĺáĬķáĮįáĪµáī²áĬķ":10261,"ĠáĬ¾áĬĲ":10262,"Ġáī¥áĭĿáĪĵáĭ¨áĪĪ":10263,"Ġáĭĺáī¤áī³áĭĬ":10264,"áĭĺáĭĭ":10265,"áĮ¥áī³áīµ":10266,"áĪŀáĪµ":10267,"áīĥáīł":10268,"ĠáīĢáī¥áĪª":10269,"ĠáĪĺáĬ¸áī°áĬķ":10270,"ĠáĭĪáĭ°áī¥":10271,"ĠáĬ£áĪĿáĪĪ":10272,"ĠáĪĺáĭĪáĭ³áĬ¥áī³áĬķ":10273,"ĠáĭħáĪİáĪĿ":10274,"áĭįáĪĲ":10275,"Ġáĭĺáī¢áī¥":10276,"ĠáĪĿáĪĿáĪĥáĪŃáĬķ":10277,"Ġáĭ²áĪŀáĬŃ":10278,"Ġáī¥áīķáĮ½áīłáīµ":10279,"áĬ¥áīµáĭİ":10280,"ĠáĬŃáĪħáĪįáĭİáĪĿ":10281,"ĠáīĪáĪįáĭĳáĬķ":10282,"áĭķáī¥áĭ®":10283,"Ġáĭ°áī¥áĭ³áīłáī³áīµ":10284,"áĭĺáĭįáīµáĪ©":10285,"ĠáĮ¡áī¥":10286,"áĪįáĬŃáĭİ":10287,"Ġáī¥áĪķáĮĤ":10288,"Ġáĭ²áīªáĭĿáĭ®áĬķ":10289,"áĮ¸áĭĪáī³":10290,"ĠáĮ½áĪĭ":10291,"áīĴáĪī":10292,"ĠáĬĲáĮĪáĭµ":10293,"Ġáī³áĪªáĬ½áĬķ":10294,"ĠáĬķáĬ»áĪįáĬ£áĭŃ":10295,"áī¥áĭµáĪķáĪªáĬ¡":10296,"ĠáĪ±áĭ³áĬķáĬķ":10297,"áĭµáĭĭ":10298,"ĠáīłáĮĬáĭķ":10299,"ĠáĭķáĪ¸áĪį":10300,"ĠáĬŃáīµáĬ£áī±":10301,"áĮŃáĬķ":10302,"ĠáĪĺáĭĪáĭ³áĬ¥áī³áĬ¡":10303,"ĠáĪĽáĬķáĪĿ":10304,"ĠáĭĿáįĪáĮłáĪ®":10305,"Ġáī¥áī°áĭĪ":10306,"áĬªáĪ©":10307,"ĠáĭļáĬĲ":10308,"ĠáĮĵáĪĤ":10309,"ĠáĮ»áĭķáīĤ":10310,"ĠáĭµáĬķáīĤ":10311,"ĠáĬ®áĪĮáĮħ":10312,"áĪµáĪįáĬª":10313,"Ġáī¥áĪ¨":10314,"áĭ°áĭĭ":10315,"áīĲáīµáĬķ":10316,"ĠáĬŃáīµáĬĲáī¥áĪŃ":10317,"ĠáĪŃáĬ¡áĭŃ":10318,"ĠáĮĪáī¥áĪ¨áĬ¥":10319,"áĪ³áī°áįĪ":10320,"ĠáĬķáĪĿáĪħáĬĵáĮ½":10321,"áĬ¨áĪ³áĪ²":10322,"ĠáīµáĪ¸":10323,"ĠáĬŃáīµáĭĵ":10324,"ĠáĪ°áī¥áĬ£áĭ«":10325,"ĠáĬ©áĪĭáī¶áĪĿ":10326,"ĠáĪ³áī£":10327,"Ġ52":10328,"Ġáī¥áĭįáĪįáīĤ":10329,"ĠáĮ©áĪ«":10330,"ĠáĬŃáĮ½áĬķ":10331,"Ġáĭĵáĭ±":10332,"Ġáīłáī°áĬķ":10333,"ĠáĬ¥áĬķáī°áĬ¸":10334,"ĠáĬ¨áĪ°áī°":10335,"ĠáĪµáĪįáĬª":10336,"áĪ®áĬķáĬķ":10337,"Ġáīłáĭ²":10338,"ĠáĮ¸áĪĵáįį":10339,"áĬ¢áĪįáĬ«":10340,"áīħáĬĵ":10341,"ĠáĭĿáĬĲáīłáĪ¨áĬĴ":10342,"áĪŃáĭµáĭ®áĪĭ":10343,"ĠáĭĪáĪĪáĭµáĬķ":10344,"ĠáĪĿáĪħáĪĭáĭĪáĬķ":10345,"ĠáĬĶáĪ®áĪĿ":10346,"ĠáĮ¥áĪªáīµáĬķ":10347,"ĠáĪĵáī²áī°":10348,"ĠáĬ£áīļ":10349,"ĠáīĲáĭŃáĪķ":10350,"ĠáĬ£áĭŃáĬĲáīłáĪŃ":10351,"ĠáĭµáĪŃáĬºáīµ":10352,"ĠáĪ°áĬªáĭĲáīµ":10353,"ĠáĪĿáĪµáī³áĭŃ":10354,"ĠáĪĥáĭ²":10355,"ĠáĬ¨áī°áĪĽáī³áīµáĬķ":10356,"Ġáī°áĪ°áĪļ":10357,"áĬķáĪµáĬº":10358,"ĠáĮįáĭĻ":10359,"ĠáĬ¥áĬķáī°áĪĥáĪįáĭ©":10360,"ĠáĬŃáĬķáīĢáĪ³áīĲ":10361,"ĠáĪĵáĭŃáĪī":10362,"ĠáĭĺáĪĭáī¶":10363,"Ġ2003":10364,"ĠáīłáĪŃáīłáĪ¨":10365,"70":10366,"ĠáīĢáĭį":10367,"ĠáĬ¨áĪĿáĭĿáĪŃáĬ¨áī¥":10368,"áĬ¥áĬķáĭµ":10369,"ĠáĬ£áĭķáĪļ":10370,"Ġáī¥áĬ½áī¥áĪª":10371,"ĠáįįáĪįáĪµáĮ¥áĬ¤":10372,"ĠáīµáĪ°áĪŃáĪķ":10373,"ĠáįįáĬķ":10374,"Ġáī°áĭĪáĬª":10375,"Ġ2002":10376,"ĠáĭĺáīķáĪ¨áī¥":10377,"áĭ®áĪĥáĬķáĪµ":10378,"áĭ®áĭįáĪĥáĬķáĪµ":10379,"áĬ®áįķ":10380,"ĠáĪŀáĪ®":10381,"Ġáī³áī¦áīµ":10382,"ĠáĪ²áĪį":10383,"Ġáī«áĭŃáī³":10384,"ĠáĪĺáĭĽáĬĳ":10385,"ĠáĬ¤áĪªáī°áĪį":10386,"ĠáĬ£áĪ½":10387,"ĠáĭĿáīµáĬķ":10388,"ĠáĬŃáīµáĭį":10389,"ĠáĬ¨áĭŃáĭ³":10390,"ĠáīµáĭķáĮįáĪµáī²":10391,"ĠáĪµáĭįáĬ£áīµ":10392,"ĠáĪ°áĪĻ":10393,"ĠáĭµáĪĻ":10394,"áĭ±áĪŃ":10395,"ĠáĮĪáī¥áĪ¨áĭĿáĮĬ":10396,"ĠáĬŃáĬĲáī¥áĪ©":10397,"áįĪáĪįáĮ¦áĬķ":10398,"ĠáĪĪáī°áī¥áĪŃáĪĥáĬķ":10399,"Ġáī°áĬķáĪ²áĬ¡":10400,"Ġáī¥áĮĭ":10401,"ĠáĪĺáĮĲáĭĵáĭĿ":10402,"áĪĭáī¥":10403,"ĠáĪ°áĪĵáīķ":10404,"áĪħáĭ°áīµ":10405,"áĪ½áī±áĬķ":10406,"ĠáĭĺáĭŃáĪĿáĪµ":10407,"ĠáĪĥáī¥áī±":10408,"ĠáĪĥáĭĭáĪģ":10409,"áĪĪáĭĪáīµ":10410,"ĠáĪĵáĭ³áĪŃáĬķ":10411,"áĭĺáĪ«áĪ¨áī¥":10412,"ĠáĮĪáĮłáĪ«áīµ":10413,"ĠáĭĿáĭĽ":10414,"áĪ¨áĪ²":10415,"ĠáĬķáĭ¨áĪ±áĪµ":10416,"ĠáĬŃáĪ³áī°áįį":10417,"áĪİáĪª":10418,"ĠáĬ¥áĬķáī°áĬ£":10419,"ĠáĪĿáįįáĪįáĪĭáĭŃ":10420,"áĪ¨áĭµáĬ¦":10421,"ĠáĬ¨áĭįáĪĴ":10422,"Ġáī¥áĪĿáĭĿáĬ½áĬ»áĪŃ":10423,"ĠáĪŃáĪĴáīĳ":10424,"ĠáĭĿáĬ½áĬ¥áĪĭ":10425,"Ġáī¥áĬ»áĪį":10426,"ĠáīµáĪĿáĪħáĪŃáī³áĭĬ":10427,"ĠáĪĺáĮ¸áĭįáĭĴ":10428,"ĠáĭĺáīķáĪ¨áīł":10429,"áĪ°áĭ±":10430,"ĠáīĢáĭ³áĪĺ":10431,"ĠáĮĪáī¥áĪ¨áĬ£áī¥":10432,"ĠáĬ£áĪµáĪĺáĪ«áĬķ":10433,"ĠáĬ¥áĬķáĭµáĭĴ":10434,"áĭĿáĬĲáīµáĬķ":10435,"Ġáī°áĭĪáĮ¢":10436,"ĠáĮįáĪŃáĪĿ":10437,"áī¥áĪ¬":10438,"áĬĲáĬĴ":10439,"áĪħáĭ«áĭŃ":10440,"áĭĲáĭŃáī²":10441,"áĪįáĮłáĬĴ":10442,"ĠáĭŃáĬĲáī¥áĪ©":10443,"ĠáĭŃáįĪáĮ¥áĪŃ":10444,"ĠáĭĵáĭµáĬĵ":10445,"ĠáĬ£áĭŃáĪŃ":10446,"ĠáĬ¥áĬķáī°áĪĵ":10447,"Ġáĭķáĭįáīµ":10448,"ĠáīĢáĮ¸áĪĭ":10449,"Ġáĭ¨áĪĿ":10450,"ĠáĬŃáĬķáĪŃáĬ¢":10451,"áĪĺáĪ«áĪĺáĪŃáī²":10452,"ĠáīĪáĪ¨áĬķáī¶áĪµ":10453,"áĪħáĪīáĪį":10454,"Ġ02":10455,"ĠáĬ¥áĬķáĮįáĪĬáĭĿáĬĽ":10456,"ĠáĬŃáĭįáĭķáĪį":10457,"80":10458,"áī£áĮ¥":10459,"ĠáĬ¨áĭĺ":10460,"ĠáĭµáĪ«":10461,"ĠáĬ¥áĬķáī°áĬ¾áĬĳ":10462,"ĠáĬ«áī£áĬ»":10463,"ĠáīµáĮįáĪ«áĭŃ":10464,"áĪµáĬ¨":10465,"áĭĭáĭįáĭ«áĬķ":10466,"áĭ©áĬĵáĭŃáīµáĭµ":10467,"ĠáĬ®áĪµáī³":10468,"ĠáĪ¨áĭĺáĬĲ":10469,"ĠáĭĿáĭĪáĮ¹":10470,"ĠáĮĪáĭĿáĬ¡":10471,"Ġáī°áĬ¸áĪ²áī±":10472,"43":10473,"áī°áī£áī¥":10474,"áĪĥáĮ½":10475,"áĪŀáī°":10476,"Ġáī°áĪĵáĮĴ":10477,"ĠáįįáīµáĭĬ":10478,"Ġáī¥áĪĿáī¥áĮĭáĪµ":10479,"ĠáīµáĪŃáī¥áĭĴáīµ":10480,"Ġáī°áĮĪáĪĿ":10481,"Ġáī¥áĪĿáĮįáĬķáĭĽáī¥":10482,"ĠáĮ½áĭ®áĬķ":10483,"ĠáĭįáĭµáīĢáīµ":10484,"Ġáī°áĪµáįĭáĪįáĭ°áīµ":10485,"ĠáĪĥáĭŃáĪĪáĪĽáĪŃáĭ«áĪĿ":10486,"ĠáĬ£áīķáĪĳ":10487,"ĠáĬ¥áĪ±áĪ«áīµ":10488,"ĠáĬŃáĭĽáĭĺáĪĿ":10489,"áĪĽáĭĴ":10490,"áĮ½áĬ¦áĪĿ":10491,"ĠáĭįáĮ¥":10492,"ĠáĬ¨áĪĿáĭĿáĭĢáĬĲ":10493,"ĠáĭĿáī°áĪ°áĪĭ":10494,"ĠáĭįáĪ³áĬĲáī³áīµ":10495,"Ġáī°áĮłáīĴáĪĻ":10496,"Ġáī¥áĮ£áĭķ":10497,"ĠáĪĿáĪĤ":10498,"ĠáĪ°áįĬáĪ©":10499,"Ġáī£áĬŃáī°áĪŃáĭ«":10500,"ĠáĮłáĪļ":10501,"áīµáĪķáĭĿáī¶":10502,"ĠáĪĵáī°áī¶":10503,"ĠáĭĿáī°áĬ£áĪ³áĪ°":10504,"áĪĺáĪĵáĪĭáĪĪáįį":10505,"áĬķáĪķ":10506,"ĠáĭĿáįĭ":10507,"Ġáī¥áīĢ":10508,"ĠáĬŃáĪ¨áĬ½áī¦":10509,"áĮ½áĪĵ":10510,"áĬŃáĪ½áĬķ":10511,"ĠáĬ©áī£":10512,"Ġáī°áĪĺáĪ²":10513,"ĠáĪĭáī²áĬķ":10514,"ĠáĬ£áĭŃáīµáįĪáĪįáĮ¥áĬķ":10515,"áĪĿáī£áĪ³áĭ°áĪŃ":10516,"ĠáĭĿáĪ¨áĬ¸áī¥":10517,"ĠáĮ¥áįįáĬ£áīµ":10518,"ĠáĭĿáī°áĪ°áĪĽáĭĵáĬĵ":10519,"ĠáĬ£áĪĲ":10520,"áĪŃáįİ":10521,"ĠáĭĿáįĪáĪį":10522,"ĠáĬķáĮĭáĬķáī³":10523,"áĭ«áĭįáĬķ":10524,"ĠáĭŃáĭįáĪµáĬ½":10525,"ĠáĬ£áįįáĪªáīĥáĭįáĭ«áĬķ":10526,"ĠáĭĺáĬĲáĮ½áĪŃ":10527,"ĠáĪħáĭŃáĭĪáī³áĭįáĭ«áĬķ":10528,"ĠáĬ£áĪĺáĪĪáĬ»áĬ½áī³":10529,"ĠáĬ¨áĭ±":10530,"ĠáĬŃáĬ£áīµáĭī":10531,"áĭįáĭĵáī°":10532,"ĠáĭĺáīĲ":10533,"áįįáī°":10534,"áĬ©áī£áĬķáĭ«":10535,"áĪĻáĬĵáĬķ":10536,"ĠáĪĿáĭķáĭĭáīµ":10537,"Ġáī«áĪĪáĬķ":10538,"ĠáĪĺáī£áĬ¥":10539,"ĠáĭĿáĪµáĪ«áĭķ":10540,"áī³áĪĬ":10541,"ĠáĬķáĪİáĪļ":10542,"áĬ¸áĬķ":10543,"ĠáĭĿáĪĵáĪµáī¥":10544,"áĪĽáĭķáĪ¨":10545,"Ġáī¥áĪįáĭķáĪĬ":10546,"Ġáī¤áī°áĬŃáĪŃáĪµáīµáĭ«áĬķ":10547,"ĠáĪĵáī°áī³":10548,"áįįáĪįáĮłáī³áĭĬ":10549,"ĠáįĸáĪĪáī²áĬ«áĭįáĬķ":10550,"Ġáī°áīĲáĪļáĮ¡":10551,"ĠáĬķáĪĿáĪĿáĪķáĭ«áĪ½":10552,"ĠáĮ¸áĮ¸áĪ«áīµ":10553,"áĪĿáī³":10554,"ĠáĭĿáĮĢáĪĺáĪŃ":10555,"áĪĥáĭ±":10556,"ĠáĭķáĮ¸":10557,"áĭµáĪ«áĪĽ":10558,"áīĿáĪĸ":10559,"ĠáĪĺáĪ«áĪĴáīµ":10560,"ĠáĭĿáī°áĪ¨áįĭ":10561,"Ġáī¥áĪĦáĪ«áīµ":10562,"áĭĪáĮį":10563,"ĠáįĪáīµáĬķ":10564,"áĬ£áĬķáĪµáī°áĭŃáī²":10565,"ĠáĭĴáĪ«":10566,"ĠáĭŃáĮ¥áīĢáĪµ":10567,"Ġáī£áĬ¥áĪ²":10568,"²áį":10569,"ĠáĬ£áĪ«áĭĬáīµ":10570,"áĭĿáĭ«áĭ³":10571,"ĠáīµáĬª":10572,"áĬ¸áĪī":10573,"ĠáĪĿáĪĿáĪ«áĮ½":10574,"ĠáĪĺáĪĿáĪĥáĪª":10575,"ĠáĪķáī¥áĪ¨áī°áĪ°áī¥áĬķ":10576,"Ġáī°áĪĺáĬ²áĪ®":10577,"áĪ«áĪµáĬķ":10578,"áĭķáĪĪáīµ":10579,"áīħáĭ«áĪµ":10580,"ĠáĬ£áĪŃáĪĴ":10581,"ĠáĬ£áĭŃáĬ®áĬĲáīµáĬķ":10582,"ĠáĬŃáĭįáĪ°áĬķ":10583,"ĠáĪĥáī¥áī°áĪļáĬ«áĬ¤áĪį":10584,"ĠáĪĵáĪĺáĪįáĪĽáĪİ":10585,"ĠáĬķáĪŃáĬł":10586,"ĠáĪĵáĮĪ":10587,"áĬ¨áĬĵáīµ":10588,"áī¥áĪ®áĬķ":10589,"ĠáĭķáĬķáī£áī£":10590,"ĠáĬŃáĬ¾áĬĵ":10591,"ĠáĬĲáīķ":10592,"ĠáīłáĬĴ":10593,"ĠáīłáĭŃáĬķ":10594,"ĠáĬ£áĭŃáīł":10595,"ĠáīĢáĬĴ":10596,"ĠáĬķáĭĺáĪĪáĭī":10597,"Ġáī¥áĭ°áīĤáīķ":10598,"ĠáĭĿáī°áĪĺáĪĭáĪĪáĪµ":10599,"ĠáĬ£áĮ»áī¥áĭķ":10600,"ĠáįĸáĪŃáī±áĮĭ":10601,"ĠáĬŃáĬ¾áĬĲ":10602,"áĪĽáĪĥáĪ®":10603,"áĭ°áĭ¨":10604,"ĠáĭĿáī°áĪŃáįį":10605,"ĠáĪĵáīłáĪ¬áī³áī³áīµ":10606,"ĠáĬ£áįįáĪªáīĥáĭĬ":10607,"ĠáĪĿáīģáĪ«áĮ½":10608,"ĠáĪĿáĬŃáĭ«":10609,"ĠáĬ¨áĪ¨áĮĭáĮį":10610,"Ġáĭ°áĪŃáī¥":10611,"áī±áĬĵ":10612,"ĠáĬ£áĪµáĪļ":10613,"Ġ49":10614,"ĠáīµáĪķáĭĿ":10615,"áĬ¢áīµáĭ®":10616,"ĠáĪĤáĭĪáī±":10617,"ĠáĪµáĪĪáĭĺáĭŃáī¥áĪī":10618,"ĠáĪĺáīµáĪĵáĭļ":10619,"áĬ¥áĬķáīĭáĭķ":10620,"áīµáĬĵáĬķ":10621,"ĠáĮĪáĭ«":10622,"áĭ®áĬĵ":10623,"áĭĽáĮĬáīµ":10624,"ĠáįĬáĭ°áĪį":10625,"Ġáī¥áī°áĬ¸":10626,"ĠáĪĿáĪ³áĪķ":10627,"Ġáī¥áĮ¸áĮĭ":10628,"ĠáĮ³áĮ³":10629,"ĠáĪĶ":10630,"ĠáĪµáīķáī³":10631,"ĠáįķáĪ®áįĮáĪ°áĪŃ":10632,"ĠáĪĺáĪĥáĬķ":10633,"áĪĺáĪ³":10634,"áĮ¥áĪĽ":10635,"Ġáĭ°áĪĪáĭ¨":10636,"Ġáī¥áĭĺáĭŃáī°":10637,"Ġáĭ°áĮĭáĮĬáĪĻ":10638,"áĪĺáĪ¨áīµ":10639,"ĠáĬŃáĭĪáĭ³áĭ°áĪŃ":10640,"áĭĭáĪª":10641,"ĠáīµáīłáĪĥáĪį":10642,"ĠáĬĲáī¥áĪµáĬĵ":10643,"ĠáĭĿáĪ¨áĬ¸áī¦":10644,"áī¥áĬ£áĬķáĮ»áĪ©":10645,"ĠáĭĿáĮĵ":10646,"ĠáĭĵáĪĿáīłáĪŃ":10647,"áĮ»áĭĬ":10648,"ĠáĬŃáī¥áĪĥáĪį":10649,"ĠáĬ¢áĮ£áĪįáĭ«áĭĬ":10650,"ĠáĮĲáĭŃáī³áĬĵ":10651,"áĮ¸áĬ¦":10652,"ĠáĭĺáĭŃáĬ¨áĭįáĬķ":10653,"ĠáīĢáĪĭ":10654,"ĠáĬ¨áĪĿáĭĿáĭĪ":10655,"ĠáĭĿáĪĺáĪĵáĪĭáĪĪ":10656,"ĠáĪĿáĭįáĪ³áĬ½":10657,"ĠáĮĢáĪĺáĪŃáĬ©":10658,"áĬ¨áĬķ":10659,"áĪĥáĪ¨":10660,"áĮłáĮ¥":10661,"ĠáĭĿáĪħáī¡":10662,"ĠáĪĺáĭķáĪĪ":10663,"ĠáĭŃáĪģáĭ³áĬķ":10664,"áĪįáĭĲ":10665,"áĭįáī³áĪŃ":10666,"ĠáĬĲáĬĵáī¥":10667,"áī£áī¥áĪ«":10668,"ĠáĬ¨áī¥áīħáĭķ":10669,"Ġáī¥áĭ¨áĪĽ":10670,"ĠáīµáĭĽáĪ¨áī¥":10671,"ĠáĬ£áĪİáĬ«":10672,"Ġ54":10673,"Ġáī¥áĮĪáĬķáĭĺáī¥":10674,"áĭįáĮ½áĭĭ":10675,"áįįáĮłáĪŃ":10676,"ĠáĪµáĪļ":10677,"áĪ©áĮį":10678,"ĠáĮĪáĭĽáĬ¥áī²":10679,"ĠáĬķáĪĵáĭ«áĪİ":10680,"Ġáĭĳáīķáī£áĪļáĬ«áĬ¤áĪį":10681,"áĭĥáĪĭ":10682,"ĠáĬķáĭĿáĪŃáĬ¨áī¡":10683,"Ġáī¶áĬķ":10684,"ĠáĬ£áĪķáĭĭáī±":10685,"ĠáĪĿáĪįáĪĭáĭŃ":10686,"Ġáĭķáī¥áĭ¨áīµáĬķ":10687,"ĠáĪĤáĭĪáī¶áĪĿ":10688,"ĠáĮĢáĪ«áĭ²áĬķ":10689,"ĠáĪĿáī¥áĪŃ":10690,"ĠáīµáĮ½áīł":10691,"áį£áį£":10692,"ĠáĭķáĪ¸":10693,"áĬ®áī³":10694,"ĠáĭĿáĮįáĪĺáīµ":10695,"ĠáĬ¦áĪįáĭµ":10696,"ĠáĭĿáīłáĭĿáĪĵ":10697,"Ġáĭĺáī°áĬ®":10698,"áĮ»áĮ¸áĪŃ":10699,"ĠáĪĺáĭĿáĬĲáīµ":10700,"ĠáĭĿáīĿ":10701,"ĠáĪ°áĪĭáĪĽ":10702,"áĭħáĪª":10703,"áī¥áĭĿáĬ¾áĬĲ":10704,"áĪĪáĭįáī²":10705,"ĠáĬķáīłáĪį":10706,"ĠáĭĺáĬłáĬķ":10707,"ĠáĭĿáī°áĮĭ":10708,"áī¥áĪŃáī±áĭķ":10709,"Ġáĭŀáī£áī³áīµáĬķ":10710,"ĠáĬ¥áīµáĭ°áĪĬ":10711,"áĪŃáĮĭáĬķ":10712,"ĠáĬ£áī°áĬ©áĪ®":10713,"ĠáĬŃáĬ¸áĭ±":10714,"áĬŃáĬ¢áĪĭáī³áīµ":10715,"ĠáĭĿáĬ£áīµ":10716,"áĬ¥áĬķáĪµáĪ³":10717,"ĠáĬ£áĭŃáĬĲáīłáĪ¨áīµáĬķ":10718,"Ġáī¥áĮĪáĪĿáĮĭáĪĿ":10719,"áĮ¸áĪŃáī²":10720,"áĮ¹áĬ¥":10721,"ĠáĭĵáĭŃáĬĵ":10722,"ĠáĬķáĬ£áĭŃ":10723,"Ġáī¥áĭĿáīĲ":10724,"ĠáĬ£áįįáīĤ":10725,"Ġáī£áĪħáĪŃáĭŃ":10726,"ĠáĬ¦áĪŃáī¶áĭ¶":10727,"ĠáĬ£áĭŃáī°áĪ«áĬ¥":10728,"ĠáĬŃáĭĪáĪŃáĭµ":10729,"ĠáĪµáĬ¥áĪįáī³áīµ":10730,"áīłáĬ©áĪĿ":10731,"áī£áĪįáĬķ":10732,"ĠáĭĿáĪĺáĪ¨":10733,"ĠáĪĽáĬķáĬ«":10734,"Ġáĭĳáīķáī£áĭŃ":10735,"ĠáĪł":10736,"ĠáĬ¨áĬķáī±":10737,"áįįáĪ©":10738,"áĪ°áīµáĬķ":10739,"ĠáĬŃáīµáĪĵ":10740,"áĮ¢áĬķ":10741,"áĮ¶áĪµ":10742,"ĠáĮĪáī¥áĪŃáĪĤáĭĪáīµ":10743,"Ġáī°áĭĭáĪ³áĬ¥áī²":10744,"ĠáĮĪáĪĭáĭī":10745,"ĠáĬ£áīłáĪ«":10746,"áĬ£áī£áĪį":10747,"ĠáĬŃáīµáīłáĮ½áĪķ":10748,"ĠáĬ£áĭĴáĬķáī°áĭŃ":10749,"ĠáīĽáĬķáīĭ":10750,"ĠáĭĿáĮįáī£":10751,"ĠáĮĪáįĬáĪķ":10752,"ĠáĪĿáĪµáĪ«áĭĿ":10753,"ĠáĭĺáĭŃáī°áĪŃáįį":10754,"áĬłáĬķáĬķ":10755,"Ġáī¥áĬ£áĪŃ":10756,"ĠáĪĥáĭŃáĪī":10757,"ĠáĪ©áĬĴ":10758,"ĠáĬ£áīµáĪĴáĭŀáĪĿ":10759,"ĠáĪĨáĪµáįĴáī³":10760,"ĠáĮ¥áīłáīłáĬĽ":10761,"ĠáĬķáĪĿáĮįáī³áĬ¥":10762,"áĬŃáĪ®áĬķ":10763,"áĭĺáĪį":10764,"Ġáĭ°áĬº":10765,"áĭĽáĭķ":10766,"áĪ½áī°áĭŃ":10767,"ĠáĪħáī¦":10768,"Ġáī°áĬ¸áī³áī²":10769,"ĠáĪįáĪĿáĭµáĬķ":10770,"ĠáĬ£áĪ¨áįĭáĭŃáĬĲ":10771,"ĠáĪĺáĪĪáĪ°áĪī":10772,"ĠáĪĺáĪĥáĭŃáĪĿáĬĲáīµ":10773,"Ġáī¥áī¤áīµ":10774,"áĬ¥áĭ©":10775,"áĭĺáĭŃáī°":10776,"ĠáĬ£áĪµáĮĪáĭ¶áĪĿ":10777,"Ġáī°áĪĵáī³áīµ":10778,"ĠáĬ£áīĲáĭ²áĪĿáĬ«":10779,"áīµáĬ«áĬ¥":10780,"áīłáĮĥ":10781,"áįĪáīķ":10782,"ĠáĭĿáīłáĮ»áĪķ":10783,"Ġáī³áĬŃáĪ²":10784,"ĠáĬ£áĭŃáĬ°áĬĲáīµáĬķ":10785,"ĠáĪ±áĪįáĮ£áĬķ":10786,"ĠáĬķáĪĿáĭķáīĥáī¥":10787,"ĠáĬ¨áĪ¨áĮĭáĮįáĮ½":10788,"áįįáįį":10789,"áīķáĪĪ":10790,"ĠáĪİáĪĿ":10791,"ĠáīĪáĪĭáĪķáī³":10792,"ĠáĬ£áĬ½áī¥áĪ®áīµ":10793,"ĠáĭĿáĪ¨áĬ¸áī¥áĬĵáĭ®":10794,"áĪ«áĪħ":10795,"Ġáī³áĪħ":10796,"ĠáįĭáĭŃ":10797,"áĪįáįįáī³áīµ":10798,"áĬĲáī³áĭįáĭ«áĬķ":10799,"Ġ1994":10800,"ĠáĭĿáĪ°áĪŃáĪĵ":10801,"Ġáī³áĬķáĬŃáī³áīµ":10802,"ĠáĬķáĮįáĭľáĬ¡":10803,"44":10804,"ĠáĭĿáĪ¨áĬŃáī¥":10805,"ĠáĪĿáĪŃáĭµáĭ³áĬ¥":10806,"ĠáįĭáĬŃáĪµ":10807,"áĪĿáĪĭ":10808,"Ġáĭįáįī":10809,"áįĭáĭį":10810,"ĠáĬķáĪĿáĬŃáĭ«áĭµ":10811,"áĬ«áĭ¨áĭ°":10812,"ĠáĪĿáĪŃáī£áĪķ":10813,"ĠáĭĪáĪĪáĭ°áĭŃ":10814,"Ġáĭ©áĬĴáī¨áĪŃáĪµáī²":10815,"ĠáīµáĪµáįī":10816,"áĪĿáīłáĬ£áĪŃ":10817,"áĮįáĮ¥áĪĿ":10818,"ĠáĪ³áĬ¦áĪį":10819,"áĬŃáĪŃáĪµáī²áĭ«áĬķ":10820,"Ġáī°áĬ½áĪī":10821,"ĠáĪĵáĪŃáīłáĬĽ":10822,"ĠáĮīáĪįáīłáīµ":10823,"ĠáĪĵáĪ³áī¡":10824,"ĠáĭĪáĪĭáĭ²áĬĵ":10825,"ĠáĭĿáĬ£áī°áĭī":10826,"ĠáĬ£áĪĺáĭĿáĮĬáī£":10827,"Ġáī¥áī¥áĭĻáĪĵáīµ":10828,"áĪŃáĬ¥áĭ¨":10829,"ĠáĬ¤áĪĪáĬŃáīµáĪª":10830,"ĠáĬŃáĭĪáĪµáĭ±":10831,"áĭķáĪŃáįį":10832,"ĠáĪĬáĭ®áĬĲáĪį":10833,"52":10834,"ĠáĮįáĭľáĬ¦áĪĿ":10835,"ĠáĬ¸áĪĿáĬ¡":10836,"ĠáĭĢáĭŃáĬĸáĪĿ":10837,"ĠáĪĦáĭĭáĬķ":10838,"ĠáĪĽáĪķáīłáĪ«áĭįáĬķ":10839,"ĠáĪµáĭĬáĭĺáĪŃáĪĭáĬķáĭµ":10840,"áĪĺáĪĥáĪŃ":10841,"ĠáĬŃáīĥ":10842,"Ġáĭįáĭ±":10843,"ĠáĬŃáĬķáĬ¨áĭŃáĭµ":10844,"áĬ£áĭŃáĭİ":10845,"ĠáĬ¥áĬķáĪµáĪ³áī³áīµáĬķ":10846,"áĮ»áĭĪáīµáī²":10847,"ĠáīµáĬķáī¢áīµ":10848,"ĠáĬ£áīĢáĪ«áĪŃáī£":10849,"ĠáĬ£áĮĪáĪįáĮĪáĪįáī²":10850,"ĠáĪĺáĪįáīĢ":10851,"ĠáĭĺáĮłáĪ«áĮ¥áĪŃ":10852,"áĪ°áĬķáĬķ":10853,"ĠáĮĪáī¥áĪª":10854,"Ġ2001":10855,"Ġáī°áĭ°áĬ²":10856,"ĠáĬ£áī°áĪĵáĪ³áĪµ":10857,"ĠáĬķáĬĲáī¥áĪ±":10858,"ĠáĬ£áĮ¥áįĬ":10859,"ĠáīĢáī¢áĪĭ":10860,"áĭµáĪ©":10861,"ĠáĪĺáĪįáĪµ":10862,"ĠáĪ³áĭįáĭĿ":10863,"ĠáĪĺáĪµáĬ®áīµ":10864,"áĪįáĬ¥áĭİ":10865,"áĪħáĭĿáī£áĭĬ":10866,"áĪĭáī¡":10867,"áĬ«áĬĴ":10868,"áĬ¾áĬķ":10869,"ĠáĪĺáĬķáĮįáĪµáī°":10870,"ĠáĪ²áĬĵáĭŃ":10871,"Ġáī¥áīĲáĪµ":10872,"áĪħáĪįáĭİáĪĿ":10873,"Ġáī°áĭĭáįĬáĪ®áĪĿ":10874,"ĠáĮĪáĬķáĭĺáī£áĭĬ":10875,"ĠáĬ£áĪ¨áĮĭáĮĪáĮ¸":10876,"ĠáĪĿáīµáĬķ":10877,"áĮĪáĪī":10878,"áįįáĮ¹áĪĿ":10879,"ĠáĭįáĪįáīĤ":10880,"Ġáīłáī¥áĪĵáĭ°":10881,"ĠáĪĿáĪ«":10882,"ĠáĬ¨áīłáĪ®":10883,"ĠáĬ©áĬķ":10884,"ĠáĬ©áĪŃ":10885,"ĠáĮĪáī¥áĪ¨áĬŃáĪŃáĪµáī¶áĪµ":10886,"ĠáĭĿáīĲáĪŃ":10887,"Ġáī°áĭĵáĭĭáī²áīµ":10888,"áĭĽáĪĽáĭ²":10889,"Ġ47":10890,"ĠáĭĿáĪķáī°áīµ":10891,"ĠáĭĿáĬ½áĪ°áīµ":10892,"Ġáī¥áĬ¥áī°":10893,"ĠáĭŃáĭĽáĪ¨áī¡":10894,"Ġ58":10895,"Ġáĭ²áĮĭáī³áīµ":10896,"ĠáĮ¨áī¢":10897,"áĮįáĬķáĭĺáī¥":10898,"ĠáĭĺáĬ«áĪŃáĭ«áĪµ":10899,"ĠáĬķáĮ½áĪį":10900,"áĭ°áĪ«áĬķ":10901,"ĠáĬ¨áĭŃáĪĵ":10902,"Ġáī¥áĬ£áĬķ":10903,"Ġ1250":10904,"ĠáĬ»áī£":10905,"ĠáĪķáĪŃáĭŃáī²":10906,"ĠáĭĿáĮ¸áĬĵáĪķ":10907,"ĠáĪĵáĪ²áīł":10908,"ĠáĮ¢áĪŀ":10909,"ĠáīµáĬķáĪ³áĬ¤":10910,"ĠáĭĭáĪįáī³":10911,"ĠáĪįáĭķáĪĬáĬ£":10912,"ĠáĮĲáĪį":10913,"ĠáĬ¥áĬĵáī°áĬ¸":10914,"Ġ85":10915,"ĠáĬ£áīķáĪ¨áīł":10916,"ĠáĬ£áĪĿáĪĭáĬ½áĬķ":10917,"ĠáĪĵáī¥áī°áĭŃ":10918,"áĬ¢áīµáĭ®áĮµ":10919,"áī¥áĭĵáĪį":10920,"áĬ¥áĪĿáīłáĪŃ":10921,"áĭĿáĭİ":10922,"ĠáĭĪáīĴ":10923,"áĪħáĪīáĬķ":10924,"ĠáĭĵáĪļáīļ":10925,"ĠáĪĿáĭīáī³áīµ":10926,"ĠáĬķáĬ£áĪŃáī£áĭķáī°":10927,"ĠáĪĥáī¥áī³áĪĽáīµ":10928,"áĮ²":10929,"Ġáī¥áĪ«áĬ¸":10930,"ĠáĬķáĮĭ":10931,"áĬ«áĪĭ":10932,"ĠáĭĪáįį":10933,"áĮ»áĪ¨":10934,"ĠáĪļáĪįáĬŃáĭ«áĪµ":10935,"áīłáĪĪáĬĴ":10936,"ĠáįįáīķáĪªáĬķ":10937,"ĠáĮĬáĪĭ":10938,"áī°áĭ¨":10939,"áĪŀáĬĵ":10940,"ĠáĪħáĭį":10941,"áĪŃáĬ¨áĪµ":10942,"áĭĭáĬķáĪ²":10943,"Ġáīłáĭĵáī²":10944,"ĠáĬ¥áī¥áĪĪáĬ©áĪĿ":10945,"ĠáĬ¨áĬł":10946,"áĭ°áī¡áī¥":10947,"ĠáĭĺáĭŃáī°áĪĵ":10948,"áīĥáĭµáĪŃ":10949,"áĪ»áī¥":10950,"ĠáĪ«áĬ¢":10951,"ĠáĬ«áĪŃáī±áĬķ":10952,"Ġáī°áĪĺáĪµáĪªáī±":10953,"ĠáĭŃáĬ¸áĭ±":10954,"ĠáĪĺáĪ°áĬĵáĭµáĬ¦":10955,"ĠáĪ°áĮĪáĬĲáĭŃáī²":10956,"ĠáĪĿáī¥áĪĭáĭķ":10957,"ĠáįĪáĪĬáĮ¡":10958,"ĠáĪĿáĬ½áĬ£áĪī":10959,"Ġáī°áĮ»áĭĪáīµáī³":10960,"áī°áī±":10961,"Ġáĭ¨áĬ«áĭŃáĭ±":10962,"áĪµáīµáĭ«áīµ":10963,"ĠáĬªáĪĿ":10964,"áīłáĪįáĬ©áĪĿ":10965,"ĠáĬ¨áī°áĬ«áĭŃáĭµ":10966,"ĠáĪĿáĬķáīħáĮ¥áīĥáĮ¥":10967,"ĠáĬ¥áī°áĮĪáī¥áĪ¨":10968,"ĠáĭĿáĮĪáī¥áĪ¨":10969,"ĠáĭĿáĪĿáĪĪáĪµ":10970,"ĠáĬ£áĭķáĪª":10971,"ĠáĪĵáĪŃáĬĲáī³áĭĬ":10972,"ĠáĭĺáĪŃáĬ¡":10973,"ĠáĭĿáĮŃ":10974,"áĬ£áĬķáī²":10975,"áĮįáĬĵáĬķ":10976,"áĮ¸áĪĺáĪī":10977,"áįĭáĬ¤áĪį":10978,"ĠáĮĪáĭĽáĬ¡":10979,"Ġáī°áįĪáĪĭáĪį":10980,"Ġ250":10981,"áī³áī³áĪĬáīµ":10982,"ĠáĭķáĪĭáĪĽáĬķ":10983,"ĠáĪĥáĮĵáįį":10984,"ĠáĬĲáĮº":10985,"áīĵáīķáī²":10986,"áĮ¢áĮ¡":10987,"Ġáī¥áĬ¸áī¢áĭµ":10988,"áĬµáĪİáĪĿ":10989,"ĠáĭĺáĪŃáĬ£áĭ¨":10990,"Ġáī°áĭĪáįĭáĭŃáĬĲáīµ":10991,"02":10992,"ĠáĬŃáĮł":10993,"Ġáī°áĪĥáĭµ":10994,"áĪ±áĪī":10995,"ĠáĪĪáĪļ":10996,"ĠáĪĿáĪķáĪĭ":10997,"ĠáĭĿáįĪáĮ¥áĪ¨":10998,"ĠáĪ°áĪļáĭĳ":10999,"ĠáĪķáĭĽáĬ¥áī²":11000,"áĬ®áĬĳ":11001,"ĠáĪķáĪĽáĪĽ":11002,"ĠáĪµáĭµáĪ«áī¤áīµáĬķ":11003,"ĠáĭĿáīĸáĪĺ":11004,"ĠáĪĥáĪįáĬª":11005,"áĪĻáĭİ":11006,"ĠáĪħáĭµáĬ¥":11007,"ĠáĬ£áĬķáĮ»":11008,"Ġáī°áĪµáįĭáĮĭáī¥áĪŃ":11009,"ĠáĬ£áįįáĮĭáĬĴáĪµáī³áĬķ":11010,"áĪĿáĬ¥áĬķáī²":11011,"áī¥áī°áĪĺáĪ³áĪ³áĪĬ":11012,"áĪµáĭį":11013,"áĪĺáĭĵáĪįáī²":11014,"Ġáī°áĬ¾":11015,"áĪ°áī²":11016,"ĠáĪ°áĬķáī²":11017,"ĠáĪ³áĬķáī²":11018,"ĠáĭįáĪ½áĮ¥áĬĵ":11019,"ĠáĬķáĬ¥áĪµáĪ«áĬ¤áĪį":11020,"ĠáĬŃáĬĲáĪ±":11021,"ĠáĮ½áĪŃáĮįáĭ«áī³áīµ":11022,"ĠáĪĽáĬ¥áī¶áī³áĭĬ":11023,"áī°áĬ«":11024,"ĠáĬķáĪĥáĮĪáĪŃ":11025,"ĠáĬŃáĮĪáĭµ":11026,"áĪĻáĭĿ":11027,"áĮłáĬķáīħ":11028,"ĠáĬ¦áĬŃáĪµ":11029,"ĠáĬŃáĪķáĭŃáĪį":11030,"ĠáĬ£áīĢáī£áī¥áĪĭ":11031,"ĠáĬ£áĭįáĭ²áīķáĬ«":11032,"ĠáĪĺáĪµáĭĭáĬ¥áīµáĬķ":11033,"áīĭáĬķ":11034,"ĠáĬŃáĪĽ":11035,"ĠáĭĺáĬ¥áī±":11036,"áĮ¥áĭİ":11037,"ĠáĪļáĪµáī°áĪŃ":11038,"ĠáĭĿáī°áĪ°áĮĭáĮĪáĪ¨":11039,"ĠáīµáĪĿáĬĴ":11040,"áĭįáĭķáĪī":11041,"áĭµáĪķáĪŃáĭļ":11042,"áĬ£áīĲáĭ²":11043,"ĠáĮłáīĵáĪļ":11044,"ĠáĬ¨áĪĽáĭŃ":11045,"ĠáĬŃáĮŃ":11046,"áįĪáįįáī²":11047,"ĠáĭĿáĮįáīłáĪ¨áĪī":11048,"ĠáĬ£áĪµáĪĺáĪĭáĪ½":11049,"Ġáī°áĬ¸áĪĭáĬ»áĪĭáĭŃ":11050,"ĠáĬ©áĬĲáī³áīµáĬķ":11051,"Ġáī¥áĮİ":11052,"áĪĺáĭ²":11053,"áĪ«áī®":11054,"áĮįáĮ¥":11055,"áĪļáĬªáĬ¤áĪį":11056,"ĠáĮ¸áĪĿ":11057,"ĠáĮ¸áī£áĬķ":11058,"ĠáĬķáĭĵáĮ¹":11059,"áīµáĭ©áīµ":11060,"ĠáĭĺáīłáĬķ":11061,"áĭ³áĭµáĬĵ":11062,"ĠáĭŃáĪĥáĪį":11063,"ĠáĭĵáĮº":11064,"ĠáĪ½áīķáĪĪáīµ":11065,"ĠáĬ£áĭµáĪį":11066,"áīłáĭŃáĬķ":11067,"ĠáĬ¥áĬķáĮĪáī¥áĪ®":11068,"ĠáĬ£áĭŃáī¥áĪįáĬķ":11069,"Ġáī¦áī³áī³áīµáĬķ":11070,"ĠáĪ¶áĪĽáĪį":11071,"ĠáĪ°áĪĿáĭĲ":11072,"ĠáĬķáĪĺáĬķáĬ¥áĪ°áĭ«áīµ":11073,"ĠáĪŀáī±":11074,"ĠáĭĿáĭ°áįį":11075,"Ġáī°áĪ«áĬ¥áĭ®áĪĿ":11076,"ĠáĪŀáĭŃáī¶áĪĿ":11077,"áĬ¥áĬķáī°áĭĺáĭŃáīĢáĪª":11078,"áīłáīĥ":11079,"ĠáĬĵáī¶áĪĿ":11080,"ĠáĬ¨áĪĿáĭĿáĬ½áĬ¥áĪī":11081,"áĪŃáĬĵáįį":11082,"ĠáĭĿáĪ°áĬ£":11083,"ĠáĪķáī¥áĪ¨áī°áĪ°áī¥áĬĵ":11084,"áĪĺáĪįáĬŃáīµ":11085,"áĪŃáĪŀ":11086,"áĮįáĪĪ":11087,"áĬ«áĪķ":11088,"áĪ½áī°áĬķ":11089,"Ġáĭ³áĪħáĪĭ":11090,"áįķáĪĬáĬķ":11091,"Ġáī°áīĲáĪĭáĮ¢":11092,"Ġáī°áĮĪáĭ³áĪµ":11093,"ĠáĪµáĪįáĮłáĬĵáĬķ":11094,"ĠáĭĪáĪĭáĭ²áī±":11095,"ĠáĪµáĪĴáī¡":11096,"ĠáĮ¸áĮķáĪª":11097,"ĠáĪĭáĬķ":11098,"áĪĺáĭ³":11099,"áĭ°áĮĬ":11100,"ĠáĬ¢áĭ°":11101,"ĠáĪĥáĪĿ":11102,"ĠáīħáĪįáĮ¥áįį":11103,"ĠáĬŃáīµáĮįáīłáĪŃ":11104,"ĠáĬķáĪĿáĪĿáĮ»áĬ¥":11105,"ĠáĪĺáĪĿáĭĺáĬĴ":11106,"ĠáĮįáĭµáĪį":11107,"áĪĮáĪĽáĬķ":11108,"ĠáĭµáĪĿáĮ¹":11109,"áįįáīħáĪ«":11110,"ĠáįĪáĮºáĪĺ":11111,"ĠáĭĿáīłáĮ½áĪĲ":11112,"ĠáįįáīµáĪķáĬķ":11113,"ĠáĪ¾áī¥áĭĵáī°":11114,"ĠáĭįáĮīáĬ£áīµ":11115,"ĠáĪ¼":11116,"áĬ¥áĬª":11117,"áĪ©áĬĵ":11118,"ĠáĭįáĪħáī¥áī¶":11119,"ĠáĪµáĪĪáĭĿáĬ½áĬ¥áĪį":11120,"áĪĭáīµáĬ©áĪĿ":11121,"Ġáī¥áĪŃáĬ½áī²":11122,"áī¥áĭĿáī°":11123,"áĪĽáī¶áĪĿ":11124,"ĠáĬ¨áĪĿáīµ":11125,"ĠáĪ°áĬĴ":11126,"ĠáĪķáĭĿ":11127,"Ġáĭļáī¥áĪĥáĪį":11128,"Ġáī°áĭĪáĪĥáĪĤ":11129,"ĠáĪĺáĭĵáĪ¾":11130,"ĠáĭĺáįįáīĢ":11131,"7749":11132,"áĬ£áĭįáīµ":11133,"ĠáĬ¤áįĮ":11134,"ĠáĬ®áĪ®áĬĵ":11135,"ĠáĪĿáĪĿáĮĭáī¥":11136,"Ġáī¥áĭĵáĪįáī²":11137,"Ġáī°áĭĤ":11138,"Ġáīµáī¥áĪĪáĬĴ":11139,"áĪļáĪį":11140,"ĠáĪ²áĬķáĮĭ":11141,"ĠáīĢáĬķáĭ©":11142,"Ġáī°áĮĪáĭ²áĭ±":11143,"áī°áĮ«":11144,"áīłáĮł":11145,"ĠáīłáīµáĪª":11146,"ĠáĬŃáīµáĬŃ":11147,"ĠáĬ£áĬ½áĪĭáī£áīµ":11148,"ĠáįĪáĮºáĪĽ":11149,"ĠáĭĿáĪĺáĪŃáĪķ":11150,"ĠáĪĽáĪĪáī°áĭŃ":11151,"áīłáĭ³":11152,"ĠáĪĺáĬ»":11153,"áĬ¨áĬĵáĬ¸":11154,"Ġáī¥áĪµáĪĺáĭŃ":11155,"Ġáī°áįĪáĪª":11156,"ĠáĬķáĮ¥áįĪáī³áī¶áĪĿ":11157,"áĪĪáĬ»áĪī":11158,"ĠáĬķáĪĺáĬķáĮįáĪµáī²":11159,"ĠáįĪáĪ¨áīĵáĬķ":11160,"áĬ¢áĪĭ":11161,"áīĨáĪĿáĬķ":11162,"ĠáĬ£áĭĺáĬ»áĬºáĪ®áĪĿ":11163,"ĠáĭĿáĬ«áĭ¨áĭ±":11164,"áĪŃáĪŀáĬķ":11165,"Ġáī¥áīĿ":11166,"áĭĵáĪ°áĪŃáī°":11167,"ĠáĮĪáĭ³áĭŃ":11168,"ĠáĬķáĭĿáĪŃáĬ¨áī¥":11169,"ĠáĪĵáĪĪáĭįáī²":11170,"ĠáĪĪáīłáĭ³":11171,"ĠáĭĭáĪŃáĪ³áĭŃ":11172,"áĭµáĬĵáĬķ":11173,"ĠáĬķáĪŀáīµ":11174,"Ġáĭ°áĪĬ":11175,"áĮĪáĪŃáĪĺáĬ«":11176,"áĪįáĬŃáĬķ":11177,"Ġáī°áĮ»áĪĴáįī":11178,"ĠáĮ»áĭµáīķ":11179,"Ġáĭ´áīªáĭµ":11180,"ĠáĪĿáĪµáĭļ":11181,"ĠáĭĿáī°áĮ¸áĬķ":11182,"ĠáĮ¸áĪĥáĭŃ":11183,"ĠáĬ©áĬķáī³áĪį":11184,"áĪŃáĬ¥áĭ®áĬķ":11185,"Ġáī°áĭ°áĪª":11186,"Ġáī¥áĮ¾áīµ":11187,"Ġáī°áĪĺáĪĬáĪ°":11188,"Ġ125013":11189,"áįĢ":11190,"áīłáĮ½áĪĳ":11191,"Ġáī°áīłáĪĭ":11192,"áĬ¨áĪī":11193,"áīłáĪŃáĬª":11194,"ĠáĪįáĮįáĪ²":11195,"ĠáĬķáĪĿáĭįáĮĭáĭµ":11196,"ĠáĭĵáĭĪáīµáĬķ":11197,"ĠáĬ£áĮĪáĭ³áĪµáĬĲáī±":11198,"áĪµáī°áĪĽáīķáĪŃ":11199,"áĬ£áĮĪáĪįáĮįáĪİáīµ":11200,"áĮįáĪ³":11201,"ĠáĬ¤áĪµ":11202,"ĠáĬ¥áĬĵáĬ¾áĬĲ":11203,"ĠáĪĺáĪŃáĪĵ":11204,"ĠáĭĪáĪ²áĬĳ":11205,"ĠáĭµáĪĮáīµáĬķ":11206,"ĠáĭĺáĪ¨áĭµáĬ¥":11207,"ĠáĬ«áĪħáĬķ":11208,"áīģáĪŃ":11209,"ĠáĭĿáĪĥáīł":11210,"ĠáĬ£áīłáĪŃáĬŃáī¶áĬķ":11211,"ĠáĪĿáĬĵáĪ´":11212,"áī°áĪĭ":11213,"ĠáĭŃáĮ»áĭĪáīµ":11214,"áĭ©áĬĵ":11215,"ĠáĭĿáī°áĪĽ":11216,"ĠáĭįáĪĴ":11217,"áī¦áĭŃ":11218,"ĠáĪįáĪ³áĬķ":11219,"ĠáĬ£áĪŃáī£":11220,"áī¥áĪ«áĬ½":11221,"áĪŃáĬĵáĭ®":11222,"ĠáĬŃáĪµáĭķáī¥":11223,"Ġáī°áĭµáĪĭ":11224,"áī¥áĪŃáĭİ":11225,"áĪµáī²áīµáĭ©áīµ":11226,"ĠáĭľáĮį":11227,"Ġ1284":11228,"ĠáĬ¨áĪĿáĭĺáĭŃáĬŃáĬ¥áĪį":11229,"ĠáĪĵáĮĪáĭĿáī²":11230,"áĪĪáĬ©áĪĿ":11231,"áĭĿáĬŃáĪŃ":11232,"ĠáĭŃáĪį":11233,"Ġáĭĵáī²":11234,"áīĢáīµáĪª":11235,"ĠáĬ¤áĪªáĬĵ":11236,"ĠáĬŃáīµáĪħáī¥":11237,"ĠáĪĿáĪŃáĬ»áī¥":11238,"ĠáĪĿáįįáĪĭ":11239,"áĪļáĬ«áĬ¤áĪįáĬķ":11240,"ĠáĪĿáĮįáįĭáįį":11241,"áįįáīħáĪŃ":11242,"ĠáĪĿáĪįáĬ¥áī²":11243,"áĮĨáĬķ":11244,"Ġáī°áīłáĮĬáĪ¶áĪĿ":11245,"ĠáĭĿáĭĿáĪŃáĮĭáĪķ":11246,"ĠáĬķáĬĲáī¥áĪ°áĭŃ":11247,"ĠáĪŃáĬ¢áĬ»":11248,"Ġáī°áĮ»áī¥áĬ¦áī³áīµ":11249,"ĠáįĪáīĲáĭ¶":11250,"ĠáĪĺáĮ¨":11251,"ĠáĬŃáĭīáĬķ":11252,"ĠáĭĺáĭŃáĪĥ":11253,"ĠáĮ¸áĮĪáĪĽáīµáĬķ":11254,"ĠáĬ«áĪŃáī¦áĬķ":11255,"ĠáĪµáī¥áĪĥáī±":11256,"áīµáĬĳ":11257,"ĠáĬ£áĪ³áĬ¥":11258,"áĬŃáĬĴ":11259,"áĭĺáĬķáĮįáĭķ":11260,"Ġáī°áĪĵáī¢":11261,"ĠáĬķáĮ¥áįĪáī³áī±":11262,"ĠáĭĿáĭįáĬŃáĪį":11263,"ĠáĬ£áĬ¨áī£áī¥áĬķ":11264,"ĠáĪ°áĪĿáĪĥáĪŃ":11265,"ĠáĬŃáĮ¥áīĢáĪµ":11266,"ĠáĪļáĬ«áĭ«":11267,"ĠáĪĪáĮĪáĪµáī²":11268,"áĪĽáĪŃáĭ«áĪĿáĬķ":11269,"ĠáĬĲáĭĬ":11270,"ĠáĭŃáĪ°áĪŃáĪĳ":11271,"ĠáĭĺáĪİáĬ«":11272,"Ġáī¥áĪĿáĭįáĪ³":11273,"ĠáĪµáĪĿáĭĴáīµáĬķ":11274,"ĠáĭĺáĭµáĪįáĭ®áĪĿ":11275,"áĮĪáĭ³áĪĿáĬķ":11276,"ĠáĪįáĭķáĪĪáĭŃ":11277,"ĠáĭĪáĬ¨áįİáĪĿ":11278,"Ġáī¥áĬ£áĮĭáĮ£áĪļ":11279,"ĠáĪĿáĬ¥áī³áĭī":11280,"ĠáĪµáĪĪáĭĿáĮłáįįáĬ£áĬĴ":11281,"áĭ°áĪ±":11282,"ĠáĬĲáĭµáĪª":11283,"ĠáĬ£áĭĿáĭ¨áĬķ":11284,"ĠáĪ»áĭ±áĪ»áĭŃ":11285,"ĠáĪµáĪŃáĭĵáīµáĬķ":11286,"ĠáĪĵáĭµáĬĲáīµáĬķ":11287,"2015":11288,"ĠáĮŃáī¥áĮ¢":11289,"Ġáī¥áĪµáĪĿáĭĴáīµ":11290,"áī¥áĭĪáĮĪáĬķ":11291,"áĪĿáī¥áĪŃáī²":11292,"ĠáĪµáī¶áĬŃ":11293,"ĠáĭĿáįĭáĬķ":11294,"ĠáĭŃáĪµáĭķáī¥":11295,"ĠáĬ£áĪµáįĬ":11296,"ĠáĮĪáĮ½áĬ«":11297,"áĭĺáĬķáī±":11298,"ĠáĪĺáĪĵáĭĿáĬ£":11299,"ĠáįĬáĭļ":11300,"ĠáįĪáī°áĭį":11301,"áĪĪáĪ³":11302,"ĠáĭĿáĮłáīķ":11303,"áįįáĬķáī²":11304,"ĠáĬŃáīµáĪŃáĬ¥áĭ®":11305,"áįĪáĪįáĮ¢":11306,"áĬ£áĪŃáī£áĭķáī°":11307,"ĠáīĲáĭ³áĪĽáĭŃ":11308,"ĠáĪĺáĮłáĬĲ":11309,"áĭµáī£":11310,"ĠáĭĺáĮĪáĪįáĮįáĪī":11311,"áĪ°áĪ«áĪķ":11312,"áĭĵáĪ¨áī¥":11313,"ĠáĬ¨áĪĿáī³":11314,"ĠáĪķáĪ±áĪĿ":11315,"ĠáĭķáĪµáĪ«áĬķ":11316,"ĠáĬ«áĪįáĬłáĭŃáī²":11317,"Ġáī³áī£":11318,"Ġáī¥áĪĵáĮİáĪµ":11319,"ĠáĭĿáĭĵáīłáĭ¨áīµ":11320,"ĠáĪĺáįįáīµáĪķ":11321,"áĭŃáĭİáĪĿ":11322,"áĭķáĭĺáī¥":11323,"ĠáĭķáĪ½áĪ½":11324,"áĪĪáĭįáĪī":11325,"ĠáĪĿáĪģáĪ«áīµ":11326,"08":11327,"ĠáĪĿáĪ³áĬº":11328,"áĭ°áĪĪáĭŃ":11329,"ĠáĪ°áĪĬ":11330,"ĠáīµáĬ½áĬ¥áĪī":11331,"ĠáĬŃáĬķáĪ°áĪŃáĪķ":11332,"áī¥áĪ«áĭįáĭ«áĬķ":11333,"ĠáĪĿáĪĿáĪķáĭ³áĪŃáĬķ":11334,"Ġáĭ³áĬķáĬĲáīµ":11335,"Ġáĭ³áĪħáĪ³áĪµ":11336,"ĠáĬ¨áĪķ":11337,"ĠáĬŃáĪħáī¦":11338,"ĠáĬ¥áĬĵáīłáĪĭ":11339,"Ġáĭ¶áī£áīµ":11340,"ĠáĬķáĪĵáĪĻáĪ½áī°":11341,"áĮĪáī¥áĪ¨áĪİáĪĿ":11342,"ĠáĬķáĮ¸áĪĭáĬ¢":11343,"Ġáī°áĬ¸áĪĭáĬ»áĪĬ":11344,"ĠáĬŃáĭĵáĭĿáĭĿ":11345,"Ġáĭ°áĪª":11346,"ĠáīłáĭŃáĪį":11347,"ĠáįįáĮ¥áĪ¨":11348,"áĮ£áĪĿ":11349,"ĠáĬŃáĪįáī´áĬĵ":11350,"Ġ51":11351,"ĠáĬķáĭĺáĪĪáĭİáĪĿ":11352,"Ġ05":11353,"ĠáĭĺáĭŃáīµáįĪáĪįáĮ¥":11354,"Ġáī¥áīµáĮįáĪŃáĬĽ":11355,"áĬĵáĭ®áĪĿ":11356,"áĬ£áĪĪáĭŃ":11357,"áĪĥáĪĿáįķáī°áĬķ":11358,"ĠáĪĿáĭµáĪĭáĭŃ":11359,"áīłáĪĪáĮ¸":11360,"ĠáĬ£áĬ¥áīµáĭ©":11361,"ĠáĪĺáĭĵáĬķáĮ£":11362,"ĠáĪŃáĪĴáīĵ":11363,"Ġáī°áĪ°áĪļáĭĳáĬĴ":11364,"ĠáĪĿáĮ¥áīĥáĪµ":11365,"áĮĪáĪĺ":11366,"ĠáīµáĬĲáī¥áĪŃ":11367,"ĠáĬ£áĪįáĮĭáĬĲáĪ½":11368,"Ġáī°áĪĵáĮĭáĮĭáĭļ":11369,"Ġ800":11370,"Ġáī°áĪ¨áĬº":11371,"Ġáī³áĬķáĬŃ":11372,"06":11373,"ĠáĭĿáĪĽ":11374,"áĭįáĪĳ":11375,"ĠáĬ«áįĴ":11376,"ĠáĪ½áī¶":11377,"ĠáĪĵáĭ²áĪ©":11378,"áĬ½áĬ¥áĪĬ":11379,"ĠáĭĿáĪĵáĪ°áī¥":11380,"ĠáĭĪáĪ¨áīĵáīķáī²":11381,"áĬ¨áĬ£áĪİ":11382,"ĠáĪµáĮĭáĬķ":11383,"ĠáĬ£áĪĽáĪįáĬ½áī²":11384,"ĠáĭĿáĪ°áĪĿ":11385,"ĠáĭĿáī¥áĪīáĬķ":11386,"áĬŃáĪĿáĬĵ":11387,"ĠáĬŃáīµáī¥áĪİ":11388,"ĠáĬ£áįįáĪ«áĭŃ":11389,"áĪĸáĪĿáĬķ":11390,"ĠáĪĿáĪķáī³áīµ":11391,"áĪ¨áĪµáī¶áīµ":11392,"ĠáĭŃáĮįáĪĿ":11393,"ĠáĪĵáĭįáĬĵ":11394,"ĠáĭŃáĭĪáĪĥ":11395,"ĠáĬ£áīłáĪŃáī²áĭĸáĪĿ":11396,"ĠáĬ¨áĪĲ":11397,"áĪĽáĪļ":11398,"Ġáīĭ":11399,"ĠáĪĺáĭ°áīłáĪ«áīµ":11400,"áĪĺáĪµáĮĪáĬķ":11401,"ĠáĪĺáĭĵáĪŃáĮį":11402,"Ġáī¸áĬŃ":11403,"ĠáĬŃáįĭáĪī":11404,"áĪĺáĪįáĬ¥":11405,"ĠáĬŃáĬ£áīµ":11406,"áĭ°áĬ«":11407,"áĭ°áīķ":11408,"ĠáĭĺáįįáĪ¨":11409,"ĠáįĪáĮł":11410,"ĠáĪĺáĮ»áĪ¨áĭª":11411,"Ġáī°áĪ«áĬ¸":11412,"ĠáĭŃáĮįáĪĺáīµ":11413,"ĠáįķáĪ®áī²áĬķ":11414,"ĠáĭĿáĪ°áĪŃáĪĵáĪī":11415,"ĠáĬ¥áĬķáī°áĭĺáĭŃáīĢáĪªáī¥áĬ«":11416,"áĬ£áĬ¥áĪĿáĪ®áĬ£áĭĬ":11417,"ĠáĭĿáĬ«áĭ¨áĭ°áĪī":11418,"ĠáĭµáĪĿáĮ»áĭĬ":11419,"Ġáī°áĪ°áĬķáĭ©":11420,"ĠáĭĿáĪĲ":11421,"áĪĵáĪİáĪĿ":11422,"ĠáĭŃáĪŃáĬ¨áī¦":11423,"áĮ¢áĬ£áīµ":11424,"ĠáĬ¥áīµáīłáĪĥáĪį":11425,"ĠáĬ£áĬķáįĪ":11426,"ĠáĭĿáįĪáī°":11427,"2019":11428,"Ġáī¥áĪĿáĬķáī£áĪ®áĪĿ":11429,"ĠáĬ£áĬ¥áĭ³áĭī":11430,"Ġáĭ°áĪŀáĬŃ":11431,"Ġáī°áĬ£áĪĿáĪ«áīµ":11432,"ĠáĪĵáĪ¨áĮį":11433,"ĠáĬ£áĭŃáĪķ":11434,"ĠáĪ¨áĭ²":11435,"ĠáĭĿáĪĺáĮ½áĬł":11436,"ĠáĪµáĬĲáĮ¥áīłáī¥":11437,"ĠáĭĿáīłáĪĪáī¶":11438,"ĠáĪĿáĬķáīħáĪµáīĵáĪ³áīµ":11439,"ĠáĪīáĭĬáĪµ":11440,"ĠáĬķáĪĿáĪµáĪ«áĪķ":11441,"áĬŃáĪįáī²áĬ¦áĪĿ":11442,"ĠáĭķáĮįáĪŃáĮįáĪŃ":11443,"ĠáĪµáįĸáĪŃáī³áĭįáĭ«áĬķ":11444,"ĠáįįáīķáĪŃ":11445,"áĮ¡áĪŃ":11446,"ĠáĮłáĮłáĭį":11447,"Ġáī¥áīĲáĪĬáĪį":11448,"Ġ08":11449,"áĪĵáīłáĪ¬áī³":11450,"áĮ¸áĭĵ":11451,"ĠáĭĺáĭŃáĭĵ":11452,"Ġáī°áĬ¸áī²":11453,"ĠáĬĶáĪ«":11454,"Ġáīªáĭµáĭ®":11455,"áī°áĪµ":11456,"ĠáīµáĬ©":11457,"ĠáĬ¥áīµáĬĲ":11458,"ĠáĬĵáīķáįĭáĬķ":11459,"Ġáī¥áĪĿáīķáĮ»áĪį":11460,"ĠáĮĤáĬ¦":11461,"ĠáĬ£áī²áĬĵ":11462,"ĠáĭĵáĪ¨áĭĽ":11463,"ĠáĮĭáĭľáĮłáĬĽ":11464,"ĠáĪĪáī£áĪĿ":11465,"ĠáĬ£áĮĢáĬķáĭ³":11466,"áĪµáĬŃ":11467,"áĬ£áĪ½áī±":11468,"ĠáĮĪáīłáĬĵ":11469,"áĮīáĭ³áĭŃ":11470,"ĠáĮ¸áĮĭáĪĽáĭŃ":11471,"áĭĵáĭŃáĬĴ":11472,"Ġ03":11473,"ĠáĬŃáĪħáĪįáĭĪáĬ«":11474,"ĠáĬ¢áĪ³áĭ«áĪµ":11475,"Ġáĭĺáī¢áī£":11476,"áĬ¥áĭį":11477,"ĠáĭĺáįįáĪŃ":11478,"ĠáĬ«áĪŃáī³":11479,"ĠáĭĿáĭĪáĭĵáĪĪ":11480,"áĭŃáĭµáĪµ":11481,"áĪĽáĭķáĬķ":11482,"ĠáĬ»áĪħáĬĵáīµ":11483,"ĠáĭĿáĪĥáīłáī¶":11484,"ĠáĬŃáī¥áĭµ":11485,"ĠáĬŃáĪħáĪįáĭī":11486,"ĠáĮīáĭµáĮĵáĭµ":11487,"ĠáĮ½áĪĿáĭĭ":11488,"ĠáīµáĭķáĭĿ":11489,"ĠáĮĴáĭķáĭŀ":11490,"ĠáĭĵáĮ½áĪļ":11491,"ĠáĪįáĭ³":11492,"ĠáĬķáĪĿáĮ¥áīĥáĪµ":11493,"ĠáĬ¥áĪĿáĬĲ":11494,"Ġáī°áĮ¸áĪĿ":11495,"ĠáįĬáĪįáĪŀáĬķ":11496,"Ġáī°áī°áĪĵáĪĴ":11497,"áī¥áĪ«áīµ":11498,"ĠáĬ£áĪĵ":11499,"áīħáĬ»":11500,"ĠáĪĺáĬķáĮİáĬ¦áĪĿ":11501,"ĠáĪĿáīµáĮįáī£áĪŃ":11502,"Ġáī£áĭķáĪįáĬĵ":11503,"áĮ¥áįįáĬ¡":11504,"áĮ½áĬ£áĬĴ":11505,"ĠáĪĵáī°áī°áīµ":11506,"ĠáĪµáī¥áĬ¨áīµ":11507,"áĬķáĮ¸áī£áĪŃáīķ":11508,"áĬ½áĬ»áī¥":11509,"ĠáĭĿáĪŃáĮįáĪĲ":11510,
[...]
